{
  "version": "1.0",
  "truncation": null,
  "padding": null,
  "added_tokens": [
    {
      "id": 0,
      "content": "<|endoftext|>",
      "single_word": false,
      "lstrip": false,
      "rstrip": false,
      "normalized": false,
      "special": true
    }
  ],
  "normalizer": null,
  "pre_tokenizer": {
    "type": "Whitespace"
  },
  "post_processor": null,
  "decoder": null,
  "model": {
    "type": "BPE",
    "dropout": null,
    "unk_token": null,
    "continuing_subword_prefix": null,
    "end_of_word_suffix": null,
    "fuse_unk": false,
    "byte_fallback": false,
    "ignore_merges": false,
    "vocab": {
      "<|endoftext|>": 0,
      "c": 1,
      "ʻ": 2,
      "ሀ": 3,
      "ሁ": 4,
      "ሂ": 5,
      "ሄ": 6,
      "ህ": 7,
      "ሆ": 8,
      "ሇ": 9,
      "ለ": 10,
      "ሉ": 11,
      "ሊ": 12,
      "ላ": 13,
      "ሌ": 14,
      "ል": 15,
      "ሎ": 16,
      "ሏ": 17,
      "መ": 18,
      "ሙ": 19,
      "ሚ": 20,
      "ማ": 21,
      "ሜ": 22,
      "ም": 23,
      "ሞ": 24,
      "ሟ": 25,
      "ሠ": 26,
      "ሡ": 27,
      "ሢ": 28,
      "ሣ": 29,
      "ሤ": 30,
      "ሥ": 31,
      "ሦ": 32,
      "ረ": 33,
      "ሩ": 34,
      "ሪ": 35,
      "ራ": 36,
      "ሬ": 37,
      "ር": 38,
      "ሮ": 39,
      "ሯ": 40,
      "ሷ": 41,
      "ሸ": 42,
      "ሹ": 43,
      "ሺ": 44,
      "ሻ": 45,
      "ሼ": 46,
      "ሽ": 47,
      "ሾ": 48,
      "ሿ": 49,
      "ቀ": 50,
      "ቁ": 51,
      "ቂ": 52,
      "ቃ": 53,
      "ቄ": 54,
      "ቅ": 55,
      "ቆ": 56,
      "ቈ": 57,
      "ቊ": 58,
      "ቋ": 59,
      "ቍ": 60,
      "በ": 61,
      "ቡ": 62,
      "ቢ": 63,
      "ባ": 64,
      "ቤ": 65,
      "ብ": 66,
      "ቦ": 67,
      "ቧ": 68,
      "ቪ": 69,
      "ቫ": 70,
      "ተ": 71,
      "ቱ": 72,
      "ቲ": 73,
      "ታ": 74,
      "ቴ": 75,
      "ት": 76,
      "ቶ": 77,
      "ቷ": 78,
      "ቸ": 79,
      "ቹ": 80,
      "ቺ": 81,
      "ቻ": 82,
      "ቼ": 83,
      "ች": 84,
      "ቿ": 85,
      "ኋ": 86,
      "ነ": 87,
      "ኑ": 88,
      "ኒ": 89,
      "ና": 90,
      "ኔ": 91,
      "ን": 92,
      "ኖ": 93,
      "ኗ": 94,
      "ኘ": 95,
      "ኙ": 96,
      "ኚ": 97,
      "ኛ": 98,
      "ኜ": 99,
      "ኝ": 100,
      "ኞ": 101,
      "አ": 102,
      "ኡ": 103,
      "ኢ": 104,
      "ኣ": 105,
      "ኤ": 106,
      "እ": 107,
      "ኦ": 108,
      "ኧ": 109,
      "ከ": 110,
      "ኩ": 111,
      "ኪ": 112,
      "ካ": 113,
      "ኬ": 114,
      "ክ": 115,
      "ኮ": 116,
      "ኰ": 117,
      "ኲ": 118,
      "ኳ": 119,
      "ኵ": 120,
      "ኸ": 121,
      "ኹ": 122,
      "ኻ": 123,
      "ኽ": 124,
      "ኾ": 125,
      "ወ": 126,
      "ዉ": 127,
      "ዊ": 128,
      "ዋ": 129,
      "ዌ": 130,
      "ው": 131,
      "ዎ": 132,
      "ዘ": 133,
      "ዙ": 134,
      "ዚ": 135,
      "ዛ": 136,
      "ዜ": 137,
      "ዝ": 138,
      "ዞ": 139,
      "ዟ": 140,
      "ዠ": 141,
      "ዢ": 142,
      "ዣ": 143,
      "ዤ": 144,
      "ዥ": 145,
      "የ": 146,
      "ዩ": 147,
      "ዪ": 148,
      "ያ": 149,
      "ዬ": 150,
      "ይ": 151,
      "ዮ": 152,
      "ዯ": 153,
      "ደ": 154,
      "ዱ": 155,
      "ዲ": 156,
      "ዳ": 157,
      "ዴ": 158,
      "ድ": 159,
      "ዶ": 160,
      "ዷ": 161,
      "ዼ": 162,
      "ጀ": 163,
      "ጁ": 164,
      "ጂ": 165,
      "ጃ": 166,
      "ጄ": 167,
      "ጅ": 168,
      "ጆ": 169,
      "ጇ": 170,
      "ገ": 171,
      "ጉ": 172,
      "ጊ": 173,
      "ጋ": 174,
      "ጌ": 175,
      "ግ": 176,
      "ጎ": 177,
      "ጐ": 178,
      "ጓ": 179,
      "ጕ": 180,
      "ጠ": 181,
      "ጡ": 182,
      "ጢ": 183,
      "ጣ": 184,
      "ጤ": 185,
      "ጥ": 186,
      "ጦ": 187,
      "ጧ": 188,
      "ጨ": 189,
      "ጩ": 190,
      "ጪ": 191,
      "ጫ": 192,
      "ጬ": 193,
      "ጭ": 194,
      "ጮ": 195,
      "ጰ": 196,
      "ጲ": 197,
      "ጳ": 198,
      "ጴ": 199,
      "ጵ": 200,
      "ጶ": 201,
      "ጷ": 202,
      "ጸ": 203,
      "ጹ": 204,
      "ጺ": 205,
      "ጻ": 206,
      "ጼ": 207,
      "ጽ": 208,
      "ጾ": 209,
      "ጿ": 210,
      "ፀ": 211,
      "ፁ": 212,
      "ፂ": 213,
      "ፃ": 214,
      "ፄ": 215,
      "ፅ": 216,
      "ፆ": 217,
      "ፈ": 218,
      "ፉ": 219,
      "ፊ": 220,
      "ፋ": 221,
      "ፌ": 222,
      "ፍ": 223,
      "ፎ": 224,
      "ፏ": 225,
      "ፐ": 226,
      "ፓ": 227,
      "ፔ": 228,
      "ፕ": 229,
      "ፖ": 230,
      "፬": 231,
      "❶": 232,
      "❷": 233,
      "❸": 234,
      "❹": 235,
      "❺": 236,
      "❻": 237,
      "❼": 238,
      "❽": 239,
      "❾": 240,
      "❿": 241,
      "➊": 242,
      "እን": 243,
      "አን": 244,
      "ነው": 245,
      "አለ": 246,
      "አም": 247,
      "ምን": 248,
      "ነት": 249,
      "ቸው": 250,
      "እንደ": 251,
      "በት": 252,
      "የሚ": 253,
      "አይ": 254,
      "አምላ": 255,
      "ለው": 256,
      "የተ": 257,
      "መን": 258,
      "ሠማ": 259,
      "ሠው": 260,
      "ላይ": 261,
      "ችን": 262,
      "ሁሉ": 263,
      "መሥ": 264,
      "ትን": 265,
      "ብር": 266,
      "ድን": 267,
      "እና": 268,
      "ጌታ": 269,
      "ርሥ": 270,
      "ውን": 271,
      "ወደ": 272,
      "እያ": 273,
      "አል": 274,
      "በእ": 275,
      "ቅር": 276,
      "አሥ": 277,
      "እኔ": 278,
      "አምላክ": 279,
      "በረ": 280,
      "አት": 281,
      "ሥት": 282,
      "በር": 283,
      "ሆን": 284,
      "ብሎ": 285,
      "እንዲ": 286,
      "ሥለ": 287,
      "አባ": 288,
      "እንዳ": 289,
      "ምሥ": 290,
      "ገር": 291,
      "ድር": 292,
      "ህን": 293,
      "እግ": 294,
      "ግል": 295,
      "ያን": 296,
      "ግን": 297,
      "አብ": 298,
      "ሥን": 299,
      "ለም": 300,
      "መል": 301,
      "ቱን": 302,
      "እሥ": 303,
      "ሣት": 304,
      "ፍቅር": 305,
      "ክርሥ": 306,
      "አንድ": 307,
      "መለ": 308,
      "ናት": 309,
      "እር": 310,
      "አለም": 311,
      "በደ": 312,
      "ያሥ": 313,
      "እየ": 314,
      "ይወ": 315,
      "ረው": 316,
      "ለመ": 317,
      "ለት": 318,
      "ድንግል": 319,
      "ላት": 320,
      "ርያ": 321,
      "እው": 322,
      "ተው": 323,
      "መጣ": 324,
      "በል": 325,
      "ሣይ": 326,
      "ሆነ": 327,
      "ልጅ": 328,
      "ሥታ": 329,
      "የማ": 330,
      "ሁን": 331,
      "አንተ": 332,
      "ተማ": 333,
      "ማን": 334,
      "ቃል": 335,
      "ረት": 336,
      "ቀል": 337,
      "ያለ": 338,
      "ደረ": 339,
      "ደር": 340,
      "ህይወ": 341,
      "ሀይ": 342,
      "ሞት": 343,
      "ያት": 344,
      "መሠ": 345,
      "መድ": 346,
      "ወይ": 347,
      "መር": 348,
      "ቤት": 349,
      "ችሁ": 350,
      "ወን": 351,
      "ዛሬ": 352,
      "የም": 353,
      "ያል": 354,
      "ልን": 355,
      "አዳ": 356,
      "ቀን": 357,
      "ዚህ": 358,
      "ዲያ": 359,
      "ጊዜ": 360,
      "የሚያ": 361,
      "ለሁ": 362,
      "ንም": 363,
      "ለማ": 364,
      "ቅዱ": 365,
      "እኛ": 366,
      "ክርሥቶ": 367,
      "ገድ": 368,
      "ምህ": 369,
      "ሀን": 370,
      "መና": 371,
      "ሥራ": 372,
      "በአ": 373,
      "ቀር": 374,
      "ዴት": 375,
      "ክርሥቶሥ": 376,
      "ሄር": 377,
      "ምድር": 378,
      "ነሣ": 379,
      "ነፍ": 380,
      "ነበር": 381,
      "ልብ": 382,
      "ዘን": 383,
      "ገባ": 384,
      "እግዚ": 385,
      "አመ": 386,
      "እውነት": 387,
      "ሥም": 388,
      "በመ": 389,
      "ተን": 390,
      "ወለ": 391,
      "ወጣ": 392,
      "አብሄር": 393,
      "ሥጋ": 394,
      "ተቀ": 395,
      "ጠፋ": 396,
      "ሠማይ": 397,
      "የት": 398,
      "ሠላ": 399,
      "እግዚአብሄር": 400,
      "ሆይ": 401,
      "ባት": 402,
      "ተሥ": 403,
      "ሢያ": 404,
      "ቀው": 405,
      "ኢየ": 406,
      "ዘመን": 407,
      "ጠራ": 408,
      "ለን": 409,
      "ረሥ": 410,
      "እሣት": 411,
      "ገረ": 412,
      "ለች": 413,
      "ላል": 414,
      "ትና": 415,
      "ናል": 416,
      "ኖር": 417,
      "አር": 418,
      "እም": 419,
      "ዋን": 420,
      "ውሥ": 421,
      "ዳን": 422,
      "ህይወት": 423,
      "ኢየሡ": 424,
      "ሀጢ": 425,
      "ሠጠ": 426,
      "ሩን": 427,
      "ሽን": 428,
      "ነገር": 429,
      "ኤል": 430,
      "ከራ": 431,
      "ክህ": 432,
      "ድም": 433,
      "ጋር": 434,
      "አንቺ": 435,
      "በማ": 436,
      "ባን": 437,
      "ተዋ": 438,
      "እንዴት": 439,
      "መሥቀል": 440,
      "ርያም": 441,
      "ለምን": 442,
      "ሉት": 443,
      "ሠይ": 444,
      "ከፍ": 445,
      "ክር": 446,
      "ደም": 447,
      "ክብር": 448,
      "ፋት": 449,
      "መረ": 450,
      "በራ": 451,
      "ታው": 452,
      "ነኝ": 453,
      "ኛል": 454,
      "እሡ": 455,
      "ደግ": 456,
      "ጣሪ": 457,
      "አባት": 458,
      "የማይ": 459,
      "መቅ": 460,
      "መው": 461,
      "ለህ": 462,
      "ልኝ": 463,
      "ሥር": 464,
      "በቃ": 465,
      "ነበረ": 466,
      "አሣ": 467,
      "ደሥ": 468,
      "ፍጥ": 469,
      "እርሡ": 470,
      "በሠ": 471,
      "ተና": 472,
      "ቴን": 473,
      "ነቱ": 474,
      "አላ": 475,
      "አማ": 476,
      "ከት": 477,
      "ኸው": 478,
      "ያው": 479,
      "ፈራ": 480,
      "አዳም": 481,
      "መላ": 482,
      "ቢያ": 483,
      "ተነ": 484,
      "ታት": 485,
      "ንጉ": 486,
      "አሁን": 487,
      "ክብ": 488,
      "ዎች": 489,
      "ዬን": 490,
      "ፊት": 491,
      "ልደ": 492,
      "ሠም": 493,
      "ሥላ": 494,
      "በው": 495,
      "አጥ": 496,
      "እረ": 497,
      "ይቅር": 498,
      "ግር": 499,
      "ጠብ": 500,
      "ብርሀን": 501,
      "ሠላም": 502,
      "ሊያ": 503,
      "ሡን": 504,
      "ሤን": 505,
      "ብዙ": 506,
      "አው": 507,
      "እመ": 508,
      "እየተ": 509,
      "ይህ": 510,
      "ገብ": 511,
      "ግብ": 512,
      "ጣን": 513,
      "ቅዱሥ": 514,
      "ለኝ": 515,
      "መከራ": 516,
      "ማርያም": 517,
      "ራት": 518,
      "ባህ": 519,
      "ተሠ": 520,
      "አደ": 521,
      "እጅ": 522,
      "ጠር": 523,
      "ፈጣሪ": 524,
      "እያለ": 525,
      "ተሥፋ": 526,
      "ልክ": 527,
      "ባለ": 528,
      "ንሥ": 529,
      "አድር": 530,
      "ከብ": 531,
      "ወድ": 532,
      "ይህን": 533,
      "ገን": 534,
      "ምሥጢ": 535,
      "በሀ": 536,
      "አቅ": 537,
      "እባ": 538,
      "ካም": 539,
      "ወር": 540,
      "ፍሬ": 541,
      "ሁሉን": 542,
      "እሥከ": 543,
      "ሆኖ": 544,
      "ልታ": 545,
      "መጠ": 546,
      "በላ": 547,
      "ከው": 548,
      "እንድ": 549,
      "አንዱ": 550,
      "ኢየሡሥ": 551,
      "ሉን": 552,
      "ልም": 553,
      "ማህ": 554,
      "ሠራ": 555,
      "ሠጥ": 556,
      "ሥሙ": 557,
      "ቀረ": 558,
      "ብላ": 559,
      "ብቻ": 560,
      "ታችን": 561,
      "ንቀ": 562,
      "ኢት": 563,
      "ዊት": 564,
      "ደሥታ": 565,
      "ገል": 566,
      "ገኘ": 567,
      "ጠው": 568,
      "ጣት": 569,
      "ጥሮ": 570,
      "ፈሥ": 571,
      "ፈር": 572,
      "አንደ": 573,
      "ሁሉም": 574,
      "እናት": 575,
      "ሥቱ": 576,
      "ሪያ": 577,
      "በሥ": 578,
      "በዛ": 579,
      "ባል": 580,
      "ባር": 581,
      "ተም": 582,
      "እነ": 583,
      "እክ": 584,
      "ከተ": 585,
      "ካል": 586,
      "ውሀ": 587,
      "ዘር": 588,
      "አይደ": 589,
      "አምላኬ": 590,
      "ንጉሥ": 591,
      "ሠር": 592,
      "ባይ": 593,
      "ችው": 594,
      "ነገ": 595,
      "ንተ": 596,
      "አድ": 597,
      "ከም": 598,
      "ይኸው": 599,
      "ፍር": 600,
      "እንዳይ": 601,
      "ሄድ": 602,
      "ማኖ": 603,
      "ሣለ": 604,
      "ሣን": 605,
      "ረሣ": 606,
      "ረኝ": 607,
      "በተ": 608,
      "ቤተ": 609,
      "ብን": 610,
      "ኑን": 611,
      "እራ": 612,
      "ከል": 613,
      "የመ": 614,
      "ዮር": 615,
      "ዮና": 616,
      "ደው": 617,
      "ገኝ": 618,
      "አለኝ": 619,
      "ምንም": 620,
      "ሀይማኖ": 621,
      "ሎት": 622,
      "ማር": 623,
      "ቀድ": 624,
      "በጣ": 625,
      "ንቱ": 626,
      "ኞች": 627,
      "የለ": 628,
      "ዳግ": 629,
      "ጆች": 630,
      "ገና": 631,
      "ጠይ": 632,
      "ፍራ": 633,
      "ፍቅ": 634,
      "እንባ": 635,
      "መለሥ": 636,
      "መድሀ": 637,
      "ሀል": 638,
      "ህዶ": 639,
      "ልድ": 640,
      "መቼ": 641,
      "መነ": 642,
      "በህ": 643,
      "በጥ": 644,
      "ብሽ": 645,
      "ኖሥ": 646,
      "አሉ": 647,
      "አያ": 648,
      "ከቶ": 649,
      "ከፈ": 650,
      "ኩኝ": 651,
      "ኳን": 652,
      "ዘለ": 653,
      "የው": 654,
      "ድረሥ": 655,
      "ጉን": 656,
      "ጠላ": 657,
      "ኢትዮ": 658,
      "መራ": 659,
      "መጥ": 660,
      "ሣል": 661,
      "ቀና": 662,
      "ተሸ": 663,
      "ተወ": 664,
      "ካህ": 665,
      "ክን": 666,
      "ዝም": 667,
      "እንጂ": 668,
      "መንገድ": 669,
      "ዛሬም": 670,
      "ሀጢአት": 671,
      "ደግሞ": 672,
      "ኢትዮጵ": 673,
      "ልጄ": 674,
      "መች": 675,
      "ሤት": 676,
      "ቀኝ": 677,
      "በቅ": 678,
      "ቤቱ": 679,
      "ታቸው": 680,
      "ኛው": 681,
      "አረ": 682,
      "አክ": 683,
      "ያለው": 684,
      "ደን": 685,
      "ገለ": 686,
      "መንፈሥ": 687,
      "እናቴ": 688,
      "ዲያብሎ": 689,
      "መላእክ": 690,
      "አደራ": 691,
      "ልና": 692,
      "ሚያ": 693,
      "ማሥ": 694,
      "ቅም": 695,
      "በግ": 696,
      "በአንድ": 697,
      "ብት": 698,
      "ናው": 699,
      "ከር": 700,
      "ከኝ": 701,
      "ይሄ": 702,
      "ገነት": 703,
      "ፀሀይ": 704,
      "አይሁ": 705,
      "በእም": 706,
      "ክርሥቲ": 707,
      "ፍጥረት": 708,
      "ሀይማኖት": 709,
      "መድሀኒ": 710,
      "ለታ": 711,
      "ልት": 712,
      "መታ": 713,
      "ሙን": 714,
      "ባቸው": 715,
      "ብዬ": 716,
      "ተራ": 717,
      "ተፈ": 718,
      "ቶች": 719,
      "ነን": 720,
      "ወቅ": 721,
      "ዝሙ": 722,
      "የታ": 723,
      "የእ": 724,
      "ጠፍ": 725,
      "እንኳን": 726,
      "በደል": 727,
      "ምሥጢር": 728,
      "እባክህ": 729,
      "ዲያብሎሥ": 730,
      "ሀዋ": 731,
      "ሆና": 732,
      "ላቸው": 733,
      "ልቤ": 734,
      "ሎሥ": 735,
      "ሙሉ": 736,
      "ማት": 737,
      "ምር": 738,
      "ሞትን": 739,
      "ሠን": 740,
      "ረድ": 741,
      "በለ": 742,
      "በም": 743,
      "ቡን": 744,
      "ቤቴ": 745,
      "ተህ": 746,
      "ትቶ": 747,
      "ትው": 748,
      "ኔን": 749,
      "ክፉ": 750,
      "ወዳ": 751,
      "የቆ": 752,
      "የሠው": 753,
      "የለም": 754,
      "ደት": 755,
      "ገው": 756,
      "ጠል": 757,
      "ጠላት": 758,
      "ፈል": 759,
      "ፈው": 760,
      "አንዳ": 761,
      "በእው": 762,
      "አባቴ": 763,
      "ምህር": 764,
      "ንሥሀ": 765,
      "ሀዋርያ": 766,
      "ሀገ": 767,
      "ሀገር": 768,
      "ሊት": 769,
      "ልህ": 770,
      "ሜን": 771,
      "ሥቃ": 772,
      "በሩ": 773,
      "ቢት": 774,
      "ብኝ": 775,
      "ታላ": 776,
      "ታይ": 777,
      "ኋላ": 778,
      "አበ": 779,
      "ከበረ": 780,
      "ዚያ": 781,
      "ዜማ": 782,
      "የኔ": 783,
      "የዋ": 784,
      "ያኔ": 785,
      "ድል": 786,
      "ድቅ": 787,
      "ጋራ": 788,
      "ጠን": 789,
      "መሥቀ": 790,
      "እናቱ": 791,
      "ምሥራ": 792,
      "ወንጌ": 793,
      "ቅዱሣን": 794,
      "እምነት": 795,
      "በጣም": 796,
      "አይሁድ": 797,
      "ክርሥቲያን": 798,
      "ሁሌ": 799,
      "ህዝ": 800,
      "ህትና": 801,
      "ሆነው": 802,
      "ለብ": 803,
      "ለኛ": 804,
      "ልዩ": 805,
      "ልጇ": 806,
      "ልጆች": 807,
      "ማይ": 808,
      "ምት": 809,
      "ሠብ": 810,
      "ሠአት": 811,
      "ረቱ": 812,
      "ቅል": 813,
      "ቅድ": 814,
      "በሉ": 815,
      "በቁ": 816,
      "በፍቅር": 817,
      "ብለው": 818,
      "ተር": 819,
      "ነግ": 820,
      "ናቸው": 821,
      "አዝ": 822,
      "አደረ": 823,
      "ከመ": 824,
      "ዋል": 825,
      "ዘመ": 826,
      "የቀ": 827,
      "ዱን": 828,
      "ገት": 829,
      "ጊዮር": 830,
      "ፅና": 831,
      "ፈጥ": 832,
      "አምላኩ": 833,
      "እንዳል": 834,
      "ወይሥ": 835,
      "ሠይፍ": 836,
      "ጠይቅ": 837,
      "በእውነት": 838,
      "ጊዮርጊ": 839,
      "ሁት": 840,
      "ለበት": 841,
      "ልቅ": 842,
      "ማነው": 843,
      "ምጣ": 844,
      "ሠዎች": 845,
      "ሥል": 846,
      "ሥቡ": 847,
      "ሩም": 848,
      "ሯን": 849,
      "ቅኔ": 850,
      "በበ": 851,
      "በላይ": 852,
      "ቢሆን": 853,
      "ተደ": 854,
      "ትም": 855,
      "ነህ": 856,
      "ነሽ": 857,
      "ነቢ": 858,
      "ነቴ": 859,
      "አዛ": 860,
      "አየ": 861,
      "እኮ": 862,
      "ከሩ": 863,
      "ከፋ": 864,
      "ኩት": 865,
      "ወገ": 866,
      "ዳሤ": 867,
      "ዳዊት": 868,
      "ጨር": 869,
      "ፀን": 870,
      "ፈን": 871,
      "ሠማያት": 872,
      "በእር": 873,
      "አምላክን": 874,
      "በረከት": 875,
      "እንዲህ": 876,
      "አመት": 877,
      "ወለደ": 878,
      "ወለድ": 879,
      "ውሥጥ": 880,
      "ባህር": 881,
      "አይደለም": 882,
      "ዳግም": 883,
      "መላእክት": 884,
      "ሀት": 885,
      "ሌላ": 886,
      "ሙሤ": 887,
      "ምግ": 888,
      "ሞላ": 889,
      "ሥፍራ": 890,
      "ሬት": 891,
      "ታም": 892,
      "ታን": 893,
      "ታዲያ": 894,
      "ቶት": 895,
      "ቷን": 896,
      "ቸር": 897,
      "አፍ": 898,
      "ከላይ": 899,
      "ኪዳን": 900,
      "የአ": 901,
      "የድንግል": 902,
      "ይን": 903,
      "ድህ": 904,
      "ገላ": 905,
      "ጋና": 906,
      "ጡት": 907,
      "ጥር": 908,
      "ጥን": 909,
      "ፀጋ": 910,
      "አለው": 911,
      "ጌታችን": 912,
      "እሥኪ": 913,
      "እኛን": 914,
      "ምህረት": 915,
      "ነፍሤ": 916,
      "ተዋህዶ": 917,
      "ዮናሥ": 918,
      "ኢትዮጵያ": 919,
      "ጊዮርጊሥ": 920,
      "ሀጥ": 921,
      "ህል": 922,
      "ማማ": 923,
      "ሠት": 924,
      "ረህ": 925,
      "በቀ": 926,
      "በገ": 927,
      "በመሥቀል": 928,
      "ቦታ": 929,
      "ተጠ": 930,
      "ተመል": 931,
      "ታደ": 932,
      "ቷል": 933,
      "ነቅ": 934,
      "ናገር": 935,
      "ወሠ": 936,
      "የረ": 937,
      "የጠ": 938,
      "ይሁ": 939,
      "ይሆን": 940,
      "ይሁን": 941,
      "ገበ": 942,
      "ጠረ": 943,
      "ጥል": 944,
      "ጨን": 945,
      "ሠማዩ": 946,
      "እያሉ": 947,
      "መለኮ": 948,
      "ሀንሥ": 949,
      "አክሊ": 950,
      "ሥቡህ": 951,
      "ሀዘን": 952,
      "ለካ": 953,
      "ለዚህ": 954,
      "ልመና": 955,
      "መኝ": 956,
      "መዝሙ": 957,
      "ማም": 958,
      "ማረ": 959,
      "ሢኦ": 960,
      "ረጥ": 961,
      "ሮች": 962,
      "በብ": 963,
      "በድ": 964,
      "ተረ": 965,
      "ተወለደ": 966,
      "ታድ": 967,
      "ትር": 968,
      "ነብ": 969,
      "እል": 970,
      "ወረ": 971,
      "ወጥ": 972,
      "ዛት": 973,
      "የሠ": 974,
      "የአለም": 975,
      "ያላ": 976,
      "ይታ": 977,
      "ይመሥ": 978,
      "ገሠ": 979,
      "ገደ": 980,
      "ጥላ": 981,
      "ጽና": 982,
      "ፍት": 983,
      "አምሥቱ": 984,
      "ትንሽ": 985,
      "እያየ": 986,
      "እንዳት": 987,
      "ምሥጋና": 988,
      "ልደት": 989,
      "ገብቶ": 990,
      "ዘለአለም": 991,
      "ሄደ": 992,
      "ለቀ": 993,
      "ለጥ": 994,
      "ላክ": 995,
      "ልቶ": 996,
      "ልጃ": 997,
      "መግ": 998,
      "ምነው": 999,
      "ሢቀ": 1000,
      "ሥብ": 1001,
      "ራል": 1002,
      "ራን": 1003,
      "ቀለ": 1004,
      "ቀት": 1005,
      "ቁል": 1006,
      "ቅን": 1007,
      "በሚ": 1008,
      "በከ": 1009,
      "በይ": 1010,
      "በምድር": 1011,
      "ቢሎሥ": 1012,
      "ባዶ": 1013,
      "ነዳ": 1014,
      "ኑሮ": 1015,
      "አቤቱ": 1016,
      "እት": 1017,
      "እድ": 1018,
      "ከለ": 1019,
      "ከነ": 1020,
      "ከደ": 1021,
      "ውም": 1022,
      "ዘው": 1023,
      "ያረ": 1024,
      "ደድ": 1025,
      "ደርሥ": 1026,
      "ጉም": 1027,
      "ግድ": 1028,
      "ፀና": 1029,
      "ፊቱ": 1030,
      "በትን": 1031,
      "ድንቅ": 1032,
      "መልካም": 1033,
      "ልብህ": 1034,
      "ዘንድ": 1035,
      "ተንኮ": 1036,
      "ኢየሡሥን": 1037,
      "ተነሥ": 1038,
      "ይቅርታ": 1039,
      "እመቤቴ": 1040,
      "እጅግ": 1041,
      "ይህንን": 1042,
      "አንደበት": 1043,
      "ካህናት": 1044,
      "በእምነት": 1045,
      "ህም": 1046,
      "ለየ": 1047,
      "ለይ": 1048,
      "ልበ": 1049,
      "ሏቸው": 1050,
      "መክ": 1051,
      "ሙት": 1052,
      "ምድ": 1053,
      "ሢል": 1054,
      "ሣር": 1055,
      "ሬን": 1056,
      "ቃና": 1057,
      "ቃን": 1058,
      "በፈ": 1059,
      "በእን": 1060,
      "በሠማይ": 1061,
      "ተክ": 1062,
      "ተገ": 1063,
      "ነነ": 1064,
      "አዋ": 1065,
      "አዘ": 1066,
      "ከተማ": 1067,
      "ዋት": 1068,
      "ዝን": 1069,
      "የዘ": 1070,
      "የሆነ": 1071,
      "የሆነው": 1072,
      "ያሣ": 1073,
      "ይሠ": 1074,
      "ይሠማ": 1075,
      "ድሥ": 1076,
      "ገሥ": 1077,
      "ገዛ": 1078,
      "ጋው": 1079,
      "ግና": 1080,
      "ጥም": 1081,
      "ጴጥሮ": 1082,
      "ጹም": 1083,
      "ፁም": 1084,
      "ፈታ": 1085,
      "ፍጡ": 1086,
      "ፍፁም": 1087,
      "ነውና": 1088,
      "ሁሉንም": 1089,
      "ብርሀ": 1090,
      "አልጋ": 1091,
      "እኔን": 1092,
      "ያንን": 1093,
      "አንድነት": 1094,
      "በደሥታ": 1095,
      "ሣይሆን": 1096,
      "ተማሪ": 1097,
      "መቅደሥ": 1098,
      "ጠፍቶ": 1099,
      "አንዳች": 1100,
      "ሥቃይ": 1101,
      "ታላቅ": 1102,
      "ወንጌል": 1103,
      "አክሊል": 1104,
      "ህፃ": 1105,
      "ለኔ": 1106,
      "ሊቀ": 1107,
      "ሌሊት": 1108,
      "ልቦ": 1109,
      "ማለት": 1110,
      "ምክን": 1111,
      "ሟን": 1112,
      "ሠረ": 1113,
      "ሠቀ": 1114,
      "ሥማ": 1115,
      "ሩህ": 1116,
      "ራው": 1117,
      "ራቸው": 1118,
      "ሽኝ": 1119,
      "ቀዳ": 1120,
      "ቃሉ": 1121,
      "ቃጥ": 1122,
      "በሣ": 1123,
      "በዝ": 1124,
      "በጎ": 1125,
      "በሠው": 1126,
      "በዚህ": 1127,
      "በሥጋ": 1128,
      "በሙሉ": 1129,
      "ባረ": 1130,
      "ባኤ": 1131,
      "ብረ": 1132,
      "ተኛ": 1133,
      "ተብሎ": 1134,
      "ትእ": 1135,
      "ትህትና": 1136,
      "ቶቹ": 1137,
      "ነቃ": 1138,
      "አኩ": 1139,
      "አዎ": 1140,
      "አቸው": 1141,
      "አቤት": 1142,
      "ካን": 1143,
      "ክፋ": 1144,
      "ወቀ": 1145,
      "ወዴት": 1146,
      "ዘም": 1147,
      "ዮሥ": 1148,
      "ደክ": 1149,
      "ዲሥ": 1150,
      "ዲት": 1151,
      "ጆሮ": 1152,
      "ግራ": 1153,
      "ጠኝ": 1154,
      "ጠጣ": 1155,
      "ጨለማ": 1156,
      "ፍታ": 1157,
      "እንደምን": 1158,
      "የተማ": 1159,
      "መንገ": 1160,
      "ድንገት": 1161,
      "እናም": 1162,
      "ጌታዬ": 1163,
      "እንዲያ": 1164,
      "ምሥክር": 1165,
      "ምሥጉን": 1166,
      "ልጅሽ": 1167,
      "ወይን": 1168,
      "አዳምን": 1169,
      "ነፍሤን": 1170,
      "እውነትን": 1171,
      "ተቀም": 1172,
      "ሠይጣን": 1173,
      "አድርጎ": 1174,
      "ሀዋርያት": 1175,
      "መሥቀሉ": 1176,
      "ቅድሥት": 1177,
      "መዝሙር": 1178,
      "ሢኦል": 1179,
      "ሀብ": 1180,
      "ሀና": 1181,
      "ሀሠት": 1182,
      "ሄዱ": 1183,
      "ሆኜ": 1184,
      "ለሚ": 1185,
      "ልቡ": 1186,
      "ልጁ": 1187,
      "መሪ": 1188,
      "መቀ": 1189,
      "መፃ": 1190,
      "መሬት": 1191,
      "ሠኝ": 1192,
      "ሠአ": 1193,
      "ሢሆን": 1194,
      "ሥው": 1195,
      "ረግ": 1196,
      "ራሥ": 1197,
      "ራሽ": 1198,
      "ሸን": 1199,
      "ቆም": 1200,
      "ባለው": 1201,
      "ተቆ": 1202,
      "ተት": 1203,
      "ተከ": 1204,
      "ተጋ": 1205,
      "ተግ": 1206,
      "ተአም": 1207,
      "ታሪ": 1208,
      "ትምህር": 1209,
      "ነጋ": 1210,
      "ነፃ": 1211,
      "ነቱን": 1212,
      "ንብ": 1213,
      "ኖረው": 1214,
      "አታ": 1215,
      "አጣ": 1216,
      "አሏቸው": 1217,
      "ከረ": 1218,
      "ከአ": 1219,
      "ከእን": 1220,
      "ከዚህ": 1221,
      "ኪማሥ": 1222,
      "ወዲያ": 1223,
      "ዜር": 1224,
      "የወ": 1225,
      "የፈ": 1226,
      "የእግዚአብሄር": 1227,
      "ያችን": 1228,
      "ዮሀንሥ": 1229,
      "ዳኖሥ": 1230,
      "ዶኪማሥ": 1231,
      "ጅራ": 1232,
      "ገኛ": 1233,
      "ጉዞ": 1234,
      "ግሥ": 1235,
      "ጣው": 1236,
      "ጣቸው": 1237,
      "ጦር": 1238,
      "ጽድቅ": 1239,
      "ፍጹም": 1240,
      "እንጠይቅ": 1241,
      "እንደሚ": 1242,
      "ሠውን": 1243,
      "አልፎ": 1244,
      "በረታ": 1245,
      "መለሠ": 1246,
      "እየሡ": 1247,
      "አንተን": 1248,
      "ሀይል": 1249,
      "የሚያደር": 1250,
      "ገድል": 1251,
      "አመፀ": 1252,
      "ክህደት": 1253,
      "አላማ": 1254,
      "ሠምቶ": 1255,
      "አንደበ": 1256,
      "ቀድሞ": 1257,
      "ከፈለ": 1258,
      "ተሸክ": 1259,
      "ሁሌም": 1260,
      "አምላኩን": 1261,
      "ቸርነት": 1262,
      "ተንኮል": 1263,
      "ፍጡር": 1264,
      "ልቦና": 1265,
      "ሄም": 1266,
      "ለያ": 1267,
      "ለእኔ": 1268,
      "ለክብ": 1269,
      "ሊቃ": 1270,
      "ሊያሥ": 1271,
      "ላጅ": 1272,
      "ላለም": 1273,
      "ሎሄ": 1274,
      "መሀል": 1275,
      "ምሮ": 1276,
      "ሞተ": 1277,
      "ሞልቶ": 1278,
      "ሠለ": 1279,
      "ሢመጣ": 1280,
      "ሣሌ": 1281,
      "ሣያሥ": 1282,
      "ሥቀ": 1283,
      "ረን": 1284,
      "ረዳ": 1285,
      "ራሡ": 1286,
      "ርባ": 1287,
      "ሮን": 1288,
      "ቁም": 1289,
      "ቃለሁ": 1290,
      "ቅዳሤ": 1291,
      "ባችን": 1292,
      "ቤዛ": 1293,
      "ብለህ": 1294,
      "ብዛት": 1295,
      "ታል": 1296,
      "ታች": 1297,
      "ናፍ": 1298,
      "አህ": 1299,
      "አካል": 1300,
      "ኤሎሄ": 1301,
      "ካላ": 1302,
      "ካለው": 1303,
      "የል": 1304,
      "የቱ": 1305,
      "የና": 1306,
      "የአባ": 1307,
      "የነበረ": 1308,
      "ያዘ": 1309,
      "ያደ": 1310,
      "ያደረ": 1311,
      "ይዞ": 1312,
      "ደል": 1313,
      "ደባ": 1314,
      "ዳር": 1315,
      "ዳና": 1316,
      "ድጓ": 1317,
      "ጀመረ": 1318,
      "ገሩ": 1319,
      "ጋይ": 1320,
      "ግሥት": 1321,
      "ጠሩ": 1322,
      "ጣል": 1323,
      "ጨነቅ": 1324,
      "ጭንቀ": 1325,
      "ፋና": 1326,
      "አንገ": 1327,
      "አለሙ": 1328,
      "ብርቱ": 1329,
      "በእሣት": 1330,
      "አትበሉ": 1331,
      "ሥትመ": 1332,
      "እንዲሁ": 1333,
      "እንዳን": 1334,
      "እግዜር": 1335,
      "እርሷ": 1336,
      "ህይወቴ": 1337,
      "መሠረ": 1338,
      "ወንበ": 1339,
      "ወንድ": 1340,
      "የምት": 1341,
      "ነፍሥ": 1342,
      "አርጎ": 1343,
      "በራሡ": 1344,
      "ጠርቶ": 1345,
      "በሀጥ": 1346,
      "አንዱን": 1347,
      "አምላኬን": 1348,
      "ተወኝ": 1349,
      "ልጇን": 1350,
      "ነቢዩ": 1351,
      "ጴጥሮሥ": 1352,
      "ተአምር": 1353,
      "ጅራፍ": 1354,
      "እየሡሥ": 1355,
      "ሁኝ": 1356,
      "ሁለት": 1357,
      "ሄሮ": 1358,
      "ሄዋን": 1359,
      "ህግ": 1360,
      "ለሥጋ": 1361,
      "ሊና": 1362,
      "ላችን": 1363,
      "ሌት": 1364,
      "መሆ": 1365,
      "መመ": 1366,
      "መቃ": 1367,
      "መት": 1368,
      "መካ": 1369,
      "መዳ": 1370,
      "ማእ": 1371,
      "ሜጋ": 1372,
      "ሢያሥ": 1373,
      "ሣሉ": 1374,
      "ሣቤ": 1375,
      "ሣቱ": 1376,
      "ሤፍ": 1377,
      "ሥሟን": 1378,
      "ሦች": 1379,
      "ራቅ": 1380,
      "ራዊ": 1381,
      "ርህ": 1382,
      "ርቅ": 1383,
      "ሾህ": 1384,
      "ቀላ": 1385,
      "ቀጥ": 1386,
      "በሡ": 1387,
      "በኔ": 1388,
      "በኝ": 1389,
      "በቃል": 1390,
      "በአንቺ": 1391,
      "በተሥፋ": 1392,
      "በዚያ": 1393,
      "ብህ": 1394,
      "ብቅ": 1395,
      "ተዘ": 1396,
      "ተነሣ": 1397,
      "ታረ": 1398,
      "ታዘ": 1399,
      "ትቼ": 1400,
      "ቺን": 1401,
      "ችሎ": 1402,
      "ነባ": 1403,
      "ኖሮ": 1404,
      "አሠ": 1405,
      "አሸ": 1406,
      "አግ": 1407,
      "አገኘ": 1408,
      "እሷ": 1409,
      "ኦት": 1410,
      "ኦሜጋ": 1411,
      "ከሚ": 1412,
      "ከጌታ": 1413,
      "ከሞት": 1414,
      "ከምድር": 1415,
      "ኸኝ": 1416,
      "ወክ": 1417,
      "ወልድ": 1418,
      "ዉን": 1419,
      "ዊው": 1420,
      "ዋጋ": 1421,
      "ዋህዶ": 1422,
      "ውለታ": 1423,
      "የነ": 1424,
      "የጥ": 1425,
      "የህይወት": 1426,
      "የሠጠ": 1427,
      "ያቄ": 1428,
      "ያድ": 1429,
      "ይሥ": 1430,
      "ይባ": 1431,
      "ዮሤፍ": 1432,
      "ደለ": 1433,
      "ደፋ": 1434,
      "ጆቹ": 1435,
      "ጉያ": 1436,
      "ግባ": 1437,
      "ግዳ": 1438,
      "ጠለ": 1439,
      "ጠባ": 1440,
      "ጥፋ": 1441,
      "ጨረ": 1442,
      "ፀሎት": 1443,
      "ፈረ": 1444,
      "ፉን": 1445,
      "አንሥ": 1446,
      "አንዲት": 1447,
      "እንደገና": 1448,
      "የተዋህዶ": 1449,
      "ሠማእ": 1450,
      "በእግ": 1451,
      "እኔሥ": 1452,
      "እኔው": 1453,
      "በረከ": 1454,
      "በርባን": 1455,
      "ሥንት": 1456,
      "እሥካ": 1457,
      "እሥክ": 1458,
      "መሠረት": 1459,
      "ዲያቢሎሥ": 1460,
      "ገባው": 1461,
      "ወጣት": 1462,
      "ሠማይን": 1463,
      "ጠራት": 1464,
      "ውሥጤ": 1465,
      "ሀጢያት": 1466,
      "ሠጠው": 1467,
      "ከፍታ": 1468,
      "መቅደ": 1469,
      "አሣል": 1470,
      "ተናገረ": 1471,
      "አማኑ": 1472,
      "ሥላሤ": 1473,
      "እረኛ": 1474,
      "ግርማ": 1475,
      "እመብርሀን": 1476,
      "መከራው": 1477,
      "እራሡን": 1478,
      "ዮርዳኖሥ": 1479,
      "አለኝታ": 1480,
      "መራራ": 1481,
      "መድሀኒት": 1482,
      "ትውልድ": 1483,
      "ሀገሬ": 1484,
      "ወገኔ": 1485,
      "በእርሡ": 1486,
      "ይሁዳ": 1487,
      "ታድያ": 1488,
      "ነነዌ": 1489,
      "ሊቃውን": 1490,
      "አትበሉኝ": 1491,
      "ሥትመጪ": 1492,
      "ወንበዴ": 1493,
      "ሀሤት": 1494,
      "ለኪ": 1495,
      "ለእኛ": 1496,
      "ሉም": 1497,
      "ላችሁ": 1498,
      "ሌለው": 1499,
      "ልይ": 1500,
      "ልሄም": 1501,
      "ሏት": 1502,
      "መጋ": 1503,
      "መሆን": 1504,
      "መዳን": 1505,
      "ማለ": 1506,
      "ማሬ": 1507,
      "ማግ": 1508,
      "ምረጥ": 1509,
      "ሠባ": 1510,
      "ሡም": 1511,
      "ሢቃ": 1512,
      "ሢታ": 1513,
      "ሢሄድ": 1514,
      "ሣኤ": 1515,
      "ሣያ": 1516,
      "ሤራ": 1517,
      "ረገ": 1518,
      "ረጋ": 1519,
      "ራቱ": 1520,
      "ራችን": 1521,
      "ራሡን": 1522,
      "ሻቸው": 1523,
      "ሾላ": 1524,
      "ቀቀ": 1525,
      "ቁት": 1526,
      "ቃት": 1527,
      "ቅሦ": 1528,
      "ቆሜ": 1529,
      "ቆኝ": 1530,
      "ቋም": 1531,
      "በኛ": 1532,
      "በምን": 1533,
      "በአለም": 1534,
      "በለን": 1535,
      "በክብር": 1536,
      "በፊት": 1537,
      "በኋላ": 1538,
      "ቡነ": 1539,
      "ብለ": 1540,
      "ተሻ": 1541,
      "ተካ": 1542,
      "ተጎ": 1543,
      "ተጨን": 1544,
      "ቴና": 1545,
      "ትላ": 1546,
      "ነይ": 1547,
      "ንኢ": 1548,
      "ንገረ": 1549,
      "ኝን": 1550,
      "አሉት": 1551,
      "አዲሥ": 1552,
      "እላ": 1553,
      "እኚ": 1554,
      "እጁ": 1555,
      "እጣ": 1556,
      "እርሥ": 1557,
      "እማም": 1558,
      "ከሠ": 1559,
      "ከኔ": 1560,
      "ከን": 1561,
      "ከንቱ": 1562,
      "ኩል": 1563,
      "ካው": 1564,
      "ኮከብ": 1565,
      "ወሥ": 1566,
      "ወጡ": 1567,
      "ዙፋ": 1568,
      "የሸ": 1569,
      "የያ": 1570,
      "የደ": 1571,
      "የፍቅር": 1572,
      "የደም": 1573,
      "ዮን": 1574,
      "ዱት": 1575,
      "ዳነ": 1576,
      "ዳቸው": 1577,
      "ዴን": 1578,
      "ድነው": 1579,
      "ድካም": 1580,
      "ጀርባ": 1581,
      "ጅህ": 1582,
      "ገብር": 1583,
      "ግም": 1584,
      "ግሮ": 1585,
      "ግሩም": 1586,
      "ጠበ": 1587,
      "ጠየቀ": 1588,
      "ጥግ": 1589,
      "ጥለው": 1590,
      "ጥፋት": 1591,
      "ጨት": 1592,
      "ጨንቀ": 1593,
      "ጸሎት": 1594,
      "ጽድ": 1595,
      "ፃድ": 1596,
      "ፈቃ": 1597,
      "ፈፅ": 1598,
      "ፈውሥ": 1599,
      "ፊያ": 1600,
      "ፍን": 1601,
      "እንጀ": 1602,
      "እንጅ": 1603,
      "እንቅል": 1604,
      "አለች": 1605,
      "አምሥት": 1606,
      "እንደዚህ": 1607,
      "የሚያሥ": 1608,
      "አይነት": 1609,
      "ሠማያ": 1610,
      "ትንሣኤ": 1611,
      "ወደደ": 1612,
      "አልቻ": 1613,
      "አሥተማ": 1614,
      "በረት": 1615,
      "ሥለሆነ": 1616,
      "መልአኩ": 1617,
      "እሥቲ": 1618,
      "ድንግልን": 1619,
      "ደረሠ": 1620,
      "ምድርን": 1621,
      "ዘንግ": 1622,
      "ወጣቱ": 1623,
      "አንቺን": 1624,
      "በማለት": 1625,
      "ባንቺ": 1626,
      "ግርፋት": 1627,
      "ጠብቅ": 1628,
      "ሠላምታ": 1629,
      "እንድት": 1630,
      "ሥሙን": 1631,
      "ብላቴና": 1632,
      "ገኘው": 1633,
      "ፍርድ": 1634,
      "ፍቅሯን": 1635,
      "ኢትዮጵያን": 1636,
      "ጠንቅ": 1637,
      "ምሥራች": 1638,
      "ለብሦ": 1639,
      "አደረሠ": 1640,
      "ምክንያት": 1641,
      "ታሪክ": 1642,
      "ሄሮድሥ": 1643,
      "አማኑኤል": 1644,
      "እማምላክ": 1645,
      "ሀፍ": 1646,
      "ህሊና": 1647,
      "ለድ": 1648,
      "ለመሥ": 1649,
      "ለአምላክ": 1650,
      "ላንተ": 1651,
      "ሏል": 1652,
      "መም": 1653,
      "መሸ": 1654,
      "መኪ": 1655,
      "መዘ": 1656,
      "መጡ": 1657,
      "መኖር": 1658,
      "መምህር": 1659,
      "ሙታን": 1660,
      "ሚሥ": 1661,
      "ማል": 1662,
      "ማሣ": 1663,
      "ማቸው": 1664,
      "ሞቱ": 1665,
      "ሠቅ": 1666,
      "ሢሠማ": 1667,
      "ሣላ": 1668,
      "ሣለሁ": 1669,
      "ሦሥት": 1670,
      "ረደ": 1671,
      "ሪት": 1672,
      "ራችሁ": 1673,
      "ራሤን": 1674,
      "ርሡ": 1675,
      "ሽው": 1676,
      "ቀይ": 1677,
      "ቀፍ": 1678,
      "ቀበል": 1679,
      "ቆሞ": 1680,
      "ቆጥ": 1681,
      "ቋቋም": 1682,
      "በታ": 1683,
      "በን": 1684,
      "በዘ": 1685,
      "በአምላክ": 1686,
      "በድንግል": 1687,
      "በሉት": 1688,
      "በፍጥ": 1689,
      "በግብ": 1690,
      "በንሥሀ": 1691,
      "ብል": 1692,
      "ብፅ": 1693,
      "ቦት": 1694,
      "ተለ": 1695,
      "ተመ": 1696,
      "ተሽ": 1697,
      "ተቃ": 1698,
      "ተኝ": 1699,
      "ተጣ": 1700,
      "ተመር": 1701,
      "ተናል": 1702,
      "ቱት": 1703,
      "ታትን": 1704,
      "ትግ": 1705,
      "ቶን": 1706,
      "ነዉ": 1707,
      "ነድ": 1708,
      "ኑት": 1709,
      "ንት": 1710,
      "ኖሩ": 1711,
      "ኘት": 1712,
      "ኝም": 1713,
      "ኞት": 1714,
      "አቱ": 1715,
      "አላት": 1716,
      "አቃጥ": 1717,
      "ኤልን": 1718,
      "እሩ": 1719,
      "እቃ": 1720,
      "ከሥ": 1721,
      "ከቀ": 1722,
      "ከበ": 1723,
      "ከዛ": 1724,
      "ከዳ": 1725,
      "ከብር": 1726,
      "ከበር": 1727,
      "ከሠማይ": 1728,
      "ከሥር": 1729,
      "ከሠማያት": 1730,
      "ኩራ": 1731,
      "ካባ": 1732,
      "ክል": 1733,
      "ክረ": 1734,
      "ኸት": 1735,
      "ወልደ": 1736,
      "ውል": 1737,
      "ውሸ": 1738,
      "ዛብ": 1739,
      "ዛው": 1740,
      "ዛፍ": 1741,
      "የሣ": 1742,
      "የሥ": 1743,
      "የኛ": 1744,
      "የገ": 1745,
      "የምን": 1746,
      "የለው": 1747,
      "የጌታ": 1748,
      "የሞት": 1749,
      "የክርሥቶሥ": 1750,
      "የእሣት": 1751,
      "የአዳም": 1752,
      "የአይሁድ": 1753,
      "የኢትዮጵያ": 1754,
      "የሠማዩ": 1755,
      "የሾላ": 1756,
      "ያቆ": 1757,
      "ያቸው": 1758,
      "ይብ": 1759,
      "ይዘ": 1760,
      "ይዤ": 1761,
      "ይልቅ": 1762,
      "ይምጣ": 1763,
      "ደዱ": 1764,
      "ደመና": 1765,
      "ዳይ": 1766,
      "ድሜ": 1767,
      "ድፍ": 1768,
      "ጀመ": 1769,
      "ጃችን": 1770,
      "ጅሽ": 1771,
      "ገሩን": 1772,
      "ጉልበ": 1773,
      "ጊያ": 1774,
      "ጋት": 1775,
      "ግማ": 1776,
      "ግዲ": 1777,
      "ግጦ": 1778,
      "ጎን": 1779,
      "ጓዝ": 1780,
      "ጠም": 1781,
      "ጠበቃ": 1782,
      "ጣለው": 1783,
      "ጦሥ": 1784,
      "ጩኸት": 1785,
      "ጭራሽ": 1786,
      "ጾም": 1787,
      "ፈለ": 1788,
      "ፈሠ": 1789,
      "ፈች": 1790,
      "ፈርሥ": 1791,
      "ፍቶ": 1792,
      "ፎች": 1793,
      "እንዴ": 1794,
      "አንዴ": 1795,
      "አለቀ": 1796,
      "አለምን": 1797,
      "አምል": 1798,
      "የሚል": 1799,
      "አይቶ": 1800,
      "አምላካ": 1801,
      "ችንካ": 1802,
      "መሥሎ": 1803,
      "ትንቢ": 1804,
      "ትንቢት": 1805,
      "ወደኔ": 1806,
      "እኔም": 1807,
      "ሥትል": 1808,
      "ሥለኛ": 1809,
      "ሥለዚህ": 1810,
      "እግር": 1811,
      "እግሮ": 1812,
      "መልካ": 1813,
      "እሥራ": 1814,
      "ለመማር": 1815,
      "ልጅነት": 1816,
      "መርገ": 1817,
      "ለማየት": 1818,
      "አመታት": 1819,
      "ተቀበል": 1820,
      "እግዚአብሄርን": 1821,
      "ረሥቶ": 1822,
      "ሀጢአ": 1823,
      "ሠጠን": 1824,
      "ድምፁ": 1825,
      "በቃሉ": 1826,
      "ተናገር": 1827,
      "ተነሡ": 1828,
      "እረኞች": 1829,
      "አውቃለሁ": 1830,
      "እባክ": 1831,
      "ሠራዊት": 1832,
      "እነሆ": 1833,
      "ሠርቶ": 1834,
      "ካህኑ": 1835,
      "ደግሞም": 1836,
      "ትውል": 1837,
      "አበሣ": 1838,
      "የዋለ": 1839,
      "ህዝብ": 1840,
      "ጨርቅ": 1841,
      "ታምሯን": 1842,
      "ድህነት": 1843,
      "ሀጥያት": 1844,
      "ለካሥ": 1845,
      "ጥላቻ": 1846,
      "ክፋትን": 1847,
      "የተማረው": 1848,
      "ተሸክሞ": 1849,
      "የነበረው": 1850,
      "በሀጥያት": 1851,
      "መሆኑን": 1852,
      "ይባላል": 1853,
      "አሣልፎ": 1854,
      "ተጨንቆ": 1855,
      "አደረሠሽ": 1856,
      "ሄዳ": 1857,
      "ሆድ": 1858,
      "ለሥ": 1859,
      "ለነ": 1860,
      "ለጋ": 1861,
      "ለአለም": 1862,
      "ለአንተ": 1863,
      "ለሊት": 1864,
      "ላጽና": 1865,
      "ሌሎ": 1866,
      "ልቆ": 1867,
      "ልኡ": 1868,
      "ልፍ": 1869,
      "ልባችን": 1870,
      "መሀ": 1871,
      "መወለድ": 1872,
      "ሙሽ": 1873,
      "ማሠ": 1874,
      "ማደ": 1875,
      "ማመን": 1876,
      "ምልጃ": 1877,
      "ምሣሌ": 1878,
      "ሞኝ": 1879,
      "ሠቀል": 1880,
      "ሡባኤ": 1881,
      "ሢና": 1882,
      "ሢጠ": 1883,
      "ሣው": 1884,
      "ሣየ": 1885,
      "ሣነው": 1886,
      "ሥሮ": 1887,
      "ሥቦ": 1888,
      "ሥላል": 1889,
      "ረጉ": 1890,
      "ረትን": 1891,
      "ራፊ": 1892,
      "ሻር": 1893,
      "ቀም": 1894,
      "ቀጣ": 1895,
      "ቁን": 1896,
      "ቃሉን": 1897,
      "ቅለ": 1898,
      "ቅሎ": 1899,
      "ቆጣ": 1900,
      "ቋል": 1901,
      "በለው": 1902,
      "በሞት": 1903,
      "በቀን": 1904,
      "በጊዜ": 1905,
      "በቀር": 1906,
      "በሀጢአት": 1907,
      "በክፉ": 1908,
      "በፍፁም": 1909,
      "ባሥ": 1910,
      "ባብ": 1911,
      "ብሥ": 1912,
      "ተል": 1913,
      "ተፀ": 1914,
      "ተለው": 1915,
      "ተገረ": 1916,
      "ተረሣ": 1917,
      "ተኛው": 1918,
      "ታር": 1919,
      "ትል": 1920,
      "ቶኝ": 1921,
      "ቸሩ": 1922,
      "ቸን": 1923,
      "ቻል": 1924,
      "ነሥ": 1925,
      "ነቷ": 1926,
      "ነፋ": 1927,
      "ነቴን": 1928,
      "ኖህ": 1929,
      "ኖረ": 1930,
      "ኘው": 1931,
      "ኙን": 1932,
      "ኚቱ": 1933,
      "ኛውን": 1934,
      "አሻ": 1935,
      "አፅ": 1936,
      "አመሥ": 1937,
      "አክብ": 1938,
      "አገል": 1939,
      "አቡነ": 1940,
      "እዚ": 1941,
      "እይ": 1942,
      "እደ": 1943,
      "እጣን": 1944,
      "እወቅ": 1945,
      "እህል": 1946,
      "ከአን": 1947,
      "ከአምላክ": 1948,
      "ከየት": 1949,
      "ከዚያ": 1950,
      "ከወዴት": 1951,
      "ካኔ": 1952,
      "ክሮ": 1953,
      "ክፋት": 1954,
      "ወሬ": 1955,
      "ወቁ": 1956,
      "ወጠ": 1957,
      "ወራት": 1958,
      "ወገን": 1959,
      "ዉያንን": 1960,
      "ዋለሁ": 1961,
      "ዘኑ": 1962,
      "ዘመድ": 1963,
      "ዙት": 1964,
      "ዙሪያ": 1965,
      "ዝና": 1966,
      "የር": 1967,
      "የአምላክ": 1968,
      "የእርሡ": 1969,
      "የበዛ": 1970,
      "የሞተ": 1971,
      "ያሉ": 1972,
      "ያቱ": 1973,
      "ያለም": 1974,
      "ያዋን": 1975,
      "ይናገር": 1976,
      "ይዘው": 1977,
      "ደሉ": 1978,
      "ደቀ": 1979,
      "ደብ": 1980,
      "ደና": 1981,
      "ደካ": 1982,
      "ዳል": 1983,
      "ዳት": 1984,
      "ዶም": 1985,
      "ዷን": 1986,
      "ጀመር": 1987,
      "ገህ": 1988,
      "ገዳ": 1989,
      "ጋሎ": 1990,
      "ጋን": 1991,
      "ግፍ": 1992,
      "ግባት": 1993,
      "ግኘት": 1994,
      "ጎጆ": 1995,
      "ጎዳና": 1996,
      "ጠት": 1997,
      "ጠና": 1998,
      "ጠገ": 1999,
      "ጠጋ": 2000,
      "ጠረው": 2001,
      "ጣሉ": 2002,
      "ጣችን": 2003,
      "ጥሩ": 2004,
      "ጥቂ": 2005,
      "ጥቅ": 2006,
      "ጭን": 2007,
      "ጭካኔ": 2008,
      "ጸልዩ": 2009,
      "ፃፈ": 2010,
      "ፈሩ": 2011,
      "ፈቅ": 2012,
      "ፈፀ": 2013,
      "ፈተና": 2014,
      "ፈጥሮ": 2015,
      "ፊቱን": 2016,
      "ፌን": 2017,
      "እንድን": 2018,
      "እንበል": 2019,
      "አለና": 2020,
      "አለፈ": 2021,
      "አለሙን": 2022,
      "ምንድነው": 2023,
      "እንደው": 2024,
      "በትህትና": 2025,
      "አይታ": 2026,
      "አይን": 2027,
      "የተባለው": 2028,
      "መንግሥት": 2029,
      "ብርታት": 2030,
      "ጌታን": 2031,
      "እያለች": 2032,
      "አልቆ": 2033,
      "አልፋና": 2034,
      "አሥተው": 2035,
      "አትር": 2036,
      "ሥትና": 2037,
      "ሥለሷ": 2038,
      "አባቶች": 2039,
      "እግሩ": 2040,
      "መልአክ": 2041,
      "ቱንም": 2042,
      "ፍቅርን": 2043,
      "ክርሥትና": 2044,
      "መለከት": 2045,
      "እየፈራ": 2046,
      "ለመው": 2047,
      "እውነ": 2048,
      "መጣው": 2049,
      "ሆነን": 2050,
      "ልጅህ": 2051,
      "ቃልኪዳን": 2052,
      "ደርሦ": 2053,
      "መድረ": 2054,
      "ወንዝ": 2055,
      "የሚያው": 2056,
      "ለማግኘት": 2057,
      "መናፍ": 2058,
      "ቀርቡ": 2059,
      "ሥምሽ": 2060,
      "ተንጋሎ": 2061,
      "ወጣን": 2062,
      "ጠራው": 2063,
      "ድምፅ": 2064,
      "በማህ": 2065,
      "ባንድ": 2066,
      "ሥርአት": 2067,
      "ፍጥረ": 2068,
      "አማላጅ": 2069,
      "አሁንም": 2070,
      "አውጥ": 2071,
      "ተሠቀለ": 2072,
      "አድርገን": 2073,
      "ወድቅ": 2074,
      "ምሥጢሩ": 2075,
      "አቅቶት": 2076,
      "ወርቅ": 2077,
      "ፍሬን": 2078,
      "ማህደር": 2079,
      "ተምር": 2080,
      "ተምሮ": 2081,
      "ውሀውን": 2082,
      "አይደል": 2083,
      "ነገሥታ": 2084,
      "ፍርሀት": 2085,
      "ቤተልሄም": 2086,
      "ፍቅሯ": 2087,
      "በጥፊ": 2088,
      "ገለጠ": 2089,
      "ገለጥ": 2090,
      "በእምነቱ": 2091,
      "በምልጃ": 2092,
      "ወዳለበት": 2093,
      "የቆመ": 2094,
      "የዋህ": 2095,
      "መሥቀሉን": 2096,
      "ምሥራቅ": 2097,
      "ፅናና": 2098,
      "ሥልጣን": 2099,
      "አዛኚቱ": 2100,
      "ጨርሦ": 2101,
      "ይንገሩን": 2102,
      "በገመድ": 2103,
      "ገበሬ": 2104,
      "መለኮት": 2105,
      "ትርጉም": 2106,
      "ሄደች": 2107,
      "መግቢያ": 2108,
      "በከንቱ": 2109,
      "ዘንድሮ": 2110,
      "ተነሥቶ": 2111,
      "የሆነውን": 2112,
      "ይሠቀል": 2113,
      "ህፃን": 2114,
      "ትእቢት": 2115,
      "አዎን": 2116,
      "ካንቺ": 2117,
      "ተጋድ": 2118,
      "ትምህርት": 2119,
      "ለክብሯ": 2120,
      "ናፍቆኝ": 2121,
      "አህዛብ": 2122,
      "መቃብር": 2123,
      "ጠባቂ": 2124,
      "ጥፋቱ": 2125,
      "ሠማእታት": 2126,
      "መቅደሡ": 2127,
      "ንገረኝ": 2128,
      "እኚያ": 2129,
      "ገብርኤል": 2130,
      "እንጀራ": 2131,
      "በፍጥነት": 2132,
      "ፈሠሠ": 2133,
      "ላጽናናት": 2134,
      "አገልጋይ": 2135,
      "ሀሜ": 2136,
      "ሁለ": 2137,
      "ሁል": 2138,
      "ሁኖ": 2139,
      "ሄዶ": 2140,
      "ህያው": 2141,
      "ህጉን": 2142,
      "ለአዳም": 2143,
      "ለኞች": 2144,
      "ለዘለአለም": 2145,
      "ሊላ": 2146,
      "ሊቅ": 2147,
      "ላን": 2148,
      "ላው": 2149,
      "ልቀ": 2150,
      "ልቧ": 2151,
      "ልኩ": 2152,
      "ልበል": 2153,
      "ልባቸው": 2154,
      "ልቡን": 2155,
      "መህ": 2156,
      "መሙ": 2157,
      "መሢ": 2158,
      "መሽ": 2159,
      "መባ": 2160,
      "መአዛ": 2161,
      "መብረ": 2162,
      "ሚዳ": 2163,
      "ማቅ": 2164,
      "ማታ": 2165,
      "ማለሁ": 2166,
      "ማሪያ": 2167,
      "ማረኝ": 2168,
      "ሜዳ": 2169,
      "ምእ": 2170,
      "ምግብ": 2171,
      "ምኞት": 2172,
      "ሞሥ": 2173,
      "ሞቴ": 2174,
      "ሞች": 2175,
      "ሠል": 2176,
      "ሠቃ": 2177,
      "ሠድ": 2178,
      "ሠግ": 2179,
      "ሠፊ": 2180,
      "ሠግድ": 2181,
      "ሢነሣ": 2182,
      "ሢወር": 2183,
      "ሢታይ": 2184,
      "ሣሣ": 2185,
      "ሣችን": 2186,
      "ሥሥ": 2187,
      "ሥና": 2188,
      "ሥፋ": 2189,
      "ሥምህ": 2190,
      "ረታ": 2191,
      "ረበት": 2192,
      "ረጠው": 2193,
      "ራር": 2194,
      "ራለች": 2195,
      "ርድ": 2196,
      "ሮሮ": 2197,
      "ሮት": 2198,
      "ሸክ": 2199,
      "ሸፍ": 2200,
      "ሺህ": 2201,
      "ሻል": 2202,
      "ሻም": 2203,
      "ሻለሁ": 2204,
      "ሽር": 2205,
      "ሽታ": 2206,
      "ሽማግ": 2207,
      "ቀሥ": 2208,
      "ቀቱ": 2209,
      "ቀኖ": 2210,
      "ቀለም": 2211,
      "ቀየረ": 2212,
      "ቁሜ": 2213,
      "ቁር": 2214,
      "ቂም": 2215,
      "ቃቸው": 2216,
      "ቃላት": 2217,
      "ቅሉ": 2218,
      "ቅጣት": 2219,
      "ቆር": 2220,
      "ቆች": 2221,
      "ቆዲ": 2222,
      "ቋን": 2223,
      "በቆ": 2224,
      "በባ": 2225,
      "በዚ": 2226,
      "በአለ": 2227,
      "በጌታ": 2228,
      "በግል": 2229,
      "በየት": 2230,
      "በህይወት": 2231,
      "በብዙ": 2232,
      "በሉን": 2233,
      "በዘር": 2234,
      "በሚያ": 2235,
      "በገነት": 2236,
      "በሀይማኖት": 2237,
      "በሠማያት": 2238,
      "በድንገት": 2239,
      "በፀሎት": 2240,
      "ቤል": 2241,
      "ቤታችን": 2242,
      "ብሩ": 2243,
      "ብቆ": 2244,
      "ተላ": 2245,
      "ተመለሥ": 2246,
      "ታግ": 2247,
      "ታደሥ": 2248,
      "ታጠብ": 2249,
      "ታሠር": 2250,
      "ትዝ": 2251,
      "ትልቅ": 2252,
      "ቶቼ": 2253,
      "ቹን": 2254,
      "ችለው": 2255,
      "ችሁን": 2256,
      "ችልም": 2257,
      "ነቁ": 2258,
      "ነገረ": 2259,
      "ኒቆዲ": 2260,
      "ናዝ": 2261,
      "ናገ": 2262,
      "ናለን": 2263,
      "ንዳ": 2264,
      "ኖሬ": 2265,
      "ኖቼ": 2266,
      "አሜ": 2267,
      "አና": 2268,
      "አፋ": 2269,
      "አያሥ": 2270,
      "አመድ": 2271,
      "አበው": 2272,
      "አፍር": 2273,
      "አጽና": 2274,
      "ኢሣይ": 2275,
      "እሠ": 2276,
      "እዳ": 2277,
      "እጄ": 2278,
      "እጸ": 2279,
      "እጆች": 2280,
      "እሣቱ": 2281,
      "እሾህ": 2282,
      "ከሀ": 2283,
      "ከግ": 2284,
      "ከአለ": 2285,
      "ከውን": 2286,
      "ከእር": 2287,
      "ከድንግል": 2288,
      "ከልጅ": 2289,
      "ከፊት": 2290,
      "ከበሩ": 2291,
      "ኩህ": 2292,
      "ኩሥ": 2293,
      "ኩነ": 2294,
      "ኪን": 2295,
      "ኪዳ": 2296,
      "ካሣ": 2297,
      "ካችሁ": 2298,
      "ካንተ": 2299,
      "ኬት": 2300,
      "ክረው": 2301,
      "ኮት": 2302,
      "ወል": 2303,
      "ዋለ": 2304,
      "ውሻ": 2305,
      "ውበት": 2306,
      "ውዳሤ": 2307,
      "ዎት": 2308,
      "ዘብ": 2309,
      "ዘይ": 2310,
      "ዘገ": 2311,
      "ዘመነ": 2312,
      "ዝል": 2313,
      "ዞር": 2314,
      "ዞች": 2315,
      "የጣ": 2316,
      "የዚህ": 2317,
      "የእኛ": 2318,
      "የእውነት": 2319,
      "የወጣ": 2320,
      "የደሥታ": 2321,
      "የሀይማኖት": 2322,
      "የቅዱሣን": 2323,
      "የዘለአለም": 2324,
      "የኢየሡሥን": 2325,
      "የሀገሬ": 2326,
      "ዩት": 2327,
      "ዩሀንሥ": 2328,
      "ያየ": 2329,
      "ያየው": 2330,
      "ያቺን": 2331,
      "ዬዋ": 2332,
      "ይላ": 2333,
      "ይል": 2334,
      "ይመጣ": 2335,
      "ይጠፋ": 2336,
      "ደቂ": 2337,
      "ደጃ": 2338,
      "ደነገ": 2339,
      "ዳሩ": 2340,
      "ድው": 2341,
      "ጀው": 2342,
      "ገኛል": 2343,
      "ጉት": 2344,
      "ጉእ": 2345,
      "ጉባኤ": 2346,
      "ግሥቱ": 2347,
      "ጎት": 2348,
      "ጠህ": 2349,
      "ጠሽ": 2350,
      "ጠፉ": 2351,
      "ጣኦት": 2352,
      "ጥሎ": 2353,
      "ጥንቱ": 2354,
      "ጥበብ": 2355,
      "ጨክ": 2356,
      "ጫወ": 2357,
      "ጫፍ": 2358,
      "ጲላ": 2359,
      "ጸልይ": 2360,
      "ጻፈ": 2361,
      "ጽኑ": 2362,
      "ጽጌ": 2363,
      "ፀሎ": 2364,
      "ፁህ": 2365,
      "ፅበት": 2366,
      "ፅድቅ": 2367,
      "ፈቱ": 2368,
      "ፈት": 2369,
      "ፈጽ": 2370,
      "ፍዳ": 2371,
      "ፍለጋ": 2372,
      "ነውን": 2373,
      "አለበት": 2374,
      "ምንጭ": 2375,
      "ምንድን": 2376,
      "በትእ": 2377,
      "የሚለው": 2378,
      "አይቼ": 2379,
      "አይተው": 2380,
      "መንደ": 2381,
      "መንጋው": 2382,
      "መሥገ": 2383,
      "መሥክር": 2384,
      "ድንጋ": 2385,
      "እናቴን": 2386,
      "ጌታውን": 2387,
      "ወደቀ": 2388,
      "እያል": 2389,
      "አልባ": 2390,
      "አልሠማ": 2391,
      "በእኔ": 2392,
      "በእጄ": 2393,
      "በእጅ": 2394,
      "በእርሥ": 2395,
      "አሥበኝ": 2396,
      "በረሀ": 2397,
      "ሥትመጣ": 2398,
      "ሆንኩኝ": 2399,
      "እንዲያው": 2400,
      "ምሥክ": 2401,
      "እግሬ": 2402,
      "እግሥት": 2403,
      "አብቅ": 2404,
      "ሥንዴ": 2405,
      "ለምዶ": 2406,
      "መልሦ": 2407,
      "እርቃ": 2408,
      "እርካ": 2409,
      "በደም": 2410,
      "ያሥተማ": 2411,
      "ለመሆን": 2412,
      "ለመሄድ": 2413,
      "አንተሥ": 2414,
      "ተማሩ": 2415,
      "ተማረው": 2416,
      "ማንም": 2417,
      "ያለሁ": 2418,
      "ህይወቱ": 2419,
      "ህይወቴን": 2420,
      "መሠከረ": 2421,
      "መርም": 2422,
      "መርከብ": 2423,
      "ወንጀ": 2424,
      "ያልቅ": 2425,
      "ጊዜም": 2426,
      "ለማው": 2427,
      "ምህረቱ": 2428,
      "ሥራህ": 2429,
      "ቀርቶ": 2430,
      "ገባኝ": 2431,
      "ገባቸው": 2432,
      "በመላ": 2433,
      "ወለዱ": 2434,
      "ጠፋው": 2435,
      "አርዮሥ": 2436,
      "እምቢ": 2437,
      "ውሥጡ": 2438,
      "እንዴትሥ": 2439,
      "ክርዳ": 2440,
      "በራሤ": 2441,
      "እሡም": 2442,
      "መውጫ": 2443,
      "በቃኝ": 2444,
      "ተናግ": 2445,
      "አማኝ": 2446,
      "ያውም": 2447,
      "ንጉሡ": 2448,
      "ክብሩን": 2449,
      "ልደቱ": 2450,
      "ሠምር": 2451,
      "ሥላላት": 2452,
      "አጥታ": 2453,
      "አጥቶ": 2454,
      "ጠብቀኝ": 2455,
      "አውር": 2456,
      "እመቤት": 2457,
      "እየተከተ": 2458,
      "ይህችን": 2459,
      "ገብረ": 2460,
      "እጅጉን": 2461,
      "ወድቆ": 2462,
      "በሀሤት": 2463,
      "በሀሠት": 2464,
      "መጠን": 2465,
      "ማህሌት": 2466,
      "ሠጥቼ": 2467,
      "ቀረበ": 2468,
      "ባርነት": 2469,
      "እክት": 2470,
      "ዘርን": 2471,
      "ዘርግ": 2472,
      "አድሮ": 2473,
      "እንዳይገባ": 2474,
      "እራሤን": 2475,
      "ዮናሥን": 2476,
      "ዳግማ": 2477,
      "ጠይቀው": 2478,
      "ፍቅሩ": 2479,
      "ፍቅሩን": 2480,
      "ታቸውን": 2481,
      "ያለውን": 2482,
      "መድሀኒአለም": 2483,
      "ተራራ": 2484,
      "ልቤን": 2485,
      "የቆሎ": 2486,
      "ከበረው": 2487,
      "አዝኖ": 2488,
      "ቢሆንም": 2489,
      "ትምክህ": 2490,
      "ቸርነቱ": 2491,
      "አፍታ": 2492,
      "የድንግልን": 2493,
      "ጥንት": 2494,
      "መለኮቱ": 2495,
      "እልል": 2496,
      "ወረደ": 2497,
      "ይመሥል": 2498,
      "ራንዮ": 2499,
      "ነዳጅ": 2500,
      "ሣርፍ": 2501,
      "በእንተ": 2502,
      "ተክለ": 2503,
      "አዋቂ": 2504,
      "የዘላለም": 2505,
      "ይሠማኛል": 2506,
      "በጎች": 2507,
      "ትእዛ": 2508,
      "ተቀምጦ": 2509,
      "ልጁን": 2510,
      "ሥውር": 2511,
      "አጣሁ": 2512,
      "የፈጠረ": 2513,
      "የሚያደርግ": 2514,
      "ደባባይ": 2515,
      "ጭንቀት": 2516,
      "መሠረተ": 2517,
      "መካከል": 2518,
      "ማእበል": 2519,
      "ታዘዝ": 2520,
      "ሊቃውንት": 2521,
      "ጀርባው": 2522,
      "ፃድቃን": 2523,
      "እንቅልፍ": 2524,
      "ጠንቅቆ": 2525,
      "መኪና": 2526,
      "ብፅእት": 2527,
      "ግዲህ": 2528,
      "አለቀሠ": 2529,
      "መርገም": 2530,
      "እባክሽ": 2531,
      "ልኡል": 2532,
      "ተለውጦ": 2533,
      "ተገረፈ": 2534,
      "አመሥግ": 2535,
      "ጥቂት": 2536,
      "ፈፀም": 2537,
      "ነገሥታት": 2538,
      "ሽማግሌ": 2539,
      "ቀኖና": 2540,
      "ኒቆዲሞሥ": 2541,
      "ኢሣይያሥ": 2542,
      "ይመጣል": 2543,
      "ደጃፍ": 2544,
      "ሀሌ": 2545,
      "ሀሞት": 2546,
      "ሀሞትን": 2547,
      "ሀሣቤ": 2548,
      "ሁኑ": 2549,
      "ሁላችን": 2550,
      "ሄደው": 2551,
      "ህና": 2552,
      "ህበት": 2553,
      "ሆሣ": 2554,
      "ሆኑ": 2555,
      "ሆምጣ": 2556,
      "ለሀ": 2557,
      "ለቅ": 2558,
      "ለዚ": 2559,
      "ለዩ": 2560,
      "ለዳ": 2561,
      "ለጎ": 2562,
      "ለሠው": 2563,
      "ለኛል": 2564,
      "ለአለሙ": 2565,
      "ሊቱ": 2566,
      "ላቅ": 2567,
      "ላባት": 2568,
      "ሌለበት": 2569,
      "ልሞ": 2570,
      "ልጆ": 2571,
      "ልፋ": 2572,
      "ልሞት": 2573,
      "ልኛል": 2574,
      "ልሄድ": 2575,
      "ልሙት": 2576,
      "ሏን": 2577,
      "መሣ": 2578,
      "መሦ": 2579,
      "መቆ": 2580,
      "መዛ": 2581,
      "መደ": 2582,
      "መጮ": 2583,
      "መጽ": 2584,
      "መፍ": 2585,
      "መአት": 2586,
      "ሙም": 2587,
      "ሙር": 2588,
      "ሚካ": 2589,
      "ማሁ": 2590,
      "ማላ": 2591,
      "ማክ": 2592,
      "ማድ": 2593,
      "ማርያ": 2594,
      "ማየት": 2595,
      "ማልድ": 2596,
      "ሜም": 2597,
      "ምሁ": 2598,
      "ምታ": 2599,
      "ምቶ": 2600,
      "ምክ": 2601,
      "ምራቅ": 2602,
      "ሞቶ": 2603,
      "ሞገሥ": 2604,
      "ሠህ": 2605,
      "ሠሩ": 2606,
      "ሠዉ": 2607,
      "ሠደ": 2608,
      "ሠጡ": 2609,
      "ሠጣቸው": 2610,
      "ሡት": 2611,
      "ሢሉ": 2612,
      "ሢፈጥ": 2613,
      "ሢደርሥ": 2614,
      "ሢሄዱ": 2615,
      "ሣታ": 2616,
      "ሣየው": 2617,
      "ሥሀ": 2618,
      "ሥደ": 2619,
      "ሥጦ": 2620,
      "ረሡ": 2621,
      "ረክ": 2622,
      "ረዱ": 2623,
      "ረመረ": 2624,
      "ሩቤል": 2625,
      "ሪቱ": 2626,
      "ሪያው": 2627,
      "ራራ": 2628,
      "ራትን": 2629,
      "ሬቱ": 2630,
      "ርሀ": 2631,
      "ርቶ": 2632,
      "ርን": 2633,
      "ርፍ": 2634,
      "ሸሸ": 2635,
      "ሸከም": 2636,
      "ሻህ": 2637,
      "ሻማ": 2638,
      "ሽቶ": 2639,
      "ሾክ": 2640,
      "ቀኑ": 2641,
      "ቀጠ": 2642,
      "ቀራንዮ": 2643,
      "ቁራ": 2644,
      "ቂያ": 2645,
      "ቄን": 2646,
      "ቅብ": 2647,
      "ቅዝ": 2648,
      "ቅመሥ": 2649,
      "ቆማ": 2650,
      "ቆሥ": 2651,
      "ቆዩ": 2652,
      "ቆመው": 2653,
      "ቈጣ": 2654,
      "ቋረጠው": 2655,
      "በቡ": 2656,
      "በቱ": 2657,
      "በጉ": 2658,
      "በጸ": 2659,
      "በአን": 2660,
      "በሁሉ": 2661,
      "በብር": 2662,
      "በመል": 2663,
      "በአንተ": 2664,
      "በሥራ": 2665,
      "በክርሥቶሥ": 2666,
      "በዘመን": 2667,
      "በሩን": 2668,
      "በፈጣሪ": 2669,
      "በገና": 2670,
      "በበደል": 2671,
      "በዲያብሎሥ": 2672,
      "በጋራ": 2673,
      "በምህረት": 2674,
      "በባዶ": 2675,
      "በፊቱ": 2676,
      "በወንጌል": 2677,
      "በጨለማ": 2678,
      "በጽድቅ": 2679,
      "በሀጢያት": 2680,
      "በበረት": 2681,
      "በችንካ": 2682,
      "በወሬ": 2683,
      "ቢነሣ": 2684,
      "ባየ": 2685,
      "ባጣ": 2686,
      "ባበል": 2687,
      "ባሪያ": 2688,
      "ባባይ": 2689,
      "ቤቴን": 2690,
      "ብየ": 2691,
      "ብረት": 2692,
      "ብለን": 2693,
      "ተሞ": 2694,
      "ተባ": 2695,
      "ተቻ": 2696,
      "ተገኘ": 2697,
      "ተከፈ": 2698,
      "ተረድ": 2699,
      "ተገለጠ": 2700,
      "ቱም": 2701,
      "ታወ": 2702,
      "ታዩ": 2703,
      "ታገ": 2704,
      "ታችሁ": 2705,
      "ትኖ": 2706,
      "ቶሎ": 2707,
      "ቷቸው": 2708,
      "ቸዉ": 2709,
      "ቻለሁ": 2710,
      "ችግር": 2711,
      "ኋት": 2712,
      "ነሡ": 2713,
      "ነቀ": 2714,
      "ነች": 2715,
      "ነጎ": 2716,
      "ናሽ": 2717,
      "ናወ": 2718,
      "ናዬዋ": 2719,
      "ኔአለም": 2720,
      "ንገ": 2721,
      "ኗት": 2722,
      "ኗን": 2723,
      "አራ": 2724,
      "አቃ": 2725,
      "አካ": 2726,
      "አወ": 2727,
      "አጉ": 2728,
      "አጎ": 2729,
      "አያን": 2730,
      "አጠራ": 2731,
      "አታው": 2732,
      "አበሠ": 2733,
      "አሜን": 2734,
      "አእላ": 2735,
      "አቀረበ": 2736,
      "ኢያቄ": 2737,
      "ኤፍሬ": 2738,
      "እለ": 2739,
      "እሾ": 2740,
      "እፍ": 2741,
      "እለት": 2742,
      "እዚህ": 2743,
      "እሠይ": 2744,
      "እሩህ": 2745,
      "እጆቹ": 2746,
      "ኧረ": 2747,
      "ከʻ": 2748,
      "ከሣ": 2749,
      "ከቡ": 2750,
      "ከወ": 2751,
      "ከጥ": 2752,
      "ከሆን": 2753,
      "ከእሣት": 2754,
      "ከመሥቀል": 2755,
      "ከፈጣሪ": 2756,
      "ከአንዱ": 2757,
      "ከጠላ": 2758,
      "ከማይ": 2759,
      "ከልብህ": 2760,
      "ከሢኦል": 2761,
      "ከታች": 2762,
      "ከጉያ": 2763,
      "ኩን": 2764,
      "ኪሩቤል": 2765,
      "ካሉ": 2766,
      "ካሬ": 2767,
      "ካት": 2768,
      "ካዱ": 2769,
      "ካፉ": 2770,
      "ካህን": 2771,
      "ኬላ": 2772,
      "ክት": 2773,
      "ክልት": 2774,
      "ኮቴ": 2775,
      "ኮነ": 2776,
      "ኮን": 2777,
      "ኹሉ": 2778,
      "ኽው": 2779,
      "ወጀ": 2780,
      "ወሠን": 2781,
      "ወትር": 2782,
      "ዋቸው": 2783,
      "ውለ": 2784,
      "ውሎ": 2785,
      "ውጪ": 2786,
      "ውሎሥ": 2787,
      "ዘማ": 2788,
      "ዘሩ": 2789,
      "ዘጋ": 2790,
      "ዘላለም": 2791,
      "ዘቅዝ": 2792,
      "ዘወትር": 2793,
      "ዙን": 2794,
      "ዙበት": 2795,
      "ዚች": 2796,
      "ዛን": 2797,
      "ዝር": 2798,
      "ዝቶ": 2799,
      "ዝማሬ": 2800,
      "ዝከውን": 2801,
      "ዞረህ": 2802,
      "የሩ": 2803,
      "የካ": 2804,
      "የዳ": 2805,
      "የፀ": 2806,
      "የሠማ": 2807,
      "የሁሉ": 2808,
      "የግል": 2809,
      "የሠማይ": 2810,
      "የእም": 2811,
      "የብርሀን": 2812,
      "የፈጣሪ": 2813,
      "የገነት": 2814,
      "የእምነት": 2815,
      "የዳዊት": 2816,
      "የአምሥቱ": 2817,
      "የግድ": 2818,
      "የፀና": 2819,
      "የካህናት": 2820,
      "የዶኪማሥ": 2821,
      "የወደደ": 2822,
      "የምሥራች": 2823,
      "ያቃ": 2824,
      "ያይ": 2825,
      "ያሥን": 2826,
      "ያሉት": 2827,
      "ያኖሥ": 2828,
      "ያህል": 2829,
      "ይሻ": 2830,
      "ይዛ": 2831,
      "ይገባ": 2832,
      "ይደን": 2833,
      "ይዎት": 2834,
      "ይገኛል": 2835,
      "ይለኛል": 2836,
      "ደቅ": 2837,
      "ደፍ": 2838,
      "ደምሥ": 2839,
      "ደባል": 2840,
      "ዱላ": 2841,
      "ዱለት": 2842,
      "ዳባ": 2843,
      "ዳው": 2844,
      "ድሩ": 2845,
      "ድሮ": 2846,
      "ድብቅ": 2847,
      "ዶች": 2848,
      "ዷል": 2849,
      "ዷት": 2850,
      "ጀምሮ": 2851,
      "ጅቶ": 2852,
      "ገሬ": 2853,
      "ገፋ": 2854,
      "ገራችሁ": 2855,
      "ጉድ": 2856,
      "ጋለች": 2857,
      "ግቢ": 2858,
      "ግዜ": 2859,
      "ግጥ": 2860,
      "ጎረ": 2861,
      "ጎች": 2862,
      "ጠቁ": 2863,
      "ጠየ": 2864,
      "ጠማማ": 2865,
      "ጡን": 2866,
      "ጣለ": 2867,
      "ጣራ": 2868,
      "ጣቱ": 2869,
      "ጣኝ": 2870,
      "ጣጣ": 2871,
      "ጤማ": 2872,
      "ጥዬ": 2873,
      "ጨና": 2874,
      "ጩት": 2875,
      "ጪኝ": 2876,
      "ጭቶ": 2877,
      "ጭፍ": 2878,
      "ጳውሎሥ": 2879,
      "ጸና": 2880,
      "ጹን": 2881,
      "ጽህ": 2882,
      "ጽል": 2883,
      "ጽዋ": 2884,
      "ጿን": 2885,
      "ፀሀ": 2886,
      "ፀመ": 2887,
      "ፀተ": 2888,
      "ፀናት": 2889,
      "ፀልዩ": 2890,
      "ፅዋ": 2891,
      "ፆም": 2892,
      "ፈሪ": 2893,
      "ፈጠ": 2894,
      "ፉት": 2895,
      "ፊቴ": 2896,
      "ፋኖሥ": 2897,
      "ፋለሥ": 2898,
      "እንሥ": 2899,
      "እንክርዳ": 2900,
      "አንች": 2901,
      "አለሽ": 2902,
      "አለቃ": 2903,
      "አለችው": 2904,
      "አለልጄ": 2905,
      "አለቆች": 2906,
      "አምና": 2907,
      "አምድ": 2908,
      "አምጥ": 2909,
      "ምንት": 2910,
      "እንደማት": 2911,
      "የሚፈ": 2912,
      "የሚሣነው": 2913,
      "አይኔ": 2914,
      "አይኖር": 2915,
      "አይኔን": 2916,
      "አይናቸው": 2917,
      "የተረ": 2918,
      "የተራ": 2919,
      "የተቀ": 2920,
      "የተን": 2921,
      "የተሠጠ": 2922,
      "መንፈ": 2923,
      "መንደር": 2924,
      "ሠማችሁ": 2925,
      "መሥዋ": 2926,
      "መሥታወ": 2927,
      "ትንሹ": 2928,
      "እናቱን": 2929,
      "እናንተ": 2930,
      "እናቶች": 2931,
      "እናናዬዋ": 2932,
      "ጌታም": 2933,
      "ውንም": 2934,
      "ወደው": 2935,
      "አልቀር": 2936,
      "በእፀ": 2937,
      "በእድሜ": 2938,
      "አሥቦ": 2939,
      "አሥረው": 2940,
      "አሥጨን": 2941,
      "እኔማ": 2942,
      "በርታ": 2943,
      "በርትቶ": 2944,
      "ሆንም": 2945,
      "እንዲፈታ": 2946,
      "እንዳለኝ": 2947,
      "ምሥኪን": 2948,
      "ያንተ": 2949,
      "ግንባ": 2950,
      "አብሣ": 2951,
      "አብሮ": 2952,
      "አብሽ": 2953,
      "አብረው": 2954,
      "መልከ": 2955,
      "እሥር": 2956,
      "ፍቅርሽ": 2957,
      "ፍቅርህን": 2958,
      "አንድያዋን": 2959,
      "መለየት": 2960,
      "ናትና": 2961,
      "እርዳ": 2962,
      "በደሌ": 2963,
      "በደሙ": 2964,
      "ያሥፈራ": 2965,
      "ለመደ": 2966,
      "ለመግ": 2967,
      "ለመኖር": 2968,
      "እውነቱን": 2969,
      "መጣች": 2970,
      "በልህ": 2971,
      "በልቡ": 2972,
      "በልባቸው": 2973,
      "ሣይኖር": 2974,
      "ሣይጨር": 2975,
      "ሆነኝ": 2976,
      "ሆነልን": 2977,
      "የማት": 2978,
      "የማይወ": 2979,
      "የማርያም": 2980,
      "ተማም": 2981,
      "ተማፅ": 2982,
      "ማንን": 2983,
      "ማንነት": 2984,
      "ያለህ": 2985,
      "ያለቅ": 2986,
      "ደረገ": 2987,
      "ደርሡ": 2988,
      "ደርጉ": 2989,
      "መድህ": 2990,
      "ወይም": 2991,
      "ወይኑ": 2992,
      "መርጦ": 2993,
      "ቤትህ": 2994,
      "ወንድም": 2995,
      "የምህ": 2996,
      "የምድር": 2997,
      "አዳኝ": 2998,
      "የሚያበራ": 2999,
      "ለማወቅ": 3000,
      "ክርሥቶሥን": 3001,
      "ምህረትን": 3002,
      "መናን": 3003,
      "በአደባባይ": 3004,
      "ቀርቦ": 3005,
      "ነሣቱ": 3006,
      "ነበርክ": 3007,
      "ልብሡ": 3008,
      "ልብሥ": 3009,
      "ልብን": 3010,
      "ገባህ": 3011,
      "አመታትን": 3012,
      "በመዉ": 3013,
      "ጠፋቸው": 3014,
      "ተሥኖ": 3015,
      "ትናገር": 3016,
      "አርማ": 3017,
      "አርጋለች": 3018,
      "እምሮ": 3019,
      "ውሥጣችን": 3020,
      "ሽንፈቱ": 3021,
      "ኤልሻ": 3022,
      "ኤልያሥ": 3023,
      "ኤልሣቤ": 3024,
      "ኤልያሥን": 3025,
      "ድምጿን": 3026,
      "በማርያም": 3027,
      "ባንተ": 3028,
      "ባንች": 3029,
      "ተዋል": 3030,
      "ክርክር": 3031,
      "ክብርሽ": 3032,
      "ክብርሽን": 3033,
      "በሠባ": 3034,
      "አላቸው": 3035,
      "አላለም": 3036,
      "ክብሩ": 3037,
      "ልደቴ": 3038,
      "ሠምቼ": 3039,
      "ግርግዳ": 3040,
      "ጠብቀን": 3041,
      "ሊያድ": 3042,
      "መከራውን": 3043,
      "ባህሩ": 3044,
      "ባህሩን": 3045,
      "ተሠቅሎ": 3046,
      "አደባባይ": 3047,
      "አድርገው": 3048,
      "ከብቶቹ": 3049,
      "በሀዘን": 3050,
      "ወርዶ": 3051,
      "በላቸው": 3052,
      "እንድታ": 3053,
      "ማህሌ": 3054,
      "ማህፀን": 3055,
      "ሠጥቶ": 3056,
      "ሥሙኝ": 3057,
      "ንቀቅ": 3058,
      "ፈርቶ": 3059,
      "በሥተ": 3060,
      "በሥደት": 3061,
      "ሠርቼ": 3062,
      "ነገሩ": 3063,
      "ነገረው": 3064,
      "ረኝነት": 3065,
      "በተለምዶ": 3066,
      "ቤተክርሥቲያን": 3067,
      "የመዳን": 3068,
      "ዮናሠ": 3069,
      "ቀድሥ": 3070,
      "እንባዋን": 3071,
      "መድሀኔአለም": 3072,
      "መቼም": 3073,
      "በህጉ": 3074,
      "አያሻ": 3075,
      "ጠላቴ": 3076,
      "መንገድህን": 3077,
      "በቅፅበት": 3078,
      "አረጋ": 3079,
      "በአንድነት": 3080,
      "ከርቤ": 3081,
      "መድሀኒቴ": 3082,
      "ተራሮች": 3083,
      "ተፈፀመ": 3084,
      "የታሠረ": 3085,
      "በለሥ": 3086,
      "በለቅሦ": 3087,
      "ትውፊት": 3088,
      "ፈውሥን": 3089,
      "ሥቃዩ": 3090,
      "ምትራት": 3091,
      "ተርቦ": 3092,
      "አደረገ": 3093,
      "ዘመኔ": 3094,
      "ነቢያት": 3095,
      "አየሁት": 3096,
      "ጥንካሬ": 3097,
      "ተጠማሁ": 3098,
      "ተመልከ": 3099,
      "ታደገን": 3100,
      "ወሠነ": 3101,
      "የጠዋ": 3102,
      "ማረን": 3103,
      "በብረት": 3104,
      "በድካም": 3105,
      "ታድሞ": 3106,
      "ወጥቶ": 3107,
      "እያየሁ": 3108,
      "ቁልቁል": 3109,
      "ቅንነት": 3110,
      "ኑሮዬ": 3111,
      "እድሜ": 3112,
      "ከለላ": 3113,
      "ግድግዳ": 3114,
      "አዋጅ": 3115,
      "ጥምቀት": 3116,
      "ብርሀም": 3117,
      "ብርሀነ": 3118,
      "ተማሪው": 3119,
      "ምክንያቱ": 3120,
      "ሠቀሉት": 3121,
      "ሥማኝ": 3122,
      "በዝቶ": 3123,
      "በሥጋው": 3124,
      "ትህትናን": 3125,
      "የተማሪ": 3126,
      "መንገዱን": 3127,
      "ተቀምጠው": 3128,
      "ሠይጣንን": 3129,
      "መፃጉእ": 3130,
      "ሠአታት": 3131,
      "ትምህርቱ": 3132,
      "ከእንግዲህ": 3133,
      "ወዲያው": 3134,
      "ጉዞዬን": 3135,
      "አመፀኛ": 3136,
      "አንደበቱ": 3137,
      "ከፈለክ": 3138,
      "የናቱን": 3139,
      "ዳርቻ": 3140,
      "ድጓድ": 3141,
      "አንገቱ": 3142,
      "ሄዋንን": 3143,
      "ለሥጋው": 3144,
      "ቀላፋ": 3145,
      "አግኝ": 3146,
      "እሷም": 3147,
      "ጨረሻ": 3148,
      "አንሥቶ": 3149,
      "የተዋህዶን": 3150,
      "በረከትን": 3151,
      "እሥክመለሥ": 3152,
      "ሠባኪ": 3153,
      "ትላለህ": 3154,
      "እጁን": 3155,
      "የያዝከውን": 3156,
      "የደማ": 3157,
      "ፈቃድ": 3158,
      "ፈፅሞ": 3159,
      "አሥተማረ": 3160,
      "ለመሥጠት": 3161,
      "በአምላክነቱ": 3162,
      "ተቃር": 3163,
      "ትግሀት": 3164,
      "ኩራብ": 3165,
      "ክረምት": 3166,
      "የለውም": 3167,
      "ይብቃን": 3168,
      "ጀመሪያ": 3169,
      "ጉልበቱ": 3170,
      "ትውልዱ": 3171,
      "ጥላቻን": 3172,
      "ሄዳለች": 3173,
      "አክብሮ": 3174,
      "ዝናብ": 3175,
      "ደካማ": 3176,
      "ገዳም": 3177,
      "ጠገቤ": 3178,
      "ፈቅዶ": 3179,
      "መናፍሥት": 3180,
      "ገለጥበት": 3181,
      "ተጋድሎ": 3182,
      "ሠቃይ": 3183,
      "አሜኬላ": 3184,
      "ከእርጉም": 3185,
      "ኩነኔ": 3186,
      "ደነገጠ": 3187,
      "ጲላጦሥ": 3188,
      "በትእቢት": 3189,
      "እርካታ": 3190,
      "ወንጀለኛ": 3191,
      "ሆሣእና": 3192,
      "ሆምጣጤ": 3193,
      "መዛሙር": 3194,
      "ሚካኤል": 3195,
      "ተከፈተ": 3196,
      "ናወነ": 3197,
      "ኢያቄም": 3198,
      "ይደንቃል": 3199,
      "አይኖርም": 3200,
      "መሥታወት": 3201,
      "ሣይጨርሠው": 3202,
      "ኤልሣቤጥ": 3203,
      "ሀሣ": 3204,
      "ሀኪ": 3205,
      "ሀለው": 3206,
      "ሀያል": 3207,
      "ሀከል": 3208,
      "ሀዘኑ": 3209,
      "ሁላ": 3210,
      "ሂድ": 3211,
      "ህኒ": 3212,
      "ህጉ": 3213,
      "ህርያ": 3214,
      "ህማም": 3215,
      "ሆዷ": 3216,
      "ለሽ": 3217,
      "ለፈ": 3218,
      "ለፋ": 3219,
      "ለአባ": 3220,
      "ለመል": 3221,
      "ለአንድ": 3222,
      "ለሞት": 3223,
      "ለእውነት": 3224,
      "ለብቻ": 3225,
      "ለዘለ": 3226,
      "ለሠዎች": 3227,
      "ለወገ": 3228,
      "ለወጥ": 3229,
      "ለእንደገና": 3230,
      "ለጣኦት": 3231,
      "ሉሽ": 3232,
      "ሉይ": 3233,
      "ሊባ": 3234,
      "ሊጠ": 3235,
      "ሊበላ": 3236,
      "ላታ": 3237,
      "ላኩ": 3238,
      "ላዲ": 3239,
      "ላከው": 3240,
      "ሌለ": 3241,
      "ልማ": 3242,
      "ልሥ": 3243,
      "ልተው": 3244,
      "ልማር": 3245,
      "ልመለሥ": 3246,
      "ሎሥን": 3247,
      "መቁ": 3248,
      "መቶ": 3249,
      "መኛ": 3250,
      "መኻ": 3251,
      "መዝ": 3252,
      "መዱ": 3253,
      "መጤ": 3254,
      "መጸ": 3255,
      "መጻ": 3256,
      "መሣይ": 3257,
      "መታው": 3258,
      "መከል": 3259,
      "መምር": 3260,
      "መዋል": 3261,
      "መፅና": 3262,
      "መቋቋም": 3263,
      "መጓዝ": 3264,
      "መጀመሪያ": 3265,
      "ሙሤን": 3266,
      "ሚት": 3267,
      "ሚጠሩ": 3268,
      "ሚዛን": 3269,
      "ማተ": 3270,
      "ማነ": 3271,
      "ማው": 3272,
      "ማዘ": 3273,
      "ማጀ": 3274,
      "ማሥታ": 3275,
      "ማደር": 3276,
      "ማልታ": 3277,
      "ማዘለ": 3278,
      "ማፀን": 3279,
      "ማእድ": 3280,
      "ማላጅ": 3281,
      "ምሠ": 3282,
      "ምሪ": 3283,
      "ምኑ": 3284,
      "ምልክ": 3285,
      "ምኩኝ": 3286,
      "ምኩራብ": 3287,
      "ሞራ": 3288,
      "ሞን": 3289,
      "ሞገ": 3290,
      "ሠሀ": 3291,
      "ሠሎ": 3292,
      "ሠሜ": 3293,
      "ሠና": 3294,
      "ሠኛ": 3295,
      "ሠገ": 3296,
      "ሠጋ": 3297,
      "ሠሠው": 3298,
      "ሠኛል": 3299,
      "ሠበው": 3300,
      "ሠጡት": 3301,
      "ሠገደ": 3302,
      "ሠደድ": 3303,
      "ሠዶም": 3304,
      "ሢሻ": 3305,
      "ሢገ": 3306,
      "ሢያን": 3307,
      "ሢጠራ": 3308,
      "ሢነገር": 3309,
      "ሢለምን": 3310,
      "ሢበላ": 3311,
      "ሢበዛ": 3312,
      "ሢባል": 3313,
      "ሢመለሥ": 3314,
      "ሢናገር": 3315,
      "ሢጠጣ": 3316,
      "ሢጨነቅ": 3317,
      "ሢጠራት": 3318,
      "ሢቆጣ": 3319,
      "ሢመለከት": 3320,
      "ሢርድ": 3321,
      "ሢዝል": 3322,
      "ሢያልቅ": 3323,
      "ሣም": 3324,
      "ሣሽ": 3325,
      "ሣነ": 3326,
      "ሣዊ": 3327,
      "ሣደ": 3328,
      "ሣችሁ": 3329,
      "ሣለች": 3330,
      "ሥረ": 3331,
      "ሥቆ": 3332,
      "ሥቢ": 3333,
      "ሥድ": 3334,
      "ሥሥት": 3335,
      "ሥኖር": 3336,
      "ሥደት": 3337,
      "ሥሜን": 3338,
      "ሥማማ": 3339,
      "ሥጪኝ": 3340,
      "ሦሥ": 3341,
      "ሦሦ": 3342,
      "ረባ": 3343,
      "ረቱን": 3344,
      "ረናል": 3345,
      "ረኛው": 3346,
      "ሩት": 3347,
      "ሩፋት": 3348,
      "ራሄ": 3349,
      "ራሤ": 3350,
      "ራቂ": 3351,
      "ራና": 3352,
      "ራኝ": 3353,
      "ራለሁ": 3354,
      "ራቷን": 3355,
      "ራዉያንን": 3356,
      "ሬህ": 3357,
      "ሬድ": 3358,
      "ርቃ": 3359,
      "ርታ": 3360,
      "ርያሥ": 3361,
      "ሮሥ": 3362,
      "ሮጌ": 3363,
      "ሯል": 3364,
      "ሸሽ": 3365,
      "ሸት": 3366,
      "ሸነ": 3367,
      "ሻት": 3368,
      "ሻው": 3369,
      "ሽረው": 3370,
      "ሽንም": 3371,
      "ሽታው": 3372,
      "ቀህ": 3373,
      "ቀያ": 3374,
      "ቀትን": 3375,
      "ቀምሥ": 3376,
      "ቀየም": 3377,
      "ቀጡት": 3378,
      "ቀፈች": 3379,
      "ቁረ": 3380,
      "ቁጥር": 3381,
      "ቁረጥ": 3382,
      "ቃብር": 3383,
      "ቃጠል": 3384,
      "ቄጤማ": 3385,
      "ቅፍ": 3386,
      "ቅሣት": 3387,
      "ቅባት": 3388,
      "ቅፋት": 3389,
      "ቅጥል": 3390,
      "ቅመኝ": 3391,
      "ቅበዘ": 3392,
      "ቆጠር": 3393,
      "በሬ": 3394,
      "በሮ": 3395,
      "በነ": 3396,
      "በዋ": 3397,
      "በዳ": 3398,
      "በጅ": 3399,
      "በጋ": 3400,
      "በፅ": 3401,
      "በርሥ": 3402,
      "በአሥ": 3403,
      "በሀይ": 3404,
      "በነፍ": 3405,
      "በናል": 3406,
      "በቅዱሥ": 3407,
      "በለኝ": 3408,
      "በመንገድ": 3409,
      "በቀኝ": 3410,
      "በመንፈሥ": 3411,
      "በፍጥረት": 3412,
      "በአይሁድ": 3413,
      "በበረከት": 3414,
      "በፀጋ": 3415,
      "በተዋህዶ": 3416,
      "በመሥቀሉ": 3417,
      "በሸን": 3418,
      "በዮሀንሥ": 3419,
      "በፍጹም": 3420,
      "በተንኮል": 3421,
      "በብርቱ": 3422,
      "በህይወቴ": 3423,
      "በከፍታ": 3424,
      "በኩል": 3425,
      "በጨርቅ": 3426,
      "በሥምሽ": 3427,
      "በሽታ": 3428,
      "በበረሀ": 3429,
      "በምህረቱ": 3430,
      "በፍቅሩ": 3431,
      "በሌለበት": 3432,
      "በቶሎ": 3433,
      "በፊቴ": 3434,
      "ቡር": 3435,
      "ቡት": 3436,
      "ቢለ": 3437,
      "ቢሉ": 3438,
      "ቢው": 3439,
      "ባላ": 3440,
      "ባሣ": 3441,
      "ባቱ": 3442,
      "ባከ": 3443,
      "ባዮ": 3444,
      "ባለሁ": 3445,
      "ባነሣ": 3446,
      "ባለን": 3447,
      "ባገኝ": 3448,
      "ባዝን": 3449,
      "ባካችሁ": 3450,
      "ብባ": 3451,
      "ብቶ": 3452,
      "ብዛ": 3453,
      "ብፁ": 3454,
      "ብላት": 3455,
      "ብቀን": 3456,
      "ብሥራ": 3457,
      "ብኛል": 3458,
      "ቦሙ": 3459,
      "ቦር": 3460,
      "ቦታው": 3461,
      "ተሣ": 3462,
      "ተቸ": 3463,
      "ተዳ": 3464,
      "ተድ": 3465,
      "ተፋ": 3466,
      "ተሠማ": 3467,
      "ተመለ": 3468,
      "ተከት": 3469,
      "ተገል": 3470,
      "ተከተ": 3471,
      "ተከፋ": 3472,
      "ተሞልቶ": 3473,
      "ተፃፈ": 3474,
      "ታህ": 3475,
      "ታዋ": 3476,
      "ታየ": 3477,
      "ታውን": 3478,
      "ታለም": 3479,
      "ታረድ": 3480,
      "ታገሠ": 3481,
      "ታቦት": 3482,
      "ታሥሮ": 3483,
      "ትያን": 3484,
      "ትተን": 3485,
      "ትሆና": 3486,
      "ትሁት": 3487,
      "ትታደሥ": 3488,
      "ትመሥክር": 3489,
      "ቶሥ": 3490,
      "ችለኝ": 3491,
      "ቿን": 3492,
      "ኋን": 3493,
      "ነጣ": 3494,
      "ነጥ": 3495,
      "ነጻ": 3496,
      "ነብር": 3497,
      "ነናል": 3498,
      "ነደው": 3499,
      "ነፈች": 3500,
      "ኑፋ": 3501,
      "ናን": 3502,
      "ናክ": 3503,
      "ናይ": 3504,
      "ናንተ": 3505,
      "ኔሮን": 3506,
      "ንቃ": 3507,
      "ንቆ": 3508,
      "ንን": 3509,
      "ንጹ": 3510,
      "ንነት": 3511,
      "ንሡም": 3512,
      "ንፁህ": 3513,
      "ንቅሣት": 3514,
      "ኖች": 3515,
      "ኖረኝ": 3516,
      "ኗል": 3517,
      "ኞቹ": 3518,
      "አሞ": 3519,
      "አቁ": 3520,
      "አኮ": 3521,
      "አዙ": 3522,
      "አጠ": 3523,
      "አገር": 3524,
      "አሣይ": 3525,
      "አቀና": 3526,
      "አሠምቶ": 3527,
      "አቋቋም": 3528,
      "አቋረጠው": 3529,
      "አብርሀም": 3530,
      "አሮጌ": 3531,
      "ኢሣያሥ": 3532,
      "ኤጲ": 3533,
      "እማ": 3534,
      "እሣ": 3535,
      "እብ": 3536,
      "እኩ": 3537,
      "እፋ": 3538,
      "እውን": 3539,
      "እማማ": 3540,
      "ከህ": 3541,
      "ከሬ": 3542,
      "ከታ": 3543,
      "ከኛ": 3544,
      "ከሠው": 3545,
      "ከአለም": 3546,
      "ከበደ": 3547,
      "ከዛሬ": 3548,
      "ከእኛ": 3549,
      "ከልብ": 3550,
      "ከሥጋ": 3551,
      "ከእግዚአብሄር": 3552,
      "ከመቅ": 3553,
      "ከእነ": 3554,
      "ከቤተ": 3555,
      "ከሀይማኖት": 3556,
      "ከጠላት": 3557,
      "ከፊቱ": 3558,
      "ከወንድ": 3559,
      "ከውሥጤ": 3560,
      "ከሌለው": 3561,
      "ከመድረ": 3562,
      "ከመቅደሡ": 3563,
      "ኩሬ": 3564,
      "ኩበት": 3565,
      "ካዜ": 3566,
      "ካደረ": 3567,
      "ካጠገቤ": 3568,
      "ክሪ": 3569,
      "ክፍ": 3570,
      "ኮሽ": 3571,
      "ኳት": 3572,
      "ኳንሥ": 3573,
      "ወሣ": 3574,
      "ወአባ": 3575,
      "ወሀና": 3576,
      "ወተት": 3577,
      "ዉጣት": 3578,
      "ዋላ": 3579,
      "ዋሥ": 3580,
      "ዋዛ": 3581,
      "ዋለች": 3582,
      "ዋክብ": 3583,
      "ዋዜማ": 3584,
      "ዋይታ": 3585,
      "ዋደድ": 3586,
      "ውና": 3587,
      "ውጤ": 3588,
      "ውዴን": 3589,
      "ውጊያ": 3590,
      "ዘዝ": 3591,
      "ዘግ": 3592,
      "ዘፈ": 3593,
      "ዘመና": 3594,
      "ዘፍጥረት": 3595,
      "ዘምር": 3596,
      "ዘነጋ": 3597,
      "ዚአብሄር": 3598,
      "ዝቅ": 3599,
      "የቴ": 3600,
      "የኝ": 3601,
      "የዉ": 3602,
      "የጋ": 3603,
      "የጌ": 3604,
      "የጵ": 3605,
      "የበት": 3606,
      "የመን": 3607,
      "የወደ": 3608,
      "የልጅ": 3609,
      "የክብር": 3610,
      "የመረ": 3611,
      "የመው": 3612,
      "የኢየሡሥ": 3613,
      "የእናት": 3614,
      "የጠላ": 3615,
      "የዲያብሎሥ": 3616,
      "የሀገር": 3617,
      "የከበረ": 3618,
      "የድል": 3619,
      "የከፋ": 3620,
      "የቃና": 3621,
      "የህፃ": 3622,
      "የሀዋርያት": 3623,
      "የመሥቀሉ": 3624,
      "የሄዱ": 3625,
      "የጉዞ": 3626,
      "የጅራፍ": 3627,
      "የሥላሤ": 3628,
      "የጽድ": 3629,
      "የሠላምታ": 3630,
      "የአለምን": 3631,
      "የልጅነት": 3632,
      "የአመታት": 3633,
      "የኖረ": 3634,
      "የመጣው": 3635,
      "የመሥቀሉን": 3636,
      "የከበሩ": 3637,
      "ያሻ": 3638,
      "ያተ": 3639,
      "ያቴ": 3640,
      "ያኑ": 3641,
      "ያና": 3642,
      "ያጌ": 3643,
      "ያጠ": 3644,
      "ያጣ": 3645,
      "ያችሁ": 3646,
      "ያወጣ": 3647,
      "ያከበረ": 3648,
      "ዬም": 3649,
      "ይማ": 3650,
      "ይር": 3651,
      "ይቀ": 3652,
      "ይቺ": 3653,
      "ይው": 3654,
      "ይድ": 3655,
      "ይግ": 3656,
      "ይሠው": 3657,
      "ይፈር": 3658,
      "ይገለ": 3659,
      "ይነግ": 3660,
      "ይፈታ": 3661,
      "ይግባ": 3662,
      "ይበለን": 3663,
      "ይቆማ": 3664,
      "ይቁረጥ": 3665,
      "ይቅበዘ": 3666,
      "ዮብ": 3667,
      "ደህ": 3668,
      "ደሙ": 3669,
      "ደቱ": 3670,
      "ደዌ": 3671,
      "ደደ": 3672,
      "ደገ": 3673,
      "ደላት": 3674,
      "ደበቀ": 3675,
      "ዳሥ": 3676,
      "ዳኛ": 3677,
      "ዶት": 3678,
      "ዶክ": 3679,
      "ገሣ": 3680,
      "ገዙ": 3681,
      "ገፅ": 3682,
      "ገመድ": 3683,
      "ገሞራ": 3684,
      "ጉሮሮ": 3685,
      "ጊልን": 3686,
      "ጋሪ": 3687,
      "ጋጣ": 3688,
      "ጋግጦ": 3689,
      "ጋጅቶ": 3690,
      "ግቡ": 3691,
      "ግቦ": 3692,
      "ግታ": 3693,
      "ግቶ": 3694,
      "ግዞ": 3695,
      "ግዴ": 3696,
      "ግማን": 3697,
      "ግጠው": 3698,
      "ግባር": 3699,
      "ግሎት": 3700,
      "ግሸን": 3701,
      "ግደሉ": 3702,
      "ጎል": 3703,
      "ጎሣ": 3704,
      "ጎሥ": 3705,
      "ጎበ": 3706,
      "ጎዳ": 3707,
      "ጎደለ": 3708,
      "ጎርፍ": 3709,
      "ጓዳ": 3710,
      "ጠሉ": 3711,
      "ጠሉት": 3712,
      "ጢፋኖሥ": 3713,
      "ጣቴ": 3714,
      "ጣእ": 3715,
      "ጣጫ": 3716,
      "ጣውን": 3717,
      "ጣለች": 3718,
      "ጥላት": 3719,
      "ጥረት": 3720,
      "ጥልና": 3721,
      "ጥበበ": 3722,
      "ጥያቄ": 3723,
      "ጨም": 3724,
      "ጨው": 3725,
      "ጨከነ": 3726,
      "ጫማ": 3727,
      "ጭጭ": 3728,
      "ጭፍራ": 3729,
      "ጮሀ": 3730,
      "ጮራ": 3731,
      "ጸሎ": 3732,
      "ጸመ": 3733,
      "ጸን": 3734,
      "ጸጥ": 3735,
      "ጸባር": 3736,
      "ጸለየ": 3737,
      "ጻድ": 3738,
      "ጽዮን": 3739,
      "ፀኗ": 3740,
      "ፃፍ": 3741,
      "ፃፎች": 3742,
      "ፅህ": 3743,
      "ፅንሥ": 3744,
      "ፅንሡም": 3745,
      "ፈነ": 3746,
      "ፈክ": 3747,
      "ፈጣ": 3748,
      "ፈረሥ": 3749,
      "ፈሩን": 3750,
      "ፈረኝ": 3751,
      "ፈኞች": 3752,
      "ፊው": 3753,
      "ፊደል": 3754,
      "ፋል": 3755,
      "ፋችን": 3756,
      "ፍላ": 3757,
      "ፍል": 3758,
      "ፍም": 3759,
      "ፍሮ": 3760,
      "ፍተው": 3761,
      "ፍሥሀ": 3762,
      "ፍቁረ": 3763,
      "ፎም": 3764,
      "ፕሮ": 3765,
      "እንቢ": 3766,
      "እንጃ": 3767,
      "እንኳንሥ": 3768,
      "አንድን": 3769,
      "አንዳን": 3770,
      "አንገት": 3771,
      "አንካሣ": 3772,
      "አንብባ": 3773,
      "አለሁ": 3774,
      "አምሣል": 3775,
      "እንደሁ": 3776,
      "እንደመጣ": 3777,
      "እንደማይ": 3778,
      "እንደሌለው": 3779,
      "በትም": 3780,
      "በትእግሥት": 3781,
      "የሚዘ": 3782,
      "የሚሆን": 3783,
      "የሚበላ": 3784,
      "የሚሠጥ": 3785,
      "የሚታይ": 3786,
      "የሚገዛ": 3787,
      "የሚኖረው": 3788,
      "የሚሉሽ": 3789,
      "አይተ": 3790,
      "አይነ": 3791,
      "አይቀር": 3792,
      "አይኑን": 3793,
      "አይኖቼ": 3794,
      "ለውጥ": 3795,
      "የተነሣ": 3796,
      "የተባለ": 3797,
      "የተወለድ": 3798,
      "የተሥፋ": 3799,
      "የተዘጋ": 3800,
      "የተደረገ": 3801,
      "መንግሥቱ": 3802,
      "ሠማና": 3803,
      "ሠማዉ": 3804,
      "ሠማው": 3805,
      "ሠማየ": 3806,
      "ሠማእት": 3807,
      "ሠውና": 3808,
      "ሠውነቱ": 3809,
      "ችንን": 3810,
      "መሥል": 3811,
      "መሥገን": 3812,
      "ትንፋ": 3813,
      "ድንጋይ": 3814,
      "እናን": 3815,
      "እናታችን": 3816,
      "ጌታዋ": 3817,
      "ወደሡ": 3818,
      "እያነሣ": 3819,
      "እያደባ": 3820,
      "አልሞ": 3821,
      "አልክ": 3822,
      "አልፋ": 3823,
      "አልቀረ": 3824,
      "አልችልም": 3825,
      "አልቦሙ": 3826,
      "በእልፍ": 3827,
      "ቅርብ": 3828,
      "አሥታው": 3829,
      "አሥፈራ": 3830,
      "አሥራት": 3831,
      "አሥተም": 3832,
      "አሥቀድ": 3833,
      "አሥበህ": 3834,
      "አሥጨንቀ": 3835,
      "አሥችለኝ": 3836,
      "እኔነቴ": 3837,
      "አምላክም": 3838,
      "በረቱ": 3839,
      "በረሀብ": 3840,
      "አትልፋ": 3841,
      "አትራቂ": 3842,
      "አትበለኝ": 3843,
      "ሥትለኝ": 3844,
      "ሥትሠማዉ": 3845,
      "በርቶ": 3846,
      "ብሎናል": 3847,
      "እንዲም": 3848,
      "እንዲታ": 3849,
      "እንዲሆን": 3850,
      "ሥለቱ": 3851,
      "ሥለኔ": 3852,
      "እንዳለ": 3853,
      "እንዳላ": 3854,
      "እንዳጣ": 3855,
      "ያንሁሉ": 3856,
      "ያንተን": 3857,
      "አብነት": 3858,
      "ሥንቱ": 3859,
      "ሥንኩል": 3860,
      "ለምኖ": 3861,
      "መልሡ": 3862,
      "መልአ": 3863,
      "ፍቅርም": 3864,
      "ክርሥትያን": 3865,
      "አንድምታ": 3866,
      "በደለኞች": 3867,
      "እየፈ": 3868,
      "እየሠማ": 3869,
      "እየኖር": 3870,
      "እየማለ": 3871,
      "እየቀጣ": 3872,
      "እየደነገጠ": 3873,
      "ይወቀው": 3874,
      "ለመነ": 3875,
      "ለመወለድ": 3876,
      "ለመቅመሥ": 3877,
      "ለመዉጣት": 3878,
      "ርያት": 3879,
      "እውራን": 3880,
      "እውቀትን": 3881,
      "ተውከኝ": 3882,
      "መጣህ": 3883,
      "መጣም": 3884,
      "መጣና": 3885,
      "በልቶ": 3886,
      "ሣይቀር": 3887,
      "ሆነሽ": 3888,
      "ሆነች": 3889,
      "ልጅን": 3890,
      "አንተም": 3891,
      "ማንንም": 3892,
      "ማንነቴ": 3893,
      "ያለን": 3894,
      "ያለዉን": 3895,
      "ደረቷ": 3896,
      "ደረቱን": 3897,
      "ደርቅ": 3898,
      "መሠግ": 3899,
      "መሠክር": 3900,
      "መሠገን": 3901,
      "ወንዙ": 3902,
      "ያልገባ": 3903,
      "ያልከው": 3904,
      "ያልተማረው": 3905,
      "ልንገራችሁ": 3906,
      "አዳኙን": 3907,
      "ጊዜው": 3908,
      "የሚያሣርፍ": 3909,
      "ለማዳን": 3910,
      "ገድሉት": 3911,
      "ሥራዋ": 3912,
      "ሥራው": 3913,
      "በአህ": 3914,
      "በአሉ": 3915,
      "በአዛ": 3916,
      "በአኮቴ": 3917,
      "በአማላጅ": 3918,
      "ምድርም": 3919,
      "ምድርና": 3920,
      "ነሣህ": 3921,
      "ነፍሡን": 3922,
      "ገባን": 3923,
      "ገባውን": 3924,
      "በመሆን": 3925,
      "በመሀል": 3926,
      "በመዝሙ": 3927,
      "በመጥፋቱ": 3928,
      "በመሀከል": 3929,
      "ወለል": 3930,
      "ወለተ": 3931,
      "ወለሉን": 3932,
      "ተቀበ": 3933,
      "ተቀብ": 3934,
      "ተቀይ": 3935,
      "ተቀበለ": 3936,
      "ጠፋት": 3937,
      "ጠፋን": 3938,
      "ጠፋባቸው": 3939,
      "የትም": 3940,
      "ትናገሩ": 3941,
      "አርገ": 3942,
      "አርገህ": 3943,
      "እምዋ": 3944,
      "እምነቴ": 3945,
      "ሠጠኝ": 3946,
      "ኤልሣ": 3947,
      "ክህደቱ": 3948,
      "ድምጹን": 3949,
      "በማይ": 3950,
      "በማለዳ": 3951,
      "በማፋለሥ": 3952,
      "ተዋረድ": 3953,
      "ከፍቶ": 3954,
      "መረገ": 3955,
      "መረመር": 3956,
      "በራፍ": 3957,
      "ታውቀው": 3958,
      "የማይሻር": 3959,
      "ለህና": 3960,
      "አሣዳ": 3961,
      "ፍጥረቱ": 3962,
      "እርሡን": 3963,
      "በሠረጉ": 3964,
      "አላው": 3965,
      "አላወቁ": 3966,
      "አማኙ": 3967,
      "ፈራም": 3968,
      "ቢያቆ": 3969,
      "ተነግ": 3970,
      "አሁንሥ": 3971,
      "ክብሯ": 3972,
      "ዎችም": 3973,
      "ፊትህን": 3974,
      "ሠምተው": 3975,
      "ሠምተህ": 3976,
      "ሥላለ": 3977,
      "በውነት": 3978,
      "አጥቼ": 3979,
      "አጥንት": 3980,
      "አጥፍቶ": 3981,
      "እረፍት": 3982,
      "ይቅርብኝ": 3983,
      "ጠብቆ": 3984,
      "ብርሀንን": 3985,
      "ሊያይ": 3986,
      "ሊያቀርቡ": 3987,
      "ብዙዎች": 3988,
      "አውቆ": 3989,
      "እየተመ": 3990,
      "ይህም": 3991,
      "ይህች": 3992,
      "ግብራቸው": 3993,
      "ተሥፋው": 3994,
      "ተሥፋዬን": 3995,
      "ወድቄ": 3996,
      "ገንዘብ": 3997,
      "አቅቶኝ": 3998,
      "አቅቷቸው": 3999,
      "አቅጣጫ": 4000,
      "እሥከሞት": 4001,
      "ልታማልድ": 4002,
      "መጠቅለ": 4003,
      "እንድና": 4004,
      "ልምጣ": 4005,
      "ሠጥም": 4006,
      "ኢትየጵ": 4007,
      "ገልጥ": 4008,
      "ገልግሎት": 4009,
      "ጥሮሥ": 4010,
      "ፈርተው": 4011,
      "አንደበተ": 4012,
      "ሪያቸው": 4013,
      "በዛሉ": 4014,
      "በዛል": 4015,
      "ባልኩ": 4016,
      "እነሡ": 4017,
      "ከተጣ": 4018,
      "ሠርገኛ": 4019,
      "ባይኖር": 4020,
      "ነገሠ": 4021,
      "አድራ": 4022,
      "ከምኔ": 4023,
      "ከምሦሦ": 4024,
      "ከምትናገሩ": 4025,
      "እንዳይሆን": 4026,
      "እንዳይቀር": 4027,
      "እንዳይበላ": 4028,
      "በተራ": 4029,
      "በተሠጠን": 4030,
      "የመግ": 4031,
      "የለሽ": 4032,
      "የለንም": 4033,
      "የለበሡ": 4034,
      "ገናና": 4035,
      "እንባዬ": 4036,
      "እንባዬን": 4037,
      "መነች": 4038,
      "መነዝር": 4039,
      "በጥር": 4040,
      "በጥበብ": 4041,
      "አያቁም": 4042,
      "ዘለለ": 4043,
      "ድረሥና": 4044,
      "ጠላታችን": 4045,
      "ተሸከመ": 4046,
      "ተወል": 4047,
      "ተወው": 4048,
      "ልናገር": 4049,
      "ማሥነሣቱ": 4050,
      "በግፈኞች": 4051,
      "ከርሷ": 4052,
      "ክርሥቲያ": 4053,
      "የእድሜ": 4054,
      "የእሾክ": 4055,
      "ሠንበት": 4056,
      "በምክ": 4057,
      "የቆምኩኝ": 4058,
      "ፈልጋ": 4059,
      "ፈልገው": 4060,
      "ሀዋርያው": 4061,
      "ሀገሬን": 4062,
      "ልህም": 4063,
      "በሩት": 4064,
      "ታላላቅ": 4065,
      "አበዉን": 4066,
      "የኔታ": 4067,
      "ወንጌልን": 4068,
      "ቅዱሣንን": 4069,
      "ህዝቡን": 4070,
      "ልጇም": 4071,
      "ልጆችሽን": 4072,
      "ቅድሥና": 4073,
      "በቁም": 4074,
      "ነግሬህ": 4075,
      "አዝላ": 4076,
      "ዘመሩ": 4077,
      "ዘመቻ": 4078,
      "ዘመኑ": 4079,
      "ፈጥና": 4080,
      "እንዳልጠፋ": 4081,
      "ሥልቱ": 4082,
      "ቅኔውን": 4083,
      "ተደፋ": 4084,
      "ተደብቆ": 4085,
      "ነቢይ": 4086,
      "አዛኝ": 4087,
      "አየና": 4088,
      "ከሩቅ": 4089,
      "ከፋው": 4090,
      "ባህርን": 4091,
      "ምግቤ": 4092,
      "ምግባር": 4093,
      "ታምራቱ": 4094,
      "ታምራቷን": 4095,
      "አፍሦ": 4096,
      "ኪዳንሽ": 4097,
      "ገላታ": 4098,
      "ጥንትም": 4099,
      "ጌታችንን": 4100,
      "ምህረትህ": 4101,
      "ሀጥአን": 4102,
      "በቀኙ": 4103,
      "በገዛ": 4104,
      "ተመልከት": 4105,
      "ታደያ": 4106,
      "ወሠደ": 4107,
      "የረቀቀ": 4108,
      "የጠበቁ": 4109,
      "ገበታ": 4110,
      "መለኮቱን": 4111,
      "መኝታው": 4112,
      "ተረጋግጦ": 4113,
      "ነብያት": 4114,
      "ነብሡን": 4115,
      "ነብሤን": 4116,
      "እልፍ": 4117,
      "ያላያችሁ": 4118,
      "ይመሥክር": 4119,
      "ገሠገሠ": 4120,
      "ገደል": 4121,
      "ትንሽዬ": 4122,
      "ልደትሽ": 4123,
      "ለቀሠ": 4124,
      "ሥብሀት": 4125,
      "ቅንጣት": 4126,
      "በሚገለጥበት": 4127,
      "በይኝ": 4128,
      "ከደሙ": 4129,
      "ከደጅሽ": 4130,
      "በትንፋ": 4131,
      "በትንቢት": 4132,
      "አንደበትህ": 4133,
      "ለይቶ": 4134,
      "ምድራዉያንን": 4135,
      "አንድነትን": 4136,
      "ጠፍቶባቸው": 4137,
      "አንዳችም": 4138,
      "በዝማሬ": 4139,
      "ተኛን": 4140,
      "አቸውም": 4141,
      "ክፋትና": 4142,
      "ጆሮአቸውም": 4143,
      "መንገዱ": 4144,
      "ወይንኪ": 4145,
      "ረግጦ": 4146,
      "ረግጠው": 4147,
      "ተቆጠረ": 4148,
      "ተከቦ": 4149,
      "ተግቼ": 4150,
      "ንብሦ": 4151,
      "ከእንሥ": 4152,
      "ገኛለህና": 4153,
      "የሚያደርጉ": 4154,
      "አመፀኛው": 4155,
      "አንደበቴ": 4156,
      "ቸርነትህ": 4157,
      "ለእኔም": 4158,
      "ለክብሩ": 4159,
      "ሠለሥቱ": 4160,
      "ረዳት": 4161,
      "የልፋት": 4162,
      "የአባቶቼ": 4163,
      "ያደፈ": 4164,
      "ጭንቀቱን": 4165,
      "እርሷን": 4166,
      "መሠረቷ": 4167,
      "በቃልህ": 4168,
      "በዚያች": 4169,
      "አሸዋ": 4170,
      "አሸነፈች": 4171,
      "ወክላ": 4172,
      "ወክሎ": 4173,
      "የሠጠች": 4174,
      "ያድራል": 4175,
      "ይሥጠን": 4176,
      "ጠለል": 4177,
      "ጨረቃ": 4178,
      "በእግዚአብሄር": 4179,
      "በርባንን": 4180,
      "መቅደሡን": 4181,
      "ሊቃውንትን": 4182,
      "መጋቢ": 4183,
      "ሢታየዉ": 4184,
      "ሣያችሁ": 4185,
      "ሣያበቃ": 4186,
      "በኛም": 4187,
      "በምንፈሥ": 4188,
      "ብለናል": 4189,
      "ተሻገረ": 4190,
      "እላለሁ": 4191,
      "ከሠባት": 4192,
      "ዙፋን": 4193,
      "ጨንቀኝን": 4194,
      "ፈፅም": 4195,
      "እንቅልፌን": 4196,
      "የሚያሥጨንቀኝን": 4197,
      "ሠማያዊ": 4198,
      "ሠማያዉያንን": 4199,
      "አልቻለም": 4200,
      "ሚሥጥር": 4201,
      "ተለወጠ": 4202,
      "አቃጥሎ": 4203,
      "ውሸት": 4204,
      "ውሸትና": 4205,
      "የኛን": 4206,
      "የምንለው": 4207,
      "የሠማዩን": 4208,
      "ግማሽ": 4209,
      "ጠበቃዬ": 4210,
      "አምላካችን": 4211,
      "እግሮቼ": 4212,
      "መልካሙ": 4213,
      "መልካሙን": 4214,
      "እሥራኤልን": 4215,
      "ድምፁን": 4216,
      "ሌሎች": 4217,
      "መሀሪ": 4218,
      "ሙሽራ": 4219,
      "ሙሽራው": 4220,
      "ማሠሮ": 4221,
      "ሢጠመቅ": 4222,
      "ሥቦህ": 4223,
      "ሥላልተፃፈ": 4224,
      "በጊዜው": 4225,
      "በክፉዎች": 4226,
      "ተልኮ": 4227,
      "ተፀፀተ": 4228,
      "ነፋሥ": 4229,
      "አሻፈረኝ": 4230,
      "እደዘለለ": 4231,
      "የእርሡሥ": 4232,
      "ሥትናወጥ": 4233,
      "እየፈራች": 4234,
      "እውነታው": 4235,
      "በማህፀን": 4236,
      "በማህፀኗ": 4237,
      "ፍጥረታት": 4238,
      "በምልጃዋ": 4239,
      "ጠባቂዬ": 4240,
      "ላንቺ": 4241,
      "ሚዳቆ": 4242,
      "ማሪያምን": 4243,
      "ምእመናን": 4244,
      "ሸፍነው": 4245,
      "ቀየረዉ": 4246,
      "ቋንቋ": 4247,
      "ብሩክ": 4248,
      "ናዝራዊ": 4249,
      "ናገረው": 4250,
      "እጄን": 4251,
      "ከግሩ": 4252,
      "ዘይት": 4253,
      "ዘገሊላ": 4254,
      "ይጠፋል": 4255,
      "ደቂቃ": 4256,
      "ድውይ": 4257,
      "ጨክነው": 4258,
      "ፈጽሞ": 4259,
      "መንደሩ": 4260,
      "መሥገዷን": 4261,
      "እያልከኝ": 4262,
      "አልሠማህም": 4263,
      "በእርሥቴ": 4264,
      "ምሥክሮች": 4265,
      "እርቃኔን": 4266,
      "ለማውጣት": 4267,
      "በመላእክት": 4268,
      "አውርዶ": 4269,
      "እየተከተለ": 4270,
      "ገብረኤል": 4271,
      "ዳግማዊው": 4272,
      "ትእዛዝ": 4273,
      "መጮኋን": 4274,
      "ማርያምን": 4275,
      "ሠዉነቱ": 4276,
      "ሢፈጥረው": 4277,
      "ረመረመ": 4278,
      "ቁራኛ": 4279,
      "ተሞልታ": 4280,
      "ተቻችሎ": 4281,
      "ተረድቶ": 4282,
      "አበሠራት": 4283,
      "እሩህሩህ": 4284,
      "ከሆንክ": 4285,
      "ውለታው": 4286,
      "የካድ": 4287,
      "ያይደለ": 4288,
      "ጨናቂ": 4289,
      "ጭፍሮች": 4290,
      "ፈሪዋ": 4291,
      "መሥዋእት": 4292,
      "አልቀርም": 4293,
      "አሥጨንቀው": 4294,
      "አብሣሪ": 4295,
      "ተማምኜ": 4296,
      "የምህረት": 4297,
      "ኤልሻዳይ": 4298,
      "አረጋዊ": 4299,
      "የጠዋቱ": 4300,
      "መዛሙርቱ": 4301,
      "ለዘለአላለም": 4302,
      "ሊባኖሥ": 4303,
      "መኻል": 4304,
      "መፅናኛ": 4305,
      "ማልታቸዉ": 4306,
      "ማዘለሏን": 4307,
      "ሠገደች": 4308,
      "ቅጥልጥል": 4309,
      "ባለንበት": 4310,
      "ባገኝበት": 4311,
      "ብፁእ": 4312,
      "ብሥራት": 4313,
      "ኑፋቄ": 4314,
      "አዙሪት": 4315,
      "ዋክብት": 4316,
      "የሠላምታዋን": 4317,
      "ይቆማሉ": 4318,
      "ይቅበዘበዛሉ": 4319,
      "ጋጣሚ": 4320,
      "ፃፎችና": 4321,
      "እንደመጣላችሁ": 4322,
      "የተደረገለት": 4323,
      "አሥጨንቀዋለሁ": 4324,
      "ያልገባችሁ": 4325,
      "በአኮቴት": 4326,
      "ተዋረድኩኝ": 4327,
      "ሠርገኛዉ": 4328,
      "ማሥነሣቱዋን": 4329,
      "ታምራቱዋን": 4330,
      "ሀሠ": 4331,
      "ሀሤ": 4332,
      "ሀቡ": 4333,
      "ሀነ": 4334,
      "ሀው": 4335,
      "ሀዱ": 4336,
      "ሀቸው": 4337,
      "ሀጣን": 4338,
      "ሀረግ": 4339,
      "ሁም": 4340,
      "ሁቱ": 4341,
      "ሂላቸው": 4342,
      "ህመ": 4343,
      "ህጸ": 4344,
      "ህግን": 4345,
      "ህፍት": 4346,
      "ህተት": 4347,
      "ህመሙ": 4348,
      "ሆናት": 4349,
      "ሆናል": 4350,
      "ሆዱን": 4351,
      "ሆኗል": 4352,
      "ሇላ": 4353,
      "ለሆ": 4354,
      "ለቱ": 4355,
      "ለና": 4356,
      "ለአ": 4357,
      "ለዛ": 4358,
      "ለደ": 4359,
      "ለዷ": 4360,
      "ለግ": 4361,
      "ለፀ": 4362,
      "ለመን": 4363,
      "ለጌታ": 4364,
      "ለህን": 4365,
      "ለተማ": 4366,
      "ለሥራ": 4367,
      "ለሠላ": 4368,
      "ለእግዚአብሄር": 4369,
      "ለናል": 4370,
      "ለእርሡ": 4371,
      "ለበሠ": 4372,
      "ለአቅ": 4373,
      "ለሚያ": 4374,
      "ለቅም": 4375,
      "ለፀሀይ": 4376,
      "ለፍጥረት": 4377,
      "ለሀይማኖት": 4378,
      "ለገው": 4379,
      "ለወንጌ": 4380,
      "ለቅዱሣን": 4381,
      "ለሙሤ": 4382,
      "ለድህ": 4383,
      "ለጌታችን": 4384,
      "ለነፍሤ": 4385,
      "ለዮናሥ": 4386,
      "ለምሥጋና": 4387,
      "ለነዳ": 4388,
      "ለራሥ": 4389,
      "ለጽድቅ": 4390,
      "ለወንድ": 4391,
      "ለነፍሥ": 4392,
      "ለነነዌ": 4393,
      "ለቅሦ": 4394,
      "ለአምሥት": 4395,
      "ለፍርድ": 4396,
      "ለእረኞች": 4397,
      "ለባሪያ": 4398,
      "ለዘላለም": 4399,
      "ለክብርሽ": 4400,
      "ለጠላቴ": 4401,
      "ለራሤ": 4402,
      "ለሀጥአን": 4403,
      "ሉቃ": 4404,
      "ሉኝ": 4405,
      "ሉእ": 4406,
      "ሊቁ": 4407,
      "ሊነ": 4408,
      "ሊጶ": 4409,
      "ሊመል": 4410,
      "ሊሠራ": 4411,
      "ሊሠጥ": 4412,
      "ሊጥል": 4413,
      "ሊሄዱ": 4414,
      "ሊሦች": 4415,
      "ሊሠጠው": 4416,
      "ሊለነ": 4417,
      "ላመ": 4418,
      "ላሜ": 4419,
      "ላም": 4420,
      "ላሡ": 4421,
      "ላሥ": 4422,
      "ላቫ": 4423,
      "ላቹ": 4424,
      "ላጊ": 4425,
      "ላለን": 4426,
      "ላመነ": 4427,
      "ላሥብ": 4428,
      "ላሠረ": 4429,
      "ላፍታ": 4430,
      "ላላባት": 4431,
      "ላሠማችሁ": 4432,
      "ላሊበላ": 4433,
      "ላቅርብ": 4434,
      "ላሣያችሁ": 4435,
      "ሌባ": 4436,
      "ሌን": 4437,
      "ሌለኝ": 4438,
      "ሌሊቱ": 4439,
      "ልል": 4440,
      "ልው": 4441,
      "ልግ": 4442,
      "ልጐ": 4443,
      "ልበት": 4444,
      "ልሁን": 4445,
      "ልተን": 4446,
      "ልጠራ": 4447,
      "ልፋት": 4448,
      "ልልታ": 4449,
      "ልከው": 4450,
      "ልሀል": 4451,
      "ልመራ": 4452,
      "ልጠይቅ": 4453,
      "ልቆም": 4454,
      "ልጆቹ": 4455,
      "ልእክት": 4456,
      "ልሣነ": 4457,
      "ሎሽ": 4458,
      "ሎች": 4459,
      "መሄ": 4460,
      "መቱ": 4461,
      "መቸ": 4462,
      "መኑ": 4463,
      "መአ": 4464,
      "መዋ": 4465,
      "መጎ": 4466,
      "መፀ": 4467,
      "መፅ": 4468,
      "መመሥ": 4469,
      "መሞት": 4470,
      "መዘን": 4471,
      "መገረ": 4472,
      "መግብ": 4473,
      "መራት": 4474,
      "መጡት": 4475,
      "መቷል": 4476,
      "መፍት": 4477,
      "መገሥ": 4478,
      "መጨነቅ": 4479,
      "መሞቱ": 4480,
      "መቻል": 4481,
      "መጫወ": 4482,
      "መወለዱ": 4483,
      "መቂያ": 4484,
      "ሙና": 4485,
      "ሙቀት": 4486,
      "ሙዳይ": 4487,
      "ሚሽ": 4488,
      "ሚደ": 4489,
      "ሚጢ": 4490,
      "ሚያሥ": 4491,
      "ሚሠጥ": 4492,
      "ሚንቀ": 4493,
      "ሚባል": 4494,
      "ሚጠጣ": 4495,
      "ሚኖረው": 4496,
      "ሚታዩ": 4497,
      "ማመ": 4498,
      "ማቱ": 4499,
      "ማች": 4500,
      "ማኒ": 4501,
      "ማና": 4502,
      "ማዊ": 4503,
      "ማየ": 4504,
      "ማዳ": 4505,
      "ማጭ": 4506,
      "ማፋ": 4507,
      "ማችን": 4508,
      "ማዳን": 4509,
      "ማነኝ": 4510,
      "ማወቅ": 4511,
      "ማጣቴ": 4512,
      "ሜት": 4513,
      "ምሽ": 4514,
      "ምቀ": 4515,
      "ምና": 4516,
      "ምጥ": 4517,
      "ምረው": 4518,
      "ምእራ": 4519,
      "ምበሠው": 4520,
      "ምሬቱ": 4521,
      "ምሉእ": 4522,
      "ሞቅ": 4523,
      "ሞቼ": 4524,
      "ሞቱን": 4525,
      "ሞገድ": 4526,
      "ሞላል": 4527,
      "ሞክር": 4528,
      "ሞኛል": 4529,
      "ሞተህ": 4530,
      "ሠሙ": 4531,
      "ሠሚ": 4532,
      "ሠሪ": 4533,
      "ሠተ": 4534,
      "ሠጪ": 4535,
      "ሠፍ": 4536,
      "ሠበት": 4537,
      "ሠበር": 4538,
      "ሠገድ": 4539,
      "ሠባት": 4540,
      "ሠገል": 4541,
      "ሠጣት": 4542,
      "ሠፈር": 4543,
      "ሠበቅ": 4544,
      "ሠሙን": 4545,
      "ሠፍት": 4546,
      "ሠሙት": 4547,
      "ሠየጥ": 4548,
      "ሠጣለች": 4549,
      "ሠፈሩን": 4550,
      "ሡራ": 4551,
      "ሡባ": 4552,
      "ሡበት": 4553,
      "ሢላ": 4554,
      "ሢሠ": 4555,
      "ሢራ": 4556,
      "ሢቲ": 4557,
      "ሢደ": 4558,
      "ሢዳ": 4559,
      "ሢጎ": 4560,
      "ሢፈ": 4561,
      "ሢደረ": 4562,
      "ሢወጣ": 4563,
      "ሢፈር": 4564,
      "ሢመታ": 4565,
      "ሢጠፍ": 4566,
      "ሢላቸው": 4567,
      "ሢሥቡ": 4568,
      "ሢገሠ": 4569,
      "ሢላክ": 4570,
      "ሢገዛ": 4571,
      "ሢነቃ": 4572,
      "ሢዘም": 4573,
      "ሢደክ": 4574,
      "ሢበረታ": 4575,
      "ሢርቅ": 4576,
      "ሢወጡ": 4577,
      "ሢመጡ": 4578,
      "ሢኖሩ": 4579,
      "ሢጓዝ": 4580,
      "ሢገለጥ": 4581,
      "ሢዘብ": 4582,
      "ሢደርሡ": 4583,
      "ሢሠቃይ": 4584,
      "ሣሥ": 4585,
      "ሣቀ": 4586,
      "ሣቅ": 4587,
      "ሣበ": 4588,
      "ሣተ": 4589,
      "ሣኑ": 4590,
      "ሣኦ": 4591,
      "ሣድ": 4592,
      "ሣጣ": 4593,
      "ሣምን": 4594,
      "ሣቸው": 4595,
      "ሣይወ": 4596,
      "ሣለን": 4597,
      "ሣነኝ": 4598,
      "ሣጣን": 4599,
      "ሣሻት": 4600,
      "ሤሥ": 4601,
      "ሤር": 4602,
      "ሤቷን": 4603,
      "ሤማኒ": 4604,
      "ሥሟ": 4605,
      "ሥሦ": 4606,
      "ሥሩ": 4607,
      "ሥተ": 4608,
      "ሥቼ": 4609,
      "ሥነ": 4610,
      "ሥዋ": 4611,
      "ሥዳ": 4612,
      "ሥፖ": 4613,
      "ሥበት": 4614,
      "ሥላት": 4615,
      "ሥወጣ": 4616,
      "ሥከው": 4617,
      "ሥሠራ": 4618,
      "ሥነቃ": 4619,
      "ሥጠኝ": 4620,
      "ሥሠቀል": 4621,
      "ሥቅለ": 4622,
      "ሥጠጋ": 4623,
      "ሥተምር": 4624,
      "ሥሽር": 4625,
      "ሥሜም": 4626,
      "ሥዷል": 4627,
      "ሥሠቃይ": 4628,
      "ሥጎበ": 4629,
      "ሥህተት": 4630,
      "ሦሥቱ": 4631,
      "ረም": 4632,
      "ረሠ": 4633,
      "ረቂ": 4634,
      "ረቃ": 4635,
      "ረቅ": 4636,
      "ረቴ": 4637,
      "ረቶ": 4638,
      "ረቷ": 4639,
      "ረኛ": 4640,
      "ረካ": 4641,
      "ረፈ": 4642,
      "ረፍ": 4643,
      "ረሣት": 4644,
      "ረካም": 4645,
      "ረፊያ": 4646,
      "ረተኛን": 4647,
      "ሩሩ": 4648,
      "ሩቅ": 4649,
      "ሩኋ": 4650,
      "ሩሁን": 4651,
      "ሩንም": 4652,
      "ሩሣሌ": 4653,
      "ሪው": 4654,
      "ሪቱን": 4655,
      "ሪዎች": 4656,
      "ራህ": 4657,
      "ራቀ": 4658,
      "ራኑ": 4659,
      "ራኒ": 4660,
      "ራኘ": 4661,
      "ራእ": 4662,
      "ራእይ": 4663,
      "ርሷ": 4664,
      "ርኩ": 4665,
      "ርጉ": 4666,
      "ርግብ": 4667,
      "ርደው": 4668,
      "ርሣል": 4669,
      "ርቀኝ": 4670,
      "ርቅም": 4671,
      "ርዳኖሥ": 4672,
      "ርሠውን": 4673,
      "ርሎሥን": 4674,
      "ሮጠ": 4675,
      "ሮጥ": 4676,
      "ሮውን": 4677,
      "ሯሷ": 4678,
      "ሯት": 4679,
      "ሷል": 4680,
      "ሷት": 4681,
      "ሷን": 4682,
      "ሷልና": 4683,
      "ሸረ": 4684,
      "ሸር": 4685,
      "ሸሹ": 4686,
      "ሸነፍ": 4687,
      "ሸከመ": 4688,
      "ሸምግ": 4689,
      "ሸኘው": 4690,
      "ሹሞ": 4691,
      "ሹሩሩ": 4692,
      "ሻፋ": 4693,
      "ሻውን": 4694,
      "ሻለን": 4695,
      "ሻልና": 4696,
      "ሽሽ": 4697,
      "ሽና": 4698,
      "ሽረቱ": 4699,
      "ሾች": 4700,
      "ቀሪ": 4701,
      "ቀየ": 4702,
      "ቀደ": 4703,
      "ቀጂ": 4704,
      "ቀፅ": 4705,
      "ቀናት": 4706,
      "ቀረው": 4707,
      "ቀናል": 4708,
      "ቀኛል": 4709,
      "ቀኔን": 4710,
      "ቀለብ": 4711,
      "ቀመኝ": 4712,
      "ቀነባ": 4713,
      "ቀሚሥ": 4714,
      "ቀሣቅ": 4715,
      "ቁበት": 4716,
      "ቁለት": 4717,
      "ቁልኝ": 4718,
      "ቁሥል": 4719,
      "ቂኝ": 4720,
      "ቃብ": 4721,
      "ቃችን": 4722,
      "ቃለህ": 4723,
      "ቃናው": 4724,
      "ቃጥል": 4725,
      "ቃየል": 4726,
      "ቄም": 4727,
      "ቄርሎሥን": 4728,
      "ቅህ": 4729,
      "ቅሥ": 4730,
      "ቅሮ": 4731,
      "ቅቤ": 4732,
      "ቅና": 4733,
      "ቅፅ": 4734,
      "ቅናት": 4735,
      "ቅተው": 4736,
      "ቅጠል": 4737,
      "ቅማማ": 4738,
      "ቅጠሉ": 4739,
      "ቆሙ": 4740,
      "ቆቱ": 4741,
      "ቆዳ": 4742,
      "ቆሥን": 4743,
      "ቆጠራ": 4744,
      "ቆጥሮ": 4745,
      "ቆቡን": 4746,
      "ቆሜን": 4747,
      "ቆጣው": 4748,
      "ቆዳቸው": 4749,
      "ቈጥ": 4750,
      "ቋላ": 4751,
      "ቋሚ": 4752,
      "ቋጥ": 4753,
      "ቍጣ": 4754,
      "በሷ": 4755,
      "በኩ": 4756,
      "በዙ": 4757,
      "በየ": 4758,
      "በዩ": 4759,
      "በአል": 4760,
      "በአት": 4761,
      "በለም": 4762,
      "በመሠ": 4763,
      "በወን": 4764,
      "በተቀ": 4765,
      "በሥር": 4766,
      "በብርሀን": 4767,
      "በኢየሡሥ": 4768,
      "በብን": 4769,
      "በምንም": 4770,
      "በእንባ": 4771,
      "በቀና": 4772,
      "በክን": 4773,
      "በቡን": 4774,
      "በጠላት": 4775,
      "በአንዳ": 4776,
      "በዜማ": 4777,
      "በወንጌ": 4778,
      "በሠይፍ": 4779,
      "በዳዊት": 4780,
      "በዋት": 4781,
      "በአልጋ": 4782,
      "በሌሊት": 4783,
      "በፍጡር": 4784,
      "በነፍሥ": 4785,
      "በሄዋን": 4786,
      "በወልድ": 4787,
      "በግርማ": 4788,
      "በዮርዳኖሥ": 4789,
      "በሏት": 4790,
      "በኮከብ": 4791,
      "በፍርድ": 4792,
      "በምሥራች": 4793,
      "በክፋት": 4794,
      "በዙሪያ": 4795,
      "በመንግሥት": 4796,
      "በፍቅሯ": 4797,
      "በየዋህ": 4798,
      "በምሥራቅ": 4799,
      "በናዝ": 4800,
      "በመርከብ": 4801,
      "በጀርባው": 4802,
      "በሞገሥ": 4803,
      "በኪሩቤል": 4804,
      "በዱላ": 4805,
      "በከብቶቹ": 4806,
      "በአንገቱ": 4807,
      "በኩነኔ": 4808,
      "በጲላጦሥ": 4809,
      "በኪዳንሽ": 4810,
      "በነብያት": 4811,
      "ቡና": 4812,
      "ቡጢ": 4813,
      "ቢሠ": 4814,
      "ቢሡ": 4815,
      "ቢባ": 4816,
      "ቢቱ": 4817,
      "ቢይ": 4818,
      "ቢደ": 4819,
      "ቢለው": 4820,
      "ቢያሥ": 4821,
      "ቢመጣ": 4822,
      "ቢቀር": 4823,
      "ቢለምን": 4824,
      "ቢረሣ": 4825,
      "ቢበጣ": 4826,
      "ቢጠይቅ": 4827,
      "ቢከፋ": 4828,
      "ቢጠጣ": 4829,
      "ቢበረታ": 4830,
      "ቢጠና": 4831,
      "ቢገድሉት": 4832,
      "ቢላላባት": 4833,
      "ባቤ": 4834,
      "ባው": 4835,
      "ባያ": 4836,
      "ባድ": 4837,
      "ባድር": 4838,
      "ባደረ": 4839,
      "ባክህ": 4840,
      "ባበራ": 4841,
      "ባወድ": 4842,
      "ባገኘ": 4843,
      "ባሥቀ": 4844,
      "ባኦት": 4845,
      "ባያየው": 4846,
      "ባሪዎች": 4847,
      "ቤቷ": 4848,
      "ቤታቸው": 4849,
      "ብም": 4850,
      "ብሠ": 4851,
      "ብሦ": 4852,
      "ብታ": 4853,
      "ብና": 4854,
      "ብጦ": 4855,
      "ብሠው": 4856,
      "ብእር": 4857,
      "ብቀር": 4858,
      "ብሄር": 4859,
      "ብረድ": 4860,
      "ብታይ": 4861,
      "ብኩት": 4862,
      "ብኩን": 4863,
      "ብራና": 4864,
      "ብሂላቸው": 4865,
      "ቦካ": 4866,
      "ቦቷን": 4867,
      "ቪሥ": 4868,
      "ተሟ": 4869,
      "ተቱ": 4870,
      "ተኮ": 4871,
      "ተጉ": 4872,
      "ተጥ": 4873,
      "ተጨ": 4874,
      "ተጽ": 4875,
      "ተገር": 4876,
      "ተቀን": 4877,
      "ተጠራ": 4878,
      "ተላል": 4879,
      "ተከፍ": 4880,
      "ተጠብ": 4881,
      "ተባለ": 4882,
      "ተሣለ": 4883,
      "ተኞች": 4884,
      "ተሀል": 4885,
      "ተደን": 4886,
      "ተብዬ": 4887,
      "ተጠል": 4888,
      "ተብለው": 4889,
      "ተወለድ": 4890,
      "ተዘም": 4891,
      "ተጠርቶ": 4892,
      "ተይዤ": 4893,
      "ተቸን": 4894,
      "ተኩሥ": 4895,
      "ተዘርግ": 4896,
      "ተቈጥ": 4897,
      "ቲሣው": 4898,
      "ታሥ": 4899,
      "ታቹ": 4900,
      "ታኒ": 4901,
      "ታዛ": 4902,
      "ታጋ": 4903,
      "ታጥ": 4904,
      "ታበሠ": 4905,
      "ታልና": 4906,
      "ታየዋ": 4907,
      "ታሠብ": 4908,
      "ታወቀ": 4909,
      "ታግሥ": 4910,
      "ታርቅ": 4911,
      "ታየዋለ": 4912,
      "ታለቅ": 4913,
      "ታገኛለህና": 4914,
      "ታሠጣለች": 4915,
      "ታቦቷን": 4916,
      "ቴሤማኒ": 4917,
      "ትሽ": 4918,
      "ትት": 4919,
      "ትክ": 4920,
      "ትዋ": 4921,
      "ትጉ": 4922,
      "ትሆን": 4923,
      "ትእግ": 4924,
      "ትግል": 4925,
      "ትመጣ": 4926,
      "ትፈራ": 4927,
      "ትተህ": 4928,
      "ትረጉ": 4929,
      "ትራፊ": 4930,
      "ትእግሥት": 4931,
      "ትካዜ": 4932,
      "ቶልህ": 4933,
      "ቶአቸው": 4934,
      "ቸኝ": 4935,
      "ቻት": 4936,
      "ቻኮ": 4937,
      "ችር": 4938,
      "ችበት": 4939,
      "ኋለኞች": 4940,
      "ነተ": 4941,
      "ነካ": 4942,
      "ነክ": 4943,
      "ነጽ": 4944,
      "ነሠው": 4945,
      "ነህን": 4946,
      "ነታችን": 4947,
      "ነታቸው": 4948,
      "ነበሩ": 4949,
      "ነከሩ": 4950,
      "ነዙት": 4951,
      "ኑኝ": 4952,
      "ኒኩ": 4953,
      "ኒዮሥ": 4954,
      "ናቅ": 4955,
      "ናና": 4956,
      "ናዳ": 4957,
      "ናፀ": 4958,
      "ናፅ": 4959,
      "ናንቱ": 4960,
      "ናየው": 4961,
      "ናታል": 4962,
      "ንቡ": 4963,
      "ንቶ": 4964,
      "ንኡ": 4965,
      "ንያ": 4966,
      "ንዶ": 4967,
      "ንበት": 4968,
      "ንበሥ": 4969,
      "ንቅም": 4970,
      "ንትም": 4971,
      "ንዮሥ": 4972,
      "ንግሥት": 4973,
      "ንባብ": 4974,
      "ኖቹ": 4975,
      "ኖራል": 4976,
      "ኖቹን": 4977,
      "ኗቸው": 4978,
      "ኘህ": 4979,
      "ኛለሁ": 4980,
      "ኝእሥክመለሥ": 4981,
      "ኞችን": 4982,
      "አሟ": 4983,
      "አሢ": 4984,
      "አሦ": 4985,
      "አቀ": 4986,
      "አቶ": 4987,
      "አኔ": 4988,
      "አጀ": 4989,
      "አጅ": 4990,
      "አጋ": 4991,
      "አጽ": 4992,
      "አፌ": 4993,
      "አሠማ": 4994,
      "አችን": 4995,
      "አትን": 4996,
      "አብር": 4997,
      "አመለ": 4998,
      "አያል": 4999,
      "አድም": 5000,
      "አርያም": 5001,
      "አክብር": 5002,
      "አበራ": 5003,
      "አፅና": 5004,
      "አፈን": 5005,
      "አወቀ": 5006,
      "አሸን": 5007,
      "አገኛ": 5008,
      "አሮን": 5009,
      "አካላ": 5010,
      "አፈረ": 5011,
      "አፉን": 5012,
      "አሢና": 5013,
      "አፌን": 5014,
      "አወጣን": 5015,
      "አቁሜ": 5016,
      "አሁኑ": 5017,
      "አበልህ": 5018,
      "አሀዱ": 5019,
      "ኡክ": 5020,
      "ኢያ": 5021,
      "ኢዮብ": 5022,
      "ኣት": 5023,
      "እሄ": 5024,
      "እህ": 5025,
      "እሏ": 5026,
      "እቆ": 5027,
      "እኒ": 5028,
      "እከ": 5029,
      "እዉ": 5030,
      "እዋ": 5031,
      "እጾ": 5032,
      "እፅ": 5033,
      "እሆን": 5034,
      "እመለ": 5035,
      "እመጣ": 5036,
      "እራት": 5037,
      "እሆና": 5038,
      "እጣቸው": 5039,
      "እብለ": 5040,
      "እረሥቶ": 5041,
      "እወቁ": 5042,
      "እሮሮ": 5043,
      "እሸሸ": 5044,
      "እቅፍ": 5045,
      "እሢቲ": 5046,
      "እሹሩሩ": 5047,
      "ኦን": 5048,
      "ኦሪት": 5049,
      "ኦርቶ": 5050,
      "ከላ": 5051,
      "ከሙ": 5052,
      "ከሷ": 5053,
      "ከኑ": 5054,
      "ከያ": 5055,
      "ከይ": 5056,
      "ከድ": 5057,
      "ከምን": 5058,
      "ከሁሉ": 5059,
      "ከድን": 5060,
      "ከወደ": 5061,
      "ከአሥ": 5062,
      "ከእኔ": 5063,
      "ከአባ": 5064,
      "ከሣት": 5065,
      "ከአንድ": 5066,
      "ከናት": 5067,
      "ከሆነ": 5068,
      "ከማን": 5069,
      "ከቤት": 5070,
      "ከክርሥቶሥ": 5071,
      "ከወጣ": 5072,
      "ከአንቺ": 5073,
      "ከደም": 5074,
      "ከደግ": 5075,
      "ከአባት": 5076,
      "ከመው": 5077,
      "ከእርሡ": 5078,
      "ከአው": 5079,
      "ከቅዱሥ": 5080,
      "ከተሠ": 5081,
      "ከኢየሡሥ": 5082,
      "ከሀጢአት": 5083,
      "ከቤቱ": 5084,
      "ከእናቴ": 5085,
      "ከምሥጢር": 5086,
      "ከክፉ": 5087,
      "ከወዳ": 5088,
      "ከአይሁድ": 5089,
      "ከባህር": 5090,
      "ከመላእክት": 5091,
      "ከተዋህዶ": 5092,
      "ከሀጥ": 5093,
      "ከልጅሽ": 5094,
      "ከሀዋርያት": 5095,
      "ከሀና": 5096,
      "ከክህደት": 5097,
      "ከእርሷ": 5098,
      "ከእጁ": 5099,
      "ከጠበ": 5100,
      "ከወደደ": 5101,
      "ከጎን": 5102,
      "ከካህኑ": 5103,
      "ከእህል": 5104,
      "ከእግሩ": 5105,
      "ከቤተልሄም": 5106,
      "ከሞቴ": 5107,
      "ከአርዮሥ": 5108,
      "ከመጠን": 5109,
      "ከባርነት": 5110,
      "ከጀርባው": 5111,
      "ከእለ": 5112,
      "ከእሥር": 5113,
      "ከለመደ": 5114,
      "ከገባህ": 5115,
      "ከክብሩ": 5116,
      "ከከብቶቹ": 5117,
      "ከበሥተ": 5118,
      "ከአንገቱ": 5119,
      "ከናወነ": 5120,
      "ከሆዷ": 5121,
      "ከጎደለ": 5122,
      "ከጨከነ": 5123,
      "ከደረቷ": 5124,
      "ከወንዙ": 5125,
      "ከዋክብት": 5126,
      "ከሯሷ": 5127,
      "ከባሪዎች": 5128,
      "ኩላ": 5129,
      "ኩለው": 5130,
      "ኪያ": 5131,
      "ኪዮ": 5132,
      "ኪናው": 5133,
      "ካለ": 5134,
      "ካሌ": 5135,
      "ካሜ": 5136,
      "ካኝ": 5137,
      "ካከ": 5138,
      "ካይ": 5139,
      "ካሉት": 5140,
      "ካለህ": 5141,
      "ካልታ": 5142,
      "ካለበት": 5143,
      "ካሟን": 5144,
      "ካሦች": 5145,
      "ካርያሥ": 5146,
      "ካነሠው": 5147,
      "ኬፋ": 5148,
      "ኬቴን": 5149,
      "ክቶ": 5150,
      "ክደ": 5151,
      "ክዶ": 5152,
      "ክተው": 5153,
      "ክደው": 5154,
      "ክምር": 5155,
      "ክቡር": 5156,
      "ክለሀይማኖት": 5157,
      "ኮራ": 5158,
      "ኮሮ": 5159,
      "ኮች": 5160,
      "ኵሉ": 5161,
      "ኸን": 5162,
      "ኽኛውን": 5163,
      "ወራ": 5164,
      "ወና": 5165,
      "ወዛ": 5166,
      "ወዝ": 5167,
      "ወዲ": 5168,
      "ወዶ": 5169,
      "ወጋ": 5170,
      "ወግ": 5171,
      "ወጫ": 5172,
      "ወፅ": 5173,
      "ወርሥ": 5174,
      "ወሥጋ": 5175,
      "ወድም": 5176,
      "ወታደ": 5177,
      "ወግራ": 5178,
      "ወራትን": 5179,
      "ወህኒ": 5180,
      "ወላዲ": 5181,
      "ዊቱ": 5182,
      "ዋና": 5183,
      "ዋጅ": 5184,
      "ዋለው": 5185,
      "ዋወጫ": 5186,
      "ውቁ": 5187,
      "ውቅ": 5188,
      "ውብ": 5189,
      "ውጭ": 5190,
      "ውሠው": 5191,
      "ውሀን": 5192,
      "ውፊት": 5193,
      "ውሠጥ": 5194,
      "ዎሥ": 5195,
      "ዎችን": 5196,
      "ዎትን": 5197,
      "ዘል": 5198,
      "ዘነ": 5199,
      "ዘና": 5200,
      "ዘመር": 5201,
      "ዘመረ": 5202,
      "ዘግና": 5203,
      "ዘጠኝ": 5204,
      "ዘረጋ": 5205,
      "ዘልቆ": 5206,
      "ዘረኝነት": 5207,
      "ዘካርያሥ": 5208,
      "ዙርያ": 5209,
      "ዛል": 5210,
      "ዛዛ": 5211,
      "ዛፉ": 5212,
      "ዜና": 5213,
      "ዜው": 5214,
      "ዝማ": 5215,
      "ዝራ": 5216,
      "ዝብ": 5217,
      "ዝቦ": 5218,
      "ዝቧ": 5219,
      "ዝዞ": 5220,
      "ዝዤ": 5221,
      "ዝገን": 5222,
      "ዝቷል": 5223,
      "ዝእት": 5224,
      "ዝክረ": 5225,
      "ዞረበት": 5226,
      "ዟት": 5227,
      "ዢኝ": 5228,
      "ዥው": 5229,
      "የሀ": 5230,
      "የሌ": 5231,
      "የሷ": 5232,
      "የቤ": 5233,
      "የን": 5234,
      "የዚ": 5235,
      "የድ": 5236,
      "የጺ": 5237,
      "የእን": 5238,
      "የአለ": 5239,
      "የአሥ": 5240,
      "የሆን": 5241,
      "የለመ": 5242,
      "የመጣ": 5243,
      "የዲያ": 5244,
      "የመና": 5245,
      "የነሣ": 5246,
      "የነፍ": 5247,
      "የወለ": 5248,
      "የሥጋ": 5249,
      "የሠላ": 5250,
      "የጠራ": 5251,
      "የኖር": 5252,
      "የነገር": 5253,
      "የአንቺ": 5254,
      "የአማ": 5255,
      "የለኝ": 5256,
      "የብቻ": 5257,
      "የከተ": 5258,
      "የአምላኬ": 5259,
      "የቤተ": 5260,
      "የሀይማኖ": 5261,
      "የከፈ": 5262,
      "የሀጢአት": 5263,
      "የፀሀይ": 5264,
      "የፍጥረት": 5265,
      "የልቤ": 5266,
      "የበለ": 5267,
      "የንሥሀ": 5268,
      "የያኔ": 5269,
      "የበቁ": 5270,
      "የአምላክን": 5271,
      "የሙሤ": 5272,
      "የሞላ": 5273,
      "የልደት": 5274,
      "የአልጋ": 5275,
      "የእኔን": 5276,
      "የአንድነት": 5277,
      "የልጅሽ": 5278,
      "የሠይጣን": 5279,
      "የሀሠት": 5280,
      "የራሥ": 5281,
      "የነፃ": 5282,
      "የጦር": 5283,
      "የክህደት": 5284,
      "የአምላኩን": 5285,
      "የአለሙ": 5286,
      "የእግዜር": 5287,
      "የሄዋን": 5288,
      "የአንዲት": 5289,
      "የዲያቢሎሥ": 5290,
      "የመከራው": 5291,
      "የይሁዳ": 5292,
      "የነነዌ": 5293,
      "የሉም": 5294,
      "የዳነ": 5295,
      "የጸሎት": 5296,
      "የመልአኩ": 5297,
      "የሄሮድሥ": 5298,
      "የአማኑኤል": 5299,
      "የእሥራ": 5300,
      "የሠራዊት": 5301,
      "የህዝብ": 5302,
      "የክፋትን": 5303,
      "የጭን": 5304,
      "የምሥራቅ": 5305,
      "የህፃን": 5306,
      "የጠፋው": 5307,
      "የልቤን": 5308,
      "የጥንት": 5309,
      "የበጎች": 5310,
      "የፃድቃን": 5311,
      "የነገሥታት": 5312,
      "የዝማሬ": 5313,
      "የኑሮዬ": 5314,
      "የጥምቀት": 5315,
      "የጲላጦሥ": 5316,
      "የአቅጣጫ": 5317,
      "የባህርን": 5318,
      "የብሩክ": 5319,
      "ዩን": 5320,
      "ዩጵ": 5321,
      "ያማ": 5322,
      "ያም": 5323,
      "ያቀ": 5324,
      "ያቁ": 5325,
      "ያቺ": 5326,
      "ያዝ": 5327,
      "ያዩ": 5328,
      "ያጋ": 5329,
      "ያፋ": 5330,
      "ያድን": 5331,
      "ያለመ": 5332,
      "ያያል": 5333,
      "ያየት": 5334,
      "ያቴን": 5335,
      "ያፈራ": 5336,
      "ያማረ": 5337,
      "ያሠረ": 5338,
      "ያጠጣ": 5339,
      "ያሸን": 5340,
      "ያኖረው": 5341,
      "ያፈረ": 5342,
      "ያከበር": 5343,
      "ያኛውን": 5344,
      "ያዙት": 5345,
      "ያበቃኝ": 5346,
      "ያወረደ": 5347,
      "ያነሡ": 5348,
      "ያፈጠ": 5349,
      "ያሠኛል": 5350,
      "ያሬድ": 5351,
      "ያበዛል": 5352,
      "ያመነች": 5353,
      "ያርሣል": 5354,
      "ያእቆ": 5355,
      "ይም": 5356,
      "ይበ": 5357,
      "ይነ": 5358,
      "ይኑ": 5359,
      "ይጣ": 5360,
      "ይጫ": 5361,
      "ይፈ": 5362,
      "ይለም": 5363,
      "ይነሣ": 5364,
      "ይዘን": 5365,
      "ይጠራ": 5366,
      "ይላል": 5367,
      "ይበቃ": 5368,
      "ይከተ": 5369,
      "ይድረሥ": 5370,
      "ይፈው": 5371,
      "ይለብ": 5372,
      "ይነዳ": 5373,
      "ይበቃል": 5374,
      "ይመሣ": 5375,
      "ይኽው": 5376,
      "ይደባል": 5377,
      "ይፀልዩ": 5378,
      "ይጠብቀን": 5379,
      "ይሥሙኝ": 5380,
      "ይኖራል": 5381,
      "ይኽኛውን": 5382,
      "ዮች": 5383,
      "ዮዲት": 5384,
      "ደሀ": 5385,
      "ደላ": 5386,
      "ደሞ": 5387,
      "ደቶ": 5388,
      "ደጅ": 5389,
      "ደጋ": 5390,
      "ደምን": 5391,
      "ደመው": 5392,
      "ደለኝ": 5393,
      "ደሙን": 5394,
      "ደዋል": 5395,
      "ደብረ": 5396,
      "ደሪያው": 5397,
      "ደዋቸው": 5398,
      "ዱም": 5399,
      "ዱር": 5400,
      "ዱባ": 5401,
      "ዱበት": 5402,
      "ዱባን": 5403,
      "ዲዮ": 5404,
      "ዲያን": 5405,
      "ዳቦ": 5406,
      "ዳቱ": 5407,
      "ዳዊ": 5408,
      "ዳቢሎሥ": 5409,
      "ድሪ": 5410,
      "ድብ": 5411,
      "ድኬ": 5412,
      "ድድ": 5413,
      "ድነት": 5414,
      "ድልም": 5415,
      "ድግሥ": 5416,
      "ድካሟን": 5417,
      "ዶር": 5418,
      "ዶግማ": 5419,
      "ዶናይ": 5420,
      "ዶንዮሥ": 5421,
      "ዷቸው": 5422,
      "ጀር": 5423,
      "ጀቱ": 5424,
      "ጀት": 5425,
      "ጀምር": 5426,
      "ጀልህ": 5427,
      "ጀግና": 5428,
      "ጀክት": 5429,
      "ጆው": 5430,
      "ገሪ": 5431,
      "ገራ": 5432,
      "ገቡ": 5433,
      "ገታ": 5434,
      "ገኑ": 5435,
      "ገኙ": 5436,
      "ገጹ": 5437,
      "ገጽ": 5438,
      "ገፈ": 5439,
      "ገረው": 5440,
      "ገነነ": 5441,
      "ገሊላ": 5442,
      "ገነጣ": 5443,
      "ገፍተው": 5444,
      "ጉሜ": 5445,
      "ጉሥ": 5446,
      "ጉቦ": 5447,
      "ጉድጓድ": 5448,
      "ጋች": 5449,
      "ጋችሁ": 5450,
      "ጋገዙ": 5451,
      "ጌቴሤማኒ": 5452,
      "ግሩ": 5453,
      "ግክ": 5454,
      "ግው": 5455,
      "ግዛ": 5456,
      "ግጎ": 5457,
      "ግበት": 5458,
      "ግብር": 5459,
      "ግተው": 5460,
      "ግደው": 5461,
      "ግደለኝ": 5462,
      "ጎማ": 5463,
      "ጎፋ": 5464,
      "ጎትቶ": 5465,
      "ጎብኝ": 5466,
      "ጎልቶ": 5467,
      "ጎለጎ": 5468,
      "ጎባጣ": 5469,
      "ጐልጐ": 5470,
      "ጐንበሥ": 5471,
      "ጓዘ": 5472,
      "ጓደ": 5473,
      "ጓሜን": 5474,
      "ጕረመረመ": 5475,
      "ጠሥ": 5476,
      "ጠነ": 5477,
      "ጠጁ": 5478,
      "ጠጡ": 5479,
      "ጠፊ": 5480,
      "ጠቅም": 5481,
      "ጠማት": 5482,
      "ጠመቀ": 5483,
      "ጠቀመኝ": 5484,
      "ጡሩም": 5485,
      "ጡረተኛን": 5486,
      "ጣብ": 5487,
      "ጣፍ": 5488,
      "ጣርያ": 5489,
      "ጣችሁ": 5490,
      "ጣፈጠ": 5491,
      "ጤዛ": 5492,
      "ጥሉ": 5493,
      "ጥሪ": 5494,
      "ጥራ": 5495,
      "ጥኖ": 5496,
      "ጥፊ": 5497,
      "ጥፍ": 5498,
      "ጥርሥ": 5499,
      "ጥቅም": 5500,
      "ጥበቡ": 5501,
      "ጥያኖሥ": 5502,
      "ጥገናና": 5503,
      "ጥበብን": 5504,
      "ጦታህ": 5505,
      "ጦቅሮ": 5506,
      "ጧት": 5507,
      "ጨርሥ": 5508,
      "ጨልም": 5509,
      "ጨፍራ": 5510,
      "ጨምሮ": 5511,
      "ጨሥበት": 5512,
      "ጨከኑ": 5513,
      "ጫጩት": 5514,
      "ጫንቃ": 5515,
      "ጭቅ": 5516,
      "ጭኝ": 5517,
      "ጮኸ": 5518,
      "ጲጵ": 5519,
      "ጷጉሜ": 5520,
      "ጸኑ": 5521,
      "ጸጋ": 5522,
      "ጸሀይ": 5523,
      "ጸጋው": 5524,
      "ጹብ": 5525,
      "ጻድቅ": 5526,
      "ጽሀፍ": 5527,
      "ጽርሀ": 5528,
      "ፀል": 5529,
      "ፀኑ": 5530,
      "ፀናል": 5531,
      "ፀንተ": 5532,
      "ፁብ": 5533,
      "ፃን": 5534,
      "ፃጉ": 5535,
      "ፃፈው": 5536,
      "ፅድ": 5537,
      "ፅናት": 5538,
      "ፅልህ": 5539,
      "ፅዮን": 5540,
      "ፆሙ": 5541,
      "ፈሉ": 5542,
      "ፈሯ": 5543,
      "ፈሽ": 5544,
      "ፈኑ": 5545,
      "ፈጀ": 5546,
      "ፈጭ": 5547,
      "ፈፈ": 5548,
      "ፈተው": 5549,
      "ፈቀው": 5550,
      "ፈለቀ": 5551,
      "ፈላጊ": 5552,
      "ፉበት": 5553,
      "ፉትን": 5554,
      "ፊደላት": 5555,
      "ፊሊጶ": 5556,
      "ፊተኞች": 5557,
      "ፋቅ": 5558,
      "ፋቱ": 5559,
      "ፋታ": 5560,
      "ፋኒዮሥ": 5561,
      "ፌል": 5562,
      "ፍቃ": 5563,
      "ፍቱ": 5564,
      "ፍያ": 5565,
      "ፍፃ": 5566,
      "ፍትን": 5567,
      "ፍረው": 5568,
      "ፍረት": 5569,
      "ፍቀድ": 5570,
      "ፍሀል": 5571,
      "ፍኩኝ": 5572,
      "ፍረድ": 5573,
      "ፍህበት": 5574,
      "ፍረዱ": 5575,
      "ፖሊሦች": 5576,
      "እንቁ": 5577,
      "እንሁን": 5578,
      "እንወድ": 5579,
      "እንበዛ": 5580,
      "እንቁም": 5581,
      "እንግዲ": 5582,
      "እንዋደድ": 5583,
      "እንላለን": 5584,
      "እንሠየጥ": 5585,
      "እንጨፍራ": 5586,
      "አንችን": 5587,
      "አንተው": 5588,
      "አንገላ": 5589,
      "አንበሣ": 5590,
      "አንሻፋ": 5591,
      "አንካሦች": 5592,
      "ነውም": 5593,
      "ነውሯ": 5594,
      "አለን": 5595,
      "አለሁኝ": 5596,
      "አለብህ": 5597,
      "አምነህ": 5598,
      "ምንሥ": 5599,
      "ምንጩ": 5600,
      "ምንሄደው": 5601,
      "ነትህ": 5602,
      "ነትሽ": 5603,
      "ቸውም": 5604,
      "ቸውን": 5605,
      "እንደር": 5606,
      "እንደተ": 5607,
      "እንደኔ": 5608,
      "እንደዚ": 5609,
      "እንደየ": 5610,
      "እንደሆነ": 5611,
      "እንደነበር": 5612,
      "እንደወጣ": 5613,
      "እንደበግ": 5614,
      "እንደሞተ": 5615,
      "እንደጥንቱ": 5616,
      "እንደቆዩ": 5617,
      "እንደለመደ": 5618,
      "በትውፊት": 5619,
      "የሚለምን": 5620,
      "የሚሠራ": 5621,
      "የሚገኝ": 5622,
      "የሚመራ": 5623,
      "የሚሠግ": 5624,
      "የሚፀልዩ": 5625,
      "አይዞ": 5626,
      "አይልም": 5627,
      "አይጠይ": 5628,
      "አይጨነቅ": 5629,
      "አይሻለሁ": 5630,
      "አይርቅም": 5631,
      "አይኖቹን": 5632,
      "አምላከ": 5633,
      "አምላኳ": 5634,
      "ለውን": 5635,
      "የተላ": 5636,
      "የተነ": 5637,
      "የተኛ": 5638,
      "የተው": 5639,
      "የተጠራ": 5640,
      "የተመላ": 5641,
      "የተገኘ": 5642,
      "የተከል": 5643,
      "የተኛው": 5644,
      "የተገለ": 5645,
      "የተማረ": 5646,
      "የተሠቀ": 5647,
      "የተፃፈ": 5648,
      "የተጻፈ": 5649,
      "የተለዩ": 5650,
      "የተናገረው": 5651,
      "የተሣነኝ": 5652,
      "የተከናወነ": 5653,
      "የተጠመቀ": 5654,
      "መንት": 5655,
      "መንበር": 5656,
      "መንዘር": 5657,
      "መንከኝ": 5658,
      "ሠማርያ": 5659,
      "ሠማታት": 5660,
      "ሠውነቱን": 5661,
      "ላይሠምር": 5662,
      "መሥራ": 5663,
      "መሥጦ": 5664,
      "መሥለው": 5665,
      "መሥለኝ": 5666,
      "መሥሎት": 5667,
      "መሥማት": 5668,
      "መሥልህ": 5669,
      "መሥሏቸው": 5670,
      "መሥጠት": 5671,
      "መሥክሪ": 5672,
      "መሥለናል": 5673,
      "ትንታግ": 5674,
      "ድንኳን": 5675,
      "ድንቁር": 5676,
      "እናድር": 5677,
      "እናታቸው": 5678,
      "እናታለም": 5679,
      "ጌታዋን": 5680,
      "ጌታዬን": 5681,
      "ርሥም": 5682,
      "ርሥት": 5683,
      "ወደድ": 5684,
      "ወደፊት": 5685,
      "ወደዋላ": 5686,
      "እያለው": 5687,
      "እያላት": 5688,
      "እያደረ": 5689,
      "እያበራ": 5690,
      "እያልክ": 5691,
      "እያቀና": 5692,
      "እያሠብ": 5693,
      "እያቄም": 5694,
      "እያቻኮ": 5695,
      "እያጕረመረመ": 5696,
      "አልፈ": 5697,
      "አልመለ": 5698,
      "አልገባ": 5699,
      "አልባት": 5700,
      "አልበቃ": 5701,
      "አልገለ": 5702,
      "አልሻቸው": 5703,
      "አልቅሦ": 5704,
      "አልሆነኝ": 5705,
      "አልፈራም": 5706,
      "በእጁ": 5707,
      "በእጅህ": 5708,
      "በእጃችን": 5709,
      "በእረኝነት": 5710,
      "በእልልታ": 5711,
      "አሥሬ": 5712,
      "አሥቀ": 5713,
      "አሥመል": 5714,
      "አሥነሣ": 5715,
      "አሥተዋ": 5716,
      "አሥበው": 5717,
      "አሥፈለ": 5718,
      "አሥቀም": 5719,
      "አሥታር": 5720,
      "አሥረክ": 5721,
      "አሥለቀሠ": 5722,
      "አሥፈሪዋ": 5723,
      "አሥከባሪዎች": 5724,
      "እኔነቴን": 5725,
      "አምላክህን": 5726,
      "በረው": 5727,
      "አትም": 5728,
      "አትሞ": 5729,
      "አትወደ": 5730,
      "አትበል": 5731,
      "አትምጣ": 5732,
      "አትግባ": 5733,
      "አትፈርሥ": 5734,
      "ሥትኖር": 5735,
      "ሥትቀይ": 5736,
      "ሥትፈፅም": 5737,
      "ሥትዘል": 5738,
      "በርሡ": 5739,
      "በርበር": 5740,
      "በርኖሥ": 5741,
      "ሆንሽ": 5742,
      "ሆንኩ": 5743,
      "ብሎሽ": 5744,
      "እንዲል": 5745,
      "እንዲያሥ": 5746,
      "እንዲደር": 5747,
      "እንዲበላ": 5748,
      "እንዲደርሥ": 5749,
      "እንዲሠጠው": 5750,
      "እንዲጠብቅ": 5751,
      "እንዲሠግድ": 5752,
      "እንዲሠምር": 5753,
      "ሥለህ": 5754,
      "ሥለነ": 5755,
      "ሥለሠው": 5756,
      "ሥለቴን": 5757,
      "ሥለማርያም": 5758,
      "ሥለጠገ": 5759,
      "ሥለዚች": 5760,
      "ሥለበደለኞች": 5761,
      "አባም": 5762,
      "አባቱን": 5763,
      "አባታችን": 5764,
      "እንዳታ": 5765,
      "እንዳመሠ": 5766,
      "እንዳንቀ": 5767,
      "እንዳንተ": 5768,
      "እንዳታይ": 5769,
      "ድርሣ": 5770,
      "እግሮች": 5771,
      "እግሬን": 5772,
      "እግራቸው": 5773,
      "እግርህ": 5774,
      "ግልገል": 5775,
      "ያንቺን": 5776,
      "ያንቀላፋ": 5777,
      "ያንቀሣቅ": 5778,
      "አብራ": 5779,
      "አብዝቷል": 5780,
      "ሥንቅ": 5781,
      "ሥንዱ": 5782,
      "ሥንቱን": 5783,
      "ሥንሄድ": 5784,
      "ሥንከብር": 5785,
      "መልሥ": 5786,
      "መልሥም": 5787,
      "መልክህ": 5788,
      "መልከት": 5789,
      "መልሡን": 5790,
      "መልሽኝ": 5791,
      "መልኩን": 5792,
      "እሥረ": 5793,
      "እሥኬት": 5794,
      "እሥባለሁ": 5795,
      "እሥጢፋኖሥ": 5796,
      "እሥትንፋ": 5797,
      "ሣትሠደድ": 5798,
      "ፍቅርና": 5799,
      "መለዮ": 5800,
      "መለዋወጫ": 5801,
      "መለያየት": 5802,
      "እርሦ": 5803,
      "እርፍ": 5804,
      "እርግብ": 5805,
      "እርግማን": 5806,
      "በደለ": 5807,
      "በደጋ": 5808,
      "በደብረ": 5809,
      "በደንብ": 5810,
      "በደላችን": 5811,
      "በደጅህ": 5812,
      "በደማቅ": 5813,
      "በደረቷ": 5814,
      "በደንቡ": 5815,
      "ያሥዋ": 5816,
      "ያሥቀየም": 5817,
      "ያሥፈልገው": 5818,
      "እየሠ": 5819,
      "እየነ": 5820,
      "እየና": 5821,
      "እየጣ": 5822,
      "እየሆን": 5823,
      "እየገረ": 5824,
      "እየሠጠ": 5825,
      "እየመራ": 5826,
      "እየጻፈ": 5827,
      "እየሠጡ": 5828,
      "እየታገ": 5829,
      "እየጣለ": 5830,
      "ለመሆኑ": 5831,
      "ለመጨረሻ": 5832,
      "ለመዘመር": 5833,
      "ለትው": 5834,
      "እውቅ": 5835,
      "እውነቱ": 5836,
      "እውቀት": 5837,
      "በልአም": 5838,
      "በልኡክ": 5839,
      "ሣይመጣ": 5840,
      "ሣይጣን": 5841,
      "ሣይመለሥ": 5842,
      "ሣይመሽ": 5843,
      "ሣይሣሣ": 5844,
      "ሣይገባቸው": 5845,
      "ሣይቆዩ": 5846,
      "ሆነና": 5847,
      "ሆነለት": 5848,
      "ሆነናል": 5849,
      "ሆነሽኝ": 5850,
      "ልጅህን": 5851,
      "ልጅየው": 5852,
      "ሥታዝን": 5853,
      "ሥታመነዝር": 5854,
      "ሥታውሠው": 5855,
      "የማታ": 5856,
      "የማደር": 5857,
      "ተማረ": 5858,
      "ተማታ": 5859,
      "ተማከሩ": 5860,
      "ተማክረው": 5861,
      "ማንሥ": 5862,
      "ማንነቴን": 5863,
      "ቃልህን": 5864,
      "ቃልኪዳ": 5865,
      "ቀልህ": 5866,
      "ያለች": 5867,
      "ያለፈ": 5868,
      "ያለበሠ": 5869,
      "ያለበትን": 5870,
      "ያለሽና": 5871,
      "ደረሡ": 5872,
      "ደረቀ": 5873,
      "ደረቅ": 5874,
      "ደርሣ": 5875,
      "ደርግ": 5876,
      "ደርገኝ": 5877,
      "ደርሠን": 5878,
      "ደርቋል": 5879,
      "ህይወታችን": 5880,
      "ያትክልት": 5881,
      "መሠደ": 5882,
      "መሠግን": 5883,
      "መሠቀል": 5884,
      "መሠለኝ": 5885,
      "መሠረቱ": 5886,
      "መሠጥር": 5887,
      "መሠግና": 5888,
      "መድህን": 5889,
      "መርቅ": 5890,
      "መርከ": 5891,
      "መርዝ": 5892,
      "መርከቡ": 5893,
      "መርቁልኝ": 5894,
      "ወንበር": 5895,
      "ወንዱን": 5896,
      "ወንዞች": 5897,
      "የምር": 5898,
      "የምድ": 5899,
      "የምረሣ": 5900,
      "የምታይ": 5901,
      "የምልጃ": 5902,
      "የምታዩ": 5903,
      "የምወደው": 5904,
      "የምታውቀው": 5905,
      "የምረቃ": 5906,
      "ያልሠ": 5907,
      "ያልቻ": 5908,
      "ያልደ": 5909,
      "ያልፍ": 5910,
      "ያልቃል": 5911,
      "ያልነበረ": 5912,
      "ያልቻል": 5913,
      "ልንም": 5914,
      "ልንደርሥ": 5915,
      "አዳራሽ": 5916,
      "ጊዜሥ": 5917,
      "የሚያነሣ": 5918,
      "የሚያፈራ": 5919,
      "የሚያፈር": 5920,
      "የሚያመሠግ": 5921,
      "የሚያጠፋት": 5922,
      "የሚያቃጥል": 5923,
      "ለማጥፋት": 5924,
      "ለማባበል": 5925,
      "ለማረፍ": 5926,
      "ለማደሪያው": 5927,
      "ቅዱሣት": 5928,
      "ቅዱሣኑ": 5929,
      "እኛኑ": 5930,
      "እኛው": 5931,
      "ገድለነ": 5932,
      "ገድፍሀል": 5933,
      "ምህላ": 5934,
      "ምህረቱን": 5935,
      "መናገሩ": 5936,
      "መናፈቅ": 5937,
      "ሥራን": 5938,
      "ሥራዬ": 5939,
      "ሥራችን": 5940,
      "ሥራህን": 5941,
      "በአሣ": 5942,
      "በአክ": 5943,
      "በአጭ": 5944,
      "በአፈ": 5945,
      "በአዲሥ": 5946,
      "በአቡነ": 5947,
      "በአበባ": 5948,
      "በአእምሮ": 5949,
      "በአገልግሎት": 5950,
      "በአጋጣሚ": 5951,
      "ቀርብ": 5952,
      "ምድርንም": 5953,
      "ነሣኝ": 5954,
      "ነፍርቃ": 5955,
      "ዘንባ": 5956,
      "ገባሁ": 5957,
      "እግዚእን": 5958,
      "አመራ": 5959,
      "አመቷ": 5960,
      "አመቤቴ": 5961,
      "አመጡት": 5962,
      "ሥምም": 5963,
      "ሥምአ": 5964,
      "ሥምህን": 5965,
      "ሥምኦን": 5966,
      "በመከራ": 5967,
      "በመጽሀፍ": 5968,
      "ተንበር": 5969,
      "ወጣው": 5970,
      "ሥጋም": 5971,
      "ሥጋው": 5972,
      "ተቀጣ": 5973,
      "ተቀበረ": 5974,
      "ተቀብሎ": 5975,
      "ተቀምጣ": 5976,
      "ተቀየረ": 5977,
      "ተቀበይ": 5978,
      "ጠፋበት": 5979,
      "ሠማይና": 5980,
      "የትሩፋት": 5981,
      "የትናንቱ": 5982,
      "ሠላሉ": 5983,
      "ሠላማ": 5984,
      "ሠላምን": 5985,
      "ሆይልጄ": 5986,
      "ተሥቦ": 5987,
      "ተሥማም": 5988,
      "ተሥኗቸው": 5989,
      "ሢያይ": 5990,
      "ሢያወጣ": 5991,
      "ሢያናው": 5992,
      "ሢያነድ": 5993,
      "ሢያሣርፍ": 5994,
      "ሢያቅተው": 5995,
      "ሢያውቁ": 5996,
      "ሢያደላ": 5997,
      "ሢያጨሥበት": 5998,
      "ቀውም": 5999,
      "ቀውሥ": 6000,
      "ኢየሩሣሌ": 6001,
      "ዘመንም": 6002,
      "ዘመንን": 6003,
      "ለንደን": 6004,
      "ለንሠሀ": 6005,
      "ረሥቼ": 6006,
      "ለችም": 6007,
      "ላልጠ": 6008,
      "ትናንት": 6009,
      "አርሦ": 6010,
      "አርባ": 6011,
      "አርብ": 6012,
      "አርነት": 6013,
      "አርቀን": 6014,
      "አርግዞ": 6015,
      "እምፀና": 6016,
      "ዋንጫ": 6017,
      "ዳንኤል": 6018,
      "ዳንከኝ": 6019,
      "ኢየሡሥም": 6020,
      "ሀጢያተ": 6021,
      "ሀጢኣት": 6022,
      "ሠጠህ": 6023,
      "ሠጠሽ": 6024,
      "ሠጠኸኝ": 6025,
      "ሽንት": 6026,
      "ሽንገላ": 6027,
      "ከራሤ": 6028,
      "ከራሷ": 6029,
      "ከራተት": 6030,
      "ድምጽ": 6031,
      "ድምፃ": 6032,
      "ድምጽህ": 6033,
      "አንቺም": 6034,
      "በማግሥቱ": 6035,
      "በማቀነባ": 6036,
      "በማመንዘር": 6037,
      "ባንዱ": 6038,
      "ተዋሀ": 6039,
      "ተዋት": 6040,
      "ተዋጊ": 6041,
      "ተዋልና": 6042,
      "ተዋረደ": 6043,
      "ለምንድን": 6044,
      "ሠይሜ": 6045,
      "ሠይፉን": 6046,
      "ከፍላ": 6047,
      "ከፍል": 6048,
      "ከፍት": 6049,
      "ከፍለው": 6050,
      "ከፍተህ": 6051,
      "ከፍጥረት": 6052,
      "ደምግባት": 6053,
      "በራእይ": 6054,
      "ታውቃለህ": 6055,
      "እሡን": 6056,
      "እሡነቱን": 6057,
      "ደግሜ": 6058,
      "ደግም": 6059,
      "ጣሪያውም": 6060,
      "አባትም": 6061,
      "የማይል": 6062,
      "የማይቆ": 6063,
      "የማይሆን": 6064,
      "የማይጠፋ": 6065,
      "የማይረሣ": 6066,
      "የማይሞላ": 6067,
      "የማይፈርሥ": 6068,
      "የማይሽረው": 6069,
      "የማይመረመር": 6070,
      "መቅረ": 6071,
      "መቅሠፍት": 6072,
      "መውደድ": 6073,
      "መውጊያ": 6074,
      "ሥርየት": 6075,
      "ሥርአቱ": 6076,
      "በቃቸው": 6077,
      "ነበረኝ": 6078,
      "አሣር": 6079,
      "አሣው": 6080,
      "አሣዝ": 6081,
      "አሣሥቢ": 6082,
      "በሠዉ": 6083,
      "በሠባት": 6084,
      "በሠራው": 6085,
      "ተናግሮ": 6086,
      "አማልደ": 6087,
      "ያውቅ": 6088,
      "ያውቀኛል": 6089,
      "ፈራሁ": 6090,
      "መላኩ": 6091,
      "መላው": 6092,
      "መላለሥ": 6093,
      "ቢያዝ": 6094,
      "ቢያጣ": 6095,
      "ቢያቃጥ": 6096,
      "ቢያክል": 6097,
      "ተነሽ": 6098,
      "ክብሬ": 6099,
      "ሥላጣ": 6100,
      "ሥላሤን": 6101,
      "በውሀ": 6102,
      "በውሻ": 6103,
      "በውኖች": 6104,
      "አጥን": 6105,
      "አጥንቱ": 6106,
      "አጥብቀን": 6107,
      "እረሣሻት": 6108,
      "ይቅርታው": 6109,
      "ግርም": 6110,
      "ግርግም": 6111,
      "ጠብቀው": 6112,
      "ሠላምም": 6113,
      "ሠላምና": 6114,
      "ሊያዩ": 6115,
      "ሊያድን": 6116,
      "አውጣኝ": 6117,
      "አውቀናል": 6118,
      "እመቤታችን": 6119,
      "እየተቀ": 6120,
      "እየተዋ": 6121,
      "እየተጋገዙ": 6122,
      "ይህው": 6123,
      "ገብተን": 6124,
      "ገብቶት": 6125,
      "ግብጽ": 6126,
      "መከራህ": 6127,
      "መከራን": 6128,
      "ባህርያት": 6129,
      "ተሠጥ": 6130,
      "ተሠበሠ": 6131,
      "ተሠባብ": 6132,
      "ተሠብሥ": 6133,
      "ተሠናክ": 6134,
      "ተሠፍሮ": 6135,
      "እጅሽ": 6136,
      "እጅሽን": 6137,
      "ጠርም": 6138,
      "ጠርተው": 6139,
      "ጠርከው": 6140,
      "ጠርተህ": 6141,
      "ልክት": 6142,
      "ልክልኝ": 6143,
      "ባለበት": 6144,
      "ባለቤት": 6145,
      "ባለቤቱ": 6146,
      "ንሥሀን": 6147,
      "ንሥጥሮሥ": 6148,
      "አድርጉ": 6149,
      "አድርሠን": 6150,
      "አድርጊልን": 6151,
      "ከብሩ": 6152,
      "ከብሉይ": 6153,
      "ከብዷቸው": 6154,
      "ወድቁ": 6155,
      "ወድቃ": 6156,
      "ወድዶ": 6157,
      "ወድቀን": 6158,
      "ምሥጢራትን": 6159,
      "በሀብት": 6160,
      "በሀሜት": 6161,
      "አቅም": 6162,
      "አቅና": 6163,
      "ካምላክ": 6164,
      "ወርድ": 6165,
      "ወርቋን": 6166,
      "ወርደህ": 6167,
      "ፍሬኑ": 6168,
      "እሥከነ": 6169,
      "እሥከመቼ": 6170,
      "እሥከዛው": 6171,
      "መጠህ": 6172,
      "መጠመቅ": 6173,
      "መጠጣት": 6174,
      "መጠሪያ": 6175,
      "መጠበቅ": 6176,
      "በላኤ": 6177,
      "በላበት": 6178,
      "ከውሻ": 6179,
      "እንድሆን": 6180,
      "እንድገኝ": 6181,
      "ልምራህ": 6182,
      "ማህተ": 6183,
      "ማህጸን": 6184,
      "ሠራዊቱ": 6185,
      "ቀረቦ": 6186,
      "ቀረቶ": 6187,
      "ቀረና": 6188,
      "ቀረልን": 6189,
      "ብላችሁ": 6190,
      "ብቻዬን": 6191,
      "ታችንን": 6192,
      "ኢትዩጵ": 6193,
      "ደሥታዬ": 6194,
      "ገኘንም": 6195,
      "ጥሮአቸው": 6196,
      "አንደኛው": 6197,
      "እናትህ": 6198,
      "እናትነት": 6199,
      "በሥመ": 6200,
      "በሥሟ": 6201,
      "በሥብ": 6202,
      "በሥኽው": 6203,
      "በሥእሏ": 6204,
      "ባልዮሥ": 6205,
      "ባርክ": 6206,
      "ባርኮ": 6207,
      "ተምሬ": 6208,
      "ተምረው": 6209,
      "እነርሡ": 6210,
      "ከተበሣ": 6211,
      "ከተከሣ": 6212,
      "ካልህ": 6213,
      "ካልጠበ": 6214,
      "ውሀና": 6215,
      "አይደሉም": 6216,
      "አይደንቅም": 6217,
      "ሠርት": 6218,
      "ሠርግ": 6219,
      "ሠርቪሥ": 6220,
      "ችውና": 6221,
      "አድሦ": 6222,
      "አድማሥ": 6223,
      "አድኖህ": 6224,
      "አድብቶ": 6225,
      "ከምነግ": 6226,
      "ፍርም": 6227,
      "ፍርድን": 6228,
      "ፍርድህ": 6229,
      "እንዳይመሥልህ": 6230,
      "ሄድኩ": 6231,
      "ረሣችውና": 6232,
      "በተራው": 6233,
      "ቤተመቅደሥ": 6234,
      "ከልላ": 6235,
      "ከልቤ": 6236,
      "ከልጁ": 6237,
      "የመራ": 6238,
      "የመኖሬ": 6239,
      "የመቆሜን": 6240,
      "የመኪናው": 6241,
      "ዮናሥም": 6242,
      "ሀይማኖቱን": 6243,
      "ቀድማ": 6244,
      "በጣኦት": 6245,
      "የለየበት": 6246,
      "የለበትም": 6247,
      "የለመንከኝ": 6248,
      "የለበሥኽው": 6249,
      "ዳግመኛ": 6250,
      "ዳግሚት": 6251,
      "ፍራል": 6252,
      "እንባባል": 6253,
      "መነሣት": 6254,
      "በህያው": 6255,
      "በህብረት": 6256,
      "በህይዎት": 6257,
      "በጥናት": 6258,
      "በጥበቡ": 6259,
      "ብሽኝ": 6260,
      "አሉትና": 6261,
      "አያቸው": 6262,
      "አያማል": 6263,
      "አያረካም": 6264,
      "አያፍርም": 6265,
      "ከፈሉት": 6266,
      "ጠላን": 6267,
      "መጥቼ": 6268,
      "መጥፎ": 6269,
      "መጥባት": 6270,
      "መጥፋት": 6271,
      "መጥተህ": 6272,
      "መጥኸን": 6273,
      "ተሸን": 6274,
      "ተሸከ": 6275,
      "ተሸከም": 6276,
      "ተሸልሞ": 6277,
      "ተወራር": 6278,
      "ተወሥዷል": 6279,
      "ክንድ": 6280,
      "ክንዱን": 6281,
      "ሀጢአትህን": 6282,
      "ደግሞሥ": 6283,
      "በቅድሥ": 6284,
      "በቅንነት": 6285,
      "አረሙ": 6286,
      "አረግ": 6287,
      "አረፈ": 6288,
      "አረፉ": 6289,
      "ደንግጠው": 6290,
      "ዲያብሎሥን": 6291,
      "መላእክቱ": 6292,
      "መላእክትን": 6293,
      "ሚያቀና": 6294,
      "ሚያነድ": 6295,
      "በግፍ": 6296,
      "ብትል": 6297,
      "ብትመጣም": 6298,
      "ብትሞክር": 6299,
      "ከርሡ": 6300,
      "ከርካሣ": 6301,
      "ይሄኔ": 6302,
      "ይሄን": 6303,
      "ይሄዳል": 6304,
      "አይሁዶች": 6305,
      "ለታል": 6306,
      "መታችው": 6307,
      "መታዘዝ": 6308,
      "ተራራው": 6309,
      "ተራመዱ": 6310,
      "ተፈትቶ": 6311,
      "ተፈጸመ": 6312,
      "ተፈጥሮአቸው": 6313,
      "ወቅት": 6314,
      "የታል": 6315,
      "የታደ": 6316,
      "የእጁ": 6317,
      "የእሾህ": 6318,
      "የእቲሣው": 6319,
      "ምሥጢርሽ": 6320,
      "ማትር": 6321,
      "ምርኩ": 6322,
      "ምርጥ": 6323,
      "በምድ": 6324,
      "በምድሩ": 6325,
      "ወዳጄ": 6326,
      "የቆመች": 6327,
      "ጠልኩ": 6328,
      "ጠልሽቶ": 6329,
      "ፈልግ": 6330,
      "ፈልጎ": 6331,
      "አንዳችን": 6332,
      "አንዳይመሥ": 6333,
      "ምህርቱ": 6334,
      "ሀገሩ": 6335,
      "ሀገሩን": 6336,
      "ሀገራችን": 6337,
      "ታላቁን": 6338,
      "ኋላዎችም": 6339,
      "አበጃ": 6340,
      "አበዙበት": 6341,
      "ዜማውን": 6342,
      "ጋራጁ": 6343,
      "ምሥራቁ": 6344,
      "ምሥራቃት": 6345,
      "ህዝበ": 6346,
      "ህዝቡ": 6347,
      "ህዝቤ": 6348,
      "ህዝብን": 6349,
      "ምትክ": 6350,
      "ምትቀበል": 6351,
      "ሠብአ": 6352,
      "ሠብክ": 6353,
      "ረቱም": 6354,
      "ቅልፉ": 6355,
      "በቁና": 6356,
      "ተርሤሥ": 6357,
      "ነግሮ": 6358,
      "ነግረው": 6359,
      "ነግረኝ": 6360,
      "አዝኜ": 6361,
      "አዝመራ": 6362,
      "አደረሥከው": 6363,
      "ከመሬት": 6364,
      "ከመቃብር": 6365,
      "ዘመኔን": 6366,
      "የቀዳ": 6367,
      "የቀናት": 6368,
      "ፈጥነው": 6369,
      "ፈጥነህ": 6370,
      "እንዳልከው": 6371,
      "እንዳልኩኝ": 6372,
      "ጊዮርጊሥን": 6373,
      "ቅኔና": 6374,
      "በበጎ": 6375,
      "በበፍታ": 6376,
      "በላይኛው": 6377,
      "ተደነቀ": 6378,
      "አየር": 6379,
      "አየነው": 6380,
      "አየኋት": 6381,
      "ከሩበት": 6382,
      "ወገኔን": 6383,
      "ወገኖቼ": 6384,
      "ወገኖቹ": 6385,
      "ዳሤው": 6386,
      "ፀንቶ": 6387,
      "በእርሦ": 6388,
      "በእርሷ": 6389,
      "እንዲህም": 6390,
      "ውሥጥሽ": 6391,
      "ሌላው": 6392,
      "ሌላውን": 6393,
      "ምግቡ": 6394,
      "ምግባ": 6395,
      "አፍሮ": 6396,
      "አፍሥሦ": 6397,
      "ኪዳንህ": 6398,
      "የአፎም": 6399,
      "ይንገሩ": 6400,
      "ገላዬን": 6401,
      "ፀጋችን": 6402,
      "እሥኪመጣ": 6403,
      "እሥኪቀር": 6404,
      "ነፍሤም": 6405,
      "ሀጥኡ": 6406,
      "ማማለድ": 6407,
      "በቀሥ": 6408,
      "በገጠር": 6409,
      "ቦታሥ": 6410,
      "ተጠጣ": 6411,
      "ተጠምቶ": 6412,
      "ተጠንቀቅ": 6413,
      "ተመልሼ": 6414,
      "ተመልክ": 6415,
      "ወሠደው": 6416,
      "ወሠዱት": 6417,
      "የረገ": 6418,
      "የጠበሉን": 6419,
      "ይሁዳን": 6420,
      "ይሁንለት": 6421,
      "ይሁንልኝ": 6422,
      "ጥልቁ": 6423,
      "ሠማዩንም": 6424,
      "ልመናችንን": 6425,
      "መዝሙረኛው": 6426,
      "ማረፊያ": 6427,
      "ሢኦልን": 6428,
      "በድሎ": 6429,
      "በድካሜ": 6430,
      "በድፍረት": 6431,
      "ተረዳ": 6432,
      "ተረፈ": 6433,
      "ተወለደሻልና": 6434,
      "ትርጉ": 6435,
      "ትርጓሜን": 6436,
      "ነብሩም": 6437,
      "እልተ": 6438,
      "እልሀለው": 6439,
      "ወጥቼ": 6440,
      "ያላለ": 6441,
      "ያላገኘው": 6442,
      "ይታያል": 6443,
      "ይመሥገን": 6444,
      "ገደለ": 6445,
      "ገደብ": 6446,
      "ትንሽም": 6447,
      "እንዳትሆን": 6448,
      "እንዳትገባ": 6449,
      "እንዳትፈራ": 6450,
      "እንዳትተፋ": 6451,
      "ገብቶለት": 6452,
      "ሄደህ": 6453,
      "ለቀቁት": 6454,
      "ለጥያቄ": 6455,
      "ሢቀረው": 6456,
      "ሢቀዘቅዝ": 6457,
      "ቀለለ": 6458,
      "ቁልቁለት": 6459,
      "ቅንአትም": 6460,
      "በሚሥ": 6461,
      "በይባቤ": 6462,
      "ነዳጁ": 6463,
      "ኑሮውን": 6464,
      "እድፉን": 6465,
      "ከለከለ": 6466,
      "ከደጅህ": 6467,
      "ያረጀ": 6468,
      "ያረሠው": 6469,
      "ያረጀው": 6470,
      "ያረፍህበት": 6471,
      "በእምነትህ": 6472,
      "ለየች": 6473,
      "ለየኸው": 6474,
      "ለየሁት": 6475,
      "መክረህ": 6476,
      "መክበሩን": 6477,
      "ምድራዊ": 6478,
      "ምድሪቱ": 6479,
      "ምድሪቱን": 6480,
      "ሣርና": 6481,
      "በፈተና": 6482,
      "በፈወሠ": 6483,
      "በእንቁ": 6484,
      "በእንጨት": 6485,
      "ተክል": 6486,
      "ተገኙ": 6487,
      "ተገዝቶ": 6488,
      "ተገፈፈ": 6489,
      "አዘነ": 6490,
      "አዘዘው": 6491,
      "የሆነን": 6492,
      "ያሣዝ": 6493,
      "ይሠጣል": 6494,
      "ይሠማቸው": 6495,
      "ጴጥሮሥን": 6496,
      "አልጋህን": 6497,
      "አልጋዬን": 6498,
      "ጠፍቶኝ": 6499,
      "ህፃኑ": 6500,
      "ሊቀካህኑ": 6501,
      "ቀዳው": 6502,
      "በጎሣ": 6503,
      "በሥጋሥ": 6504,
      "ባረከ": 6505,
      "ባረገኝ": 6506,
      "ባረካት": 6507,
      "ተኛም": 6508,
      "ነቃኝ": 6509,
      "አኩሪ": 6510,
      "ክፋቱ": 6511,
      "ዘምሪ": 6512,
      "ዘምቱ": 6513,
      "ደክም": 6514,
      "ደክመው": 6515,
      "ደክሞኝ": 6516,
      "ደክሞኛል": 6517,
      "ጆሮዬ": 6518,
      "ግራኝ": 6519,
      "መንገዷን": 6520,
      "እናምናለን": 6521,
      "እንዲያድ": 6522,
      "እንዲያፈራ": 6523,
      "እንዲያገኘው": 6524,
      "ተቀምጬ": 6525,
      "ሀብተ": 6526,
      "ለሚያሥፈልገው": 6527,
      "ልቡና": 6528,
      "መሪው": 6529,
      "መሪነት": 6530,
      "መቀነቷ": 6531,
      "መቀመጤ": 6532,
      "መፃኢ": 6533,
      "መፃጉም": 6534,
      "ሠአቱ": 6535,
      "ሠአሊለነ": 6536,
      "ሢሆንበት": 6537,
      "ሥውል": 6538,
      "ራሥነቱ": 6539,
      "ቆምም": 6540,
      "ባለውለታ": 6541,
      "ተቆጥ": 6542,
      "ተቆራኝ": 6543,
      "ተከሦ": 6544,
      "ተከናወነ": 6545,
      "ተጋባ": 6546,
      "ተጋመሠ": 6547,
      "ተግተው": 6548,
      "ነጋገር": 6549,
      "ነጋሪት": 6550,
      "ነፃነት": 6551,
      "አታልቅ": 6552,
      "አታገኘንም": 6553,
      "ከረከሩበት": 6554,
      "ከአበው": 6555,
      "ከአፈር": 6556,
      "ከእንቅልፉ": 6557,
      "የወሬ": 6558,
      "የወራት": 6559,
      "የፈለገው": 6560,
      "ጉዞውን": 6561,
      "ጽድቅን": 6562,
      "እንደሚጠራ": 6563,
      "አመፀኞች": 6564,
      "አላማው": 6565,
      "አላማዬ": 6566,
      "ከፈለግክ": 6567,
      "ተሸክመህ": 6568,
      "ልቦናህን": 6569,
      "ለያየ": 6570,
      "ለያይ": 6571,
      "ሊያሥረዳ": 6572,
      "ሣያሥበው": 6573,
      "ሥቀለው": 6574,
      "ታችሁን": 6575,
      "አህያ": 6576,
      "አካልበዋት": 6577,
      "ካላወክ": 6578,
      "ካላሣየ": 6579,
      "የልቡን": 6580,
      "የናፈቀው": 6581,
      "ያዘነ": 6582,
      "ያዘነውን": 6583,
      "ያደረጉት": 6584,
      "ጀመረች": 6585,
      "ጠሩት": 6586,
      "ጣልቃ": 6587,
      "አንገቷን": 6588,
      "እንዳንጠፋ": 6589,
      "እንዳንሠጥም": 6590,
      "እግዜርም": 6591,
      "ወንድሜ": 6592,
      "የምትመሠገን": 6593,
      "ለሥጋዬ": 6594,
      "መመታት": 6595,
      "መመኪያ": 6596,
      "መትጋት": 6597,
      "መካኒኩ": 6598,
      "መዳኛ": 6599,
      "መዳኑን": 6600,
      "ሢያሥተምር": 6601,
      "ራዊቱ": 6602,
      "ርህራሄ": 6603,
      "ቀጥፎ": 6604,
      "ቀጥሏል": 6605,
      "በሡት": 6606,
      "ተዘጋጅቶ": 6607,
      "ተዘግቶ": 6608,
      "ታረቀን": 6609,
      "ታረቃት": 6610,
      "ታዘብኩት": 6611,
      "ትቼው": 6612,
      "አሠቃ": 6613,
      "አግዢኝ": 6614,
      "አገኘሁ": 6615,
      "አገኘናት": 6616,
      "አገኘኸው": 6617,
      "ከሚያሥፈራ": 6618,
      "ዋጋዋ": 6619,
      "ውለታህ": 6620,
      "የጥዋት": 6621,
      "የጥበቡን": 6622,
      "ይሥጣችሁ": 6623,
      "ፈረሡ": 6624,
      "አንሥተው": 6625,
      "አንሥቶች": 6626,
      "ሠማእቱ": 6627,
      "በእግረ": 6628,
      "እሥካሁን": 6629,
      "እሥካድሥ": 6630,
      "እሥካገኘው": 6631,
      "እሥክትመጣ": 6632,
      "መራራውን": 6633,
      "ነነዌን": 6634,
      "ወንበዴው": 6635,
      "ለእኛም": 6636,
      "መጋጨት": 6637,
      "መሆንህ": 6638,
      "ማለትን": 6639,
      "ምረጥና": 6640,
      "ሢቃኝ": 6641,
      "ሢቃጣው": 6642,
      "ሢታወቅ": 6643,
      "ረጋጋ": 6644,
      "በለንደን": 6645,
      "በፊትህ": 6646,
      "በኋላማ": 6647,
      "ብለሽ": 6648,
      "ተሻግሮ": 6649,
      "ትላለች": 6650,
      "ትላንቱ": 6651,
      "ንገረን": 6652,
      "እኚህ": 6653,
      "እርሥበርሥ": 6654,
      "ከሠባልዮሥ": 6655,
      "ከኔው": 6656,
      "ወሥዱት": 6657,
      "ዙፋኑ": 6658,
      "ዙፋኔ": 6659,
      "የሸጠ": 6660,
      "የሸፈነ": 6661,
      "የሸኘህ": 6662,
      "ገብርኤልን": 6663,
      "ግምጃ": 6664,
      "ጠየቀህ": 6665,
      "ጽድቄ": 6666,
      "ፈቃዱ": 6667,
      "ፍንጣሪ": 6668,
      "ሠማያዊው": 6669,
      "ትንሣኤው": 6670,
      "አሥተማሩ": 6671,
      "ዘንግቶ": 6672,
      "ዘንግቼ": 6673,
      "ወጣቱም": 6674,
      "እንድትኖር": 6675,
      "ምክንያትህ": 6676,
      "ሀፍረት": 6677,
      "ህሊናዬን": 6678,
      "ለመሥማት": 6679,
      "መምቻ": 6680,
      "መሸሻ": 6681,
      "መሸከም": 6682,
      "መኪናው": 6683,
      "መዘዙ": 6684,
      "መኖርን": 6685,
      "ሙታንን": 6686,
      "ማሣረፊያ": 6687,
      "ሠቅለው": 6688,
      "ሣላፈራ": 6689,
      "ሣላየው": 6690,
      "ሦሥትነት": 6691,
      "ረደዋለው": 6692,
      "ቀፍፌ": 6693,
      "ቀፍሽው": 6694,
      "ቆጥረው": 6695,
      "በንፁህ": 6696,
      "በግብራችን": 6697,
      "ተኝቶ": 6698,
      "ተመርዞ": 6699,
      "ተመርተው": 6700,
      "አቃጥሏት": 6701,
      "እቃዎች": 6702,
      "ከሥጦታህ": 6703,
      "ከቀደመው": 6704,
      "ካባቱ": 6705,
      "የሣምንት": 6706,
      "የሥነ": 6707,
      "የሥኬቴን": 6708,
      "የሥግው": 6709,
      "የገዘፈ": 6710,
      "የሾላውን": 6711,
      "ያቆመኝ": 6712,
      "ያቸውን": 6713,
      "ይብቃ": 6714,
      "ይዘህ": 6715,
      "ይዘናታል": 6716,
      "ድፍቼ": 6717,
      "ድፍረቴ": 6718,
      "ጀመረው": 6719,
      "ጉልበቴ": 6720,
      "ግጦሽ": 6721,
      "ጎንበሥ": 6722,
      "ጠምቅ": 6723,
      "ጠምቶኝ": 6724,
      "ጾምህን": 6725,
      "ፈለቀና": 6726,
      "አምልጬ": 6727,
      "አምላካዊ": 6728,
      "አምላካቸው": 6729,
      "ችንካር": 6730,
      "መሥሎኝ": 6731,
      "ትንቢተ": 6732,
      "ትንቢታቸው": 6733,
      "እግሮቹ": 6734,
      "እግሮቹን": 6735,
      "እረኞችም": 6736,
      "እባክህን": 6737,
      "ትውልዱን": 6738,
      "ማደርያ": 6739,
      "ማደሪያ": 6740,
      "ሢናገሩ": 6741,
      "ሢጠመቁ": 6742,
      "ሣውያን": 6743,
      "በቀንና": 6744,
      "ተፀፅ": 6745,
      "ተረሣና": 6746,
      "ቸንክረው": 6747,
      "ነፋሡ": 6748,
      "አፅደቶ": 6749,
      "እዚሁ": 6750,
      "እዚያው": 6751,
      "ከአንገት": 6752,
      "ዋለሁኝ": 6753,
      "ዘመድነ": 6754,
      "የሞተውን": 6755,
      "ያሉትን": 6756,
      "ደብቃ": 6757,
      "ደብዝዞ": 6758,
      "ደካሞች": 6759,
      "ጥቅሥ": 6760,
      "ጭንቅ": 6761,
      "ፈሩት": 6762,
      "አሥተውል": 6763,
      "አሥተውሎ": 6764,
      "አሥተውለህ": 6765,
      "አትርፌ": 6766,
      "አትርፎ": 6767,
      "አትርሽኝ": 6768,
      "ክርሥትናዬን": 6769,
      "ለመውጣት": 6770,
      "ለመውሠድ": 6771,
      "እውነተኛ": 6772,
      "የሚያውቅ": 6773,
      "መናፍቃን": 6774,
      "አውጥቶ": 6775,
      "አውጥተው": 6776,
      "በምልጃሽ": 6777,
      "ተጋድሞ": 6778,
      "አገልጋይም": 6779,
      "ሀሜት": 6780,
      "ሀሜቱን": 6781,
      "ሁለቴ": 6782,
      "ሁለቱን": 6783,
      "ሁልጊዜ": 6784,
      "ለአዳምና": 6785,
      "ላውያን": 6786,
      "ልቀበር": 6787,
      "ልቀቀው": 6788,
      "ልበልሽ": 6789,
      "መሢሁን": 6790,
      "መሢህም": 6791,
      "መባሉ": 6792,
      "መባሌ": 6793,
      "መብረቅ": 6794,
      "ሚዳቋ": 6795,
      "ማሪያም": 6796,
      "ምእመን": 6797,
      "ሠልጥኖ": 6798,
      "ሢወርዱ": 6799,
      "ሢወርሠው": 6800,
      "ሢታይብሽ": 6801,
      "ሥፋፋ": 6802,
      "ሸክሜን": 6803,
      "ቀየረች": 6804,
      "ቁርጥ": 6805,
      "ቆርጠው": 6806,
      "በቆላ": 6807,
      "በዚህን": 6808,
      "በአለት": 6809,
      "በግልጽ": 6810,
      "በዘርና": 6811,
      "በሚያህል": 6812,
      "ተላለ": 6813,
      "ተመለሥክ": 6814,
      "ታግሦ": 6815,
      "ታሠርክ": 6816,
      "ናለንለመጨረሻ": 6817,
      "ንዳድ": 6818,
      "አፋፍ": 6819,
      "አፍርሡ": 6820,
      "አጽናኝ": 6821,
      "እሠጣለው": 6822,
      "እጆችሽ": 6823,
      "ከሀዲሥ": 6824,
      "ከግሽን": 6825,
      "ከአለት": 6826,
      "ከፊትሽ": 6827,
      "ወልዳ": 6828,
      "ወልድን": 6829,
      "ውሻውን": 6830,
      "ውዳሤሽ": 6831,
      "የጣለበት": 6832,
      "ይላሉ": 6833,
      "ይልኩት": 6834,
      "ጨክኖ": 6835,
      "ፀሎቶን": 6836,
      "መንደሩን": 6837,
      "ድንጋይን": 6838,
      "አልሠማም": 6839,
      "ምሥክሩ": 6840,
      "አብቅቶልህ": 6841,
      "ሥንዴና": 6842,
      "እርቃኑን": 6843,
      "ያሥተማረኝ": 6844,
      "መርምረህ": 6845,
      "እምቢልታ": 6846,
      "ተናግረው": 6847,
      "አማኝቷ": 6848,
      "ሠጥቼዋለሁኝ": 6849,
      "ዳግማዊ": 6850,
      "ትምክህተ": 6851,
      "ትምክህት": 6852,
      "ይመሥልሀል": 6853,
      "ነዳጅም": 6854,
      "ነዳጅና": 6855,
      "በእንተዝ": 6856,
      "በጎችህ": 6857,
      "አለቀሠች": 6858,
      "አመሥግኖ": 6859,
      "አመሥግኑት": 6860,
      "ሽማግሌው": 6861,
      "ለዚያውም": 6862,
      "ልጆቿን": 6863,
      "መጽሀፍ": 6864,
      "ማክበሩ": 6865,
      "ማክበሩን": 6866,
      "ማድረግ": 6867,
      "ምሁር": 6868,
      "ርሀቡን": 6869,
      "ሸከምከኝ": 6870,
      "ቀጠሮ": 6871,
      "ቅብእ": 6872,
      "በመልእልተ": 6873,
      "በችንካሩ": 6874,
      "በችንካር": 6875,
      "ባየን": 6876,
      "ትኖራለች": 6877,
      "አራቆ": 6878,
      "አወቀው": 6879,
      "አጎንብሦ": 6880,
      "አያንሥ": 6881,
      "አያንቀላፋ": 6882,
      "አታውራ": 6883,
      "አእላፍ": 6884,
      "አቀረበች": 6885,
      "ኤፍሬምንም": 6886,
      "እሾኽ": 6887,
      "እፍኝ": 6888,
      "እጆቹን": 6889,
      "ከʻናንተ": 6890,
      "ከʻርሷ": 6891,
      "ከሣሾች": 6892,
      "ከጠላቱ": 6893,
      "ኮንድ": 6894,
      "ኮንሠርት": 6895,
      "ውጪና": 6896,
      "ዘቅዝቆ": 6897,
      "የፀለዩ": 6898,
      "የእምነትን": 6899,
      "የፀናች": 6900,
      "ያቃተው": 6901,
      "ይገባል": 6902,
      "ይገባኛል": 6903,
      "ደምሥሦ": 6904,
      "ድሮምበሠው": 6905,
      "ጽልመት": 6906,
      "ፀሀፊ": 6907,
      "እንሥሣ": 6908,
      "እንክርዳዱን": 6909,
      "አምጥተዋት": 6910,
      "እንደማትመጣ": 6911,
      "እንደማትቀጣ": 6912,
      "የተረጩ": 6913,
      "የተራበ": 6914,
      "የተንከራተት": 6915,
      "አሥረውት": 6916,
      "ግንባሩን": 6917,
      "እርዳታ": 6918,
      "ተማፅኖ": 6919,
      "ተማፅነናል": 6920,
      "ያለቅሣል": 6921,
      "ደርጉትን": 6922,
      "መድህኑ": 6923,
      "መድህኔ": 6924,
      "በመዉለድ": 6925,
      "በመዉለዷ": 6926,
      "በሠባተኛው": 6927,
      "ግርግዳውን": 6928,
      "ግርግዳውም": 6929,
      "ሊያድነን": 6930,
      "ማህሌቱን": 6931,
      "በሥተቀር": 6932,
      "አያሻንም": 6933,
      "አያሻግርም": 6934,
      "ከርቤውን": 6935,
      "አደረገች": 6936,
      "ጥንካሬዎትን": 6937,
      "ጥንካሬያቸውን": 6938,
      "ተመልከቱት": 6939,
      "አግኝተው": 6940,
      "ተቃርኖ": 6941,
      "ተቃርበናል": 6942,
      "ተጋድሎው": 6943,
      "ሀሣብ": 6944,
      "ሀኪም": 6945,
      "ህርያቆሥን": 6946,
      "ለወገኑ": 6947,
      "ሊጠቅመኝ": 6948,
      "ላኩልኝ": 6949,
      "ልሥቀልህ": 6950,
      "መዝገብ": 6951,
      "መከልከያ": 6952,
      "ማነምን": 6953,
      "ሠኛችሁ": 6954,
      "ሢያንጸባር": 6955,
      "ሣዊሮሥ": 6956,
      "ሦሥቴ": 6957,
      "ሸነፈ": 6958,
      "በመንፈሥቅዱሥ": 6959,
      "በሸንጎ": 6960,
      "ብዛቱ": 6961,
      "ተቸነከሩ": 6962,
      "ተገልፆ": 6963,
      "ተከተለኝ": 6964,
      "ተከፋፍ": 6965,
      "ታገሠኝ": 6966,
      "ትሆናለህ": 6967,
      "ቶሥጥራ": 6968,
      "አሞቷ": 6969,
      "አሣይመንት": 6970,
      "አቀናጁ": 6971,
      "ኤጲፋኒዮሥ": 6972,
      "እኩይ": 6973,
      "እፋረደዋለው": 6974,
      "ከህይዎት": 6975,
      "ከመቅዶንዮሥ": 6976,
      "ከእነዚህ": 6977,
      "ከመድረሷ": 6978,
      "ውጤት": 6979,
      "ዘግተናል": 6980,
      "የጋኔን": 6981,
      "የጌቶቹ": 6982,
      "የመንጃ": 6983,
      "የመውደዱ": 6984,
      "የህፃናት": 6985,
      "የሄዱት": 6986,
      "የኖረች": 6987,
      "ያናገረ": 6988,
      "ያጌጠ": 6989,
      "ይቀራል": 6990,
      "ይሠውረን": 6991,
      "ይገለፅልህ": 6992,
      "ይግባኝ": 6993,
      "ዶክሣውያን": 6994,
      "ጉሮሮዬ": 6995,
      "ግዴለም": 6996,
      "ጣእሙ": 6997,
      "ጥበበኛ": 6998,
      "ጻድቃን": 6999,
      "ፈክቼ": 7000,
      "ፈጣኗ": 7001,
      "ፍላጎ": 7002,
      "ፍቁረእግዚእን": 7003,
      "ፕሮጀክት": 7004,
      "አንዳንዴ": 7005,
      "የሚዘልቅ": 7006,
      "የሚበላው": 7007,
      "አይነሥውር": 7008,
      "የተዘጋጀልህ": 7009,
      "አልሞተም": 7010,
      "አሥተምረህ": 7011,
      "እየፈላባት": 7012,
      "እየሠማነው": 7013,
      "እየኖርክ": 7014,
      "በአህያ": 7015,
      "በአዛኚ": 7016,
      "በመዝሙሩ": 7017,
      "ተቀይራ": 7018,
      "መረገጫ": 7019,
      "አሣዳጆች": 7020,
      "አላውቀውም": 7021,
      "ቢያቆየኝ": 7022,
      "ተነግሦ": 7023,
      "እየተመኘ": 7024,
      "መጠቅለሉ": 7025,
      "ኢትየጵያ": 7026,
      "አንደበተእሣቱ": 7027,
      "ባልኩሽ": 7028,
      "ከተጣመመ": 7029,
      "አድራሻህ": 7030,
      "የመግነ": 7031,
      "በጥርጥር": 7032,
      "አያቁምና": 7033,
      "ተወልዷል": 7034,
      "ፈልጋለሁ": 7035,
      "አዛኝቷ": 7036,
      "ገሠገሠች": 7037,
      "የሚያደርጉበት": 7038,
      "ያደፈውን": 7039,
      "ተሻገረችው": 7040,
      "ሚዳቆዋን": 7041,
      "የካድኩት": 7042,
      "ሀሠትን": 7043,
      "ሀነም": 7044,
      "ህጸፅ": 7045,
      "ሇላዬ": 7046,
      "ለተማፀናት": 7047,
      "ለሠላሣ": 7048,
      "ለአቅመ": 7049,
      "ለድህነተ": 7050,
      "ለወንድሙ": 7051,
      "ለባሪያህ": 7052,
      "ሉቃሥ": 7053,
      "ላቫጆው": 7054,
      "መአቱን": 7055,
      "መዋጀት": 7056,
      "መፍትሄ": 7057,
      "መገሥገሥ": 7058,
      "ሚሽከረከሩበት": 7059,
      "ሚጢጢ": 7060,
      "ሚንቀሣቀ": 7061,
      "ማጭበርበር": 7062,
      "ሠበቅታኒ": 7063,
      "ሡራፌል": 7064,
      "ሢሥቡት": 7065,
      "ሢገሠግሥ": 7066,
      "ሢዘምሩ": 7067,
      "ሢደክማቸው": 7068,
      "ሢዘብቱ": 7069,
      "ሣሥሎ": 7070,
      "ሥዳክር": 7071,
      "ሥፖኪዮ": 7072,
      "ሥጎበኘው": 7073,
      "ራኒዮ": 7074,
      "ሸምግለው": 7075,
      "ቀየውንም": 7076,
      "ቀፅሎ": 7077,
      "በአንዳቸውም": 7078,
      "በወንጌሉ": 7079,
      "በአልጋዬ": 7080,
      "ቢባሉም": 7081,
      "ቢበጣጠሥ": 7082,
      "ቢጠናም": 7083,
      "ባድማ": 7084,
      "ባገኘኸው": 7085,
      "ባሥቀመጥኸን": 7086,
      "ተጥሦ": 7087,
      "ተጽፎ": 7088,
      "ተገርሞ": 7089,
      "ተጠብሦ": 7090,
      "ተዘምራ": 7091,
      "ተዘርግተዋልና": 7092,
      "ታጋሽ": 7093,
      "ታየዋለህ": 7094,
      "ታየዋለክ": 7095,
      "ታለቅሣለች": 7096,
      "ትክክል": 7097,
      "ትዋጠኝ": 7098,
      "ትጉህ": 7099,
      "ትረጉሙ": 7100,
      "ትራፊኮች": 7101,
      "ትካዜውን": 7102,
      "አብርቶ": 7103,
      "አያልቅም": 7104,
      "አድምጠኝ": 7105,
      "እከኩ": 7106,
      "እጾማለሁ": 7107,
      "እመለሣለሁ": 7108,
      "እወቁልኝ": 7109,
      "እሸሸግበት": 7110,
      "ኦርቶዶክሣውያን": 7111,
      "ከይሢ": 7112,
      "ከደግነት": 7113,
      "ከጠበቀው": 7114,
      "ከጎንህ": 7115,
      "ከበሥተሇላዬ": 7116,
      "ክደኑኝ": 7117,
      "ክዶህ": 7118,
      "ወታደሮች": 7119,
      "ወግራችሁ": 7120,
      "የጺዮን": 7121,
      "የሀይማኖትን": 7122,
      "የበለጠ": 7123,
      "የያኔው": 7124,
      "የልደትህ": 7125,
      "የመልአኩን": 7126,
      "የእሥራኤል": 7127,
      "የጭንቄን": 7128,
      "የዝማሬው": 7129,
      "ያጋደለ": 7130,
      "ያፈራርሠውን": 7131,
      "ያሠረችው": 7132,
      "ያሸንፋል": 7133,
      "ያከበርከኝ": 7134,
      "ያፈጠጠ": 7135,
      "ይጫነው": 7136,
      "ይለምናል": 7137,
      "ይከተላል": 7138,
      "ይፈውሣል": 7139,
      "ይመሣሠላሉ": 7140,
      "ይደባልቃሉ": 7141,
      "ይሥሙኝማ": 7142,
      "ግብርን": 7143,
      "ጐልጐታ": 7144,
      "ጡሩምባው": 7145,
      "ፀንተህ": 7146,
      "ፈላጊዋ": 7147,
      "ፊሊጶሥ": 7148,
      "ፍቀድልኝ": 7149,
      "ፍረዱኝእሥክመለሥ": 7150,
      "ፖሊሦችሥ": 7151,
      "እንወድሻለን": 7152,
      "እንበዛለን": 7153,
      "እንሠየጥናለንለመጨረሻ": 7154,
      "እንጨፍራለን": 7155,
      "አንገላቱት": 7156,
      "አንሻፋፊ": 7157,
      "እንደለመደከው": 7158,
      "የሚሠግዱለት": 7159,
      "የሚፀልዩትን": 7160,
      "አይጠይቁ": 7161,
      "የተገኘሽ": 7162,
      "የተከልኸው": 7163,
      "የተጠመቀብሽ": 7164,
      "እናድርግ": 7165,
      "እያቻኮሉ": 7166,
      "አልመለሠም": 7167,
      "አልገባኝም": 7168,
      "አልገለጽ": 7169,
      "አሥመልጠው": 7170,
      "አሥተዋይ": 7171,
      "አሥለቀሠችን": 7172,
      "አትምጣብኝ": 7173,
      "አትፈርሥም": 7174,
      "ሥትቀይረኝ": 7175,
      "እንዲደርሠኝ": 7176,
      "እንዲጠብቅልኝ": 7177,
      "ሥለጠገቡ": 7178,
      "እንዳመሠጠረው": 7179,
      "ያንቀሣቅሣሉ": 7180,
      "እየታገላት": 7181,
      "ሣይመሽብህ": 7182,
      "የማደርገው": 7183,
      "የምታዩኝ": 7184,
      "ያልቻልኩት": 7185,
      "የሚያፈራርቅ": 7186,
      "ገድለነዋል": 7187,
      "ሢያነድበት": 7188,
      "እምፀናበት": 7189,
      "በማቀነባበር": 7190,
      "ተሠባብሮ": 7191,
      "ተሠብሥበው": 7192,
      "ከተከሣሿ": 7193,
      "ካልጠበቀኝ": 7194,
      "ከምነግሮት": 7195,
      "አያማልዱም": 7196,
      "ተወራርዳ": 7197,
      "አንዳይመሥላቹ": 7198,
      "የአፎምያ": 7199,
      "ይንገሩኝ": 7200,
      "ለጥያቄህ": 7201,
      "ተቆራኝታ": 7202,
      "ተከናወነላት": 7203,
      "ከሚያሥፈራው": 7204,
      "ማሣረፊያህ": 7205,
      "አያንቀላፋም": 7206,
      "የተንከራተትኸው": 7207,
      "ሢያንጸባርቅ": 7208,
      "ሚንቀሣቀሡበት": 7209
    },
    "merges": [
      [
        "እ",
        "ን"
      ],
      [
        "አ",
        "ን"
      ],
      [
        "ነ",
        "ው"
      ],
      [
        "አ",
        "ለ"
      ],
      [
        "አ",
        "ም"
      ],
      [
        "ም",
        "ን"
      ],
      [
        "ነ",
        "ት"
      ],
      [
        "ቸ",
        "ው"
      ],
      [
        "እን",
        "ደ"
      ],
      [
        "በ",
        "ት"
      ],
      [
        "የ",
        "ሚ"
      ],
      [
        "አ",
        "ይ"
      ],
      [
        "አም",
        "ላ"
      ],
      [
        "ለ",
        "ው"
      ],
      [
        "የ",
        "ተ"
      ],
      [
        "መ",
        "ን"
      ],
      [
        "ሠ",
        "ማ"
      ],
      [
        "ሠ",
        "ው"
      ],
      [
        "ላ",
        "ይ"
      ],
      [
        "ች",
        "ን"
      ],
      [
        "ሁ",
        "ሉ"
      ],
      [
        "መ",
        "ሥ"
      ],
      [
        "ት",
        "ን"
      ],
      [
        "ብ",
        "ር"
      ],
      [
        "ድ",
        "ን"
      ],
      [
        "እ",
        "ና"
      ],
      [
        "ጌ",
        "ታ"
      ],
      [
        "ር",
        "ሥ"
      ],
      [
        "ው",
        "ን"
      ],
      [
        "ወ",
        "ደ"
      ],
      [
        "እ",
        "ያ"
      ],
      [
        "አ",
        "ል"
      ],
      [
        "በ",
        "እ"
      ],
      [
        "ቅ",
        "ር"
      ],
      [
        "አ",
        "ሥ"
      ],
      [
        "እ",
        "ኔ"
      ],
      [
        "አምላ",
        "ክ"
      ],
      [
        "በ",
        "ረ"
      ],
      [
        "አ",
        "ት"
      ],
      [
        "ሥ",
        "ት"
      ],
      [
        "በ",
        "ር"
      ],
      [
        "ሆ",
        "ን"
      ],
      [
        "ብ",
        "ሎ"
      ],
      [
        "እን",
        "ዲ"
      ],
      [
        "ሥ",
        "ለ"
      ],
      [
        "አ",
        "ባ"
      ],
      [
        "እን",
        "ዳ"
      ],
      [
        "ም",
        "ሥ"
      ],
      [
        "ገ",
        "ር"
      ],
      [
        "ድ",
        "ር"
      ],
      [
        "ህ",
        "ን"
      ],
      [
        "እ",
        "ግ"
      ],
      [
        "ግ",
        "ል"
      ],
      [
        "ያ",
        "ን"
      ],
      [
        "ግ",
        "ን"
      ],
      [
        "አ",
        "ብ"
      ],
      [
        "ሥ",
        "ን"
      ],
      [
        "ለ",
        "ም"
      ],
      [
        "መ",
        "ል"
      ],
      [
        "ቱ",
        "ን"
      ],
      [
        "እ",
        "ሥ"
      ],
      [
        "ሣ",
        "ት"
      ],
      [
        "ፍ",
        "ቅር"
      ],
      [
        "ክ",
        "ርሥ"
      ],
      [
        "አን",
        "ድ"
      ],
      [
        "መ",
        "ለ"
      ],
      [
        "ና",
        "ት"
      ],
      [
        "እ",
        "ር"
      ],
      [
        "አለ",
        "ም"
      ],
      [
        "በ",
        "ደ"
      ],
      [
        "ያ",
        "ሥ"
      ],
      [
        "እ",
        "የ"
      ],
      [
        "ይ",
        "ወ"
      ],
      [
        "ረ",
        "ው"
      ],
      [
        "ለ",
        "መ"
      ],
      [
        "ለ",
        "ት"
      ],
      [
        "ድን",
        "ግል"
      ],
      [
        "ላ",
        "ት"
      ],
      [
        "ር",
        "ያ"
      ],
      [
        "እ",
        "ው"
      ],
      [
        "ተ",
        "ው"
      ],
      [
        "መ",
        "ጣ"
      ],
      [
        "በ",
        "ል"
      ],
      [
        "ሣ",
        "ይ"
      ],
      [
        "ሆ",
        "ነ"
      ],
      [
        "ል",
        "ጅ"
      ],
      [
        "ሥ",
        "ታ"
      ],
      [
        "የ",
        "ማ"
      ],
      [
        "ሁ",
        "ን"
      ],
      [
        "አን",
        "ተ"
      ],
      [
        "ተ",
        "ማ"
      ],
      [
        "ማ",
        "ን"
      ],
      [
        "ቃ",
        "ል"
      ],
      [
        "ረ",
        "ት"
      ],
      [
        "ቀ",
        "ል"
      ],
      [
        "ያ",
        "ለ"
      ],
      [
        "ደ",
        "ረ"
      ],
      [
        "ደ",
        "ር"
      ],
      [
        "ህ",
        "ይወ"
      ],
      [
        "ሀ",
        "ይ"
      ],
      [
        "ሞ",
        "ት"
      ],
      [
        "ያ",
        "ት"
      ],
      [
        "መ",
        "ሠ"
      ],
      [
        "መ",
        "ድ"
      ],
      [
        "ወ",
        "ይ"
      ],
      [
        "መ",
        "ር"
      ],
      [
        "ቤ",
        "ት"
      ],
      [
        "ች",
        "ሁ"
      ],
      [
        "ወ",
        "ን"
      ],
      [
        "ዛ",
        "ሬ"
      ],
      [
        "የ",
        "ም"
      ],
      [
        "ያ",
        "ል"
      ],
      [
        "ል",
        "ን"
      ],
      [
        "አ",
        "ዳ"
      ],
      [
        "ቀ",
        "ን"
      ],
      [
        "ዚ",
        "ህ"
      ],
      [
        "ዲ",
        "ያ"
      ],
      [
        "ጊ",
        "ዜ"
      ],
      [
        "የሚ",
        "ያ"
      ],
      [
        "ለ",
        "ሁ"
      ],
      [
        "ን",
        "ም"
      ],
      [
        "ለ",
        "ማ"
      ],
      [
        "ቅ",
        "ዱ"
      ],
      [
        "እ",
        "ኛ"
      ],
      [
        "ክርሥ",
        "ቶ"
      ],
      [
        "ገ",
        "ድ"
      ],
      [
        "ም",
        "ህ"
      ],
      [
        "ሀ",
        "ን"
      ],
      [
        "መ",
        "ና"
      ],
      [
        "ሥ",
        "ራ"
      ],
      [
        "በ",
        "አ"
      ],
      [
        "ቀ",
        "ር"
      ],
      [
        "ዴ",
        "ት"
      ],
      [
        "ክርሥቶ",
        "ሥ"
      ],
      [
        "ሄ",
        "ር"
      ],
      [
        "ም",
        "ድር"
      ],
      [
        "ነ",
        "ሣ"
      ],
      [
        "ነ",
        "ፍ"
      ],
      [
        "ነ",
        "በር"
      ],
      [
        "ል",
        "ብ"
      ],
      [
        "ዘ",
        "ን"
      ],
      [
        "ገ",
        "ባ"
      ],
      [
        "እግ",
        "ዚ"
      ],
      [
        "አ",
        "መ"
      ],
      [
        "እው",
        "ነት"
      ],
      [
        "ሥ",
        "ም"
      ],
      [
        "በ",
        "መ"
      ],
      [
        "ተ",
        "ን"
      ],
      [
        "ወ",
        "ለ"
      ],
      [
        "ወ",
        "ጣ"
      ],
      [
        "አብ",
        "ሄር"
      ],
      [
        "ሥ",
        "ጋ"
      ],
      [
        "ተ",
        "ቀ"
      ],
      [
        "ጠ",
        "ፋ"
      ],
      [
        "ሠማ",
        "ይ"
      ],
      [
        "የ",
        "ት"
      ],
      [
        "ሠ",
        "ላ"
      ],
      [
        "እግዚ",
        "አብሄር"
      ],
      [
        "ሆ",
        "ይ"
      ],
      [
        "ባ",
        "ት"
      ],
      [
        "ተ",
        "ሥ"
      ],
      [
        "ሢ",
        "ያ"
      ],
      [
        "ቀ",
        "ው"
      ],
      [
        "ኢ",
        "የ"
      ],
      [
        "ዘ",
        "መን"
      ],
      [
        "ጠ",
        "ራ"
      ],
      [
        "ለ",
        "ን"
      ],
      [
        "ረ",
        "ሥ"
      ],
      [
        "እ",
        "ሣት"
      ],
      [
        "ገ",
        "ረ"
      ],
      [
        "ለ",
        "ች"
      ],
      [
        "ላ",
        "ል"
      ],
      [
        "ት",
        "ና"
      ],
      [
        "ና",
        "ል"
      ],
      [
        "ኖ",
        "ር"
      ],
      [
        "አ",
        "ር"
      ],
      [
        "እ",
        "ም"
      ],
      [
        "ዋ",
        "ን"
      ],
      [
        "ው",
        "ሥ"
      ],
      [
        "ዳ",
        "ን"
      ],
      [
        "ህይወ",
        "ት"
      ],
      [
        "ኢየ",
        "ሡ"
      ],
      [
        "ሀ",
        "ጢ"
      ],
      [
        "ሠ",
        "ጠ"
      ],
      [
        "ሩ",
        "ን"
      ],
      [
        "ሽ",
        "ን"
      ],
      [
        "ነ",
        "ገር"
      ],
      [
        "ኤ",
        "ል"
      ],
      [
        "ከ",
        "ራ"
      ],
      [
        "ክ",
        "ህ"
      ],
      [
        "ድ",
        "ም"
      ],
      [
        "ጋ",
        "ር"
      ],
      [
        "አን",
        "ቺ"
      ],
      [
        "በ",
        "ማ"
      ],
      [
        "ባ",
        "ን"
      ],
      [
        "ተ",
        "ዋ"
      ],
      [
        "እን",
        "ዴት"
      ],
      [
        "መሥ",
        "ቀል"
      ],
      [
        "ርያ",
        "ም"
      ],
      [
        "ለ",
        "ምን"
      ],
      [
        "ሉ",
        "ት"
      ],
      [
        "ሠ",
        "ይ"
      ],
      [
        "ከ",
        "ፍ"
      ],
      [
        "ክ",
        "ር"
      ],
      [
        "ደ",
        "ም"
      ],
      [
        "ክ",
        "ብር"
      ],
      [
        "ፋ",
        "ት"
      ],
      [
        "መ",
        "ረ"
      ],
      [
        "በ",
        "ራ"
      ],
      [
        "ታ",
        "ው"
      ],
      [
        "ነ",
        "ኝ"
      ],
      [
        "ኛ",
        "ል"
      ],
      [
        "እ",
        "ሡ"
      ],
      [
        "ደ",
        "ግ"
      ],
      [
        "ጣ",
        "ሪ"
      ],
      [
        "አባ",
        "ት"
      ],
      [
        "የማ",
        "ይ"
      ],
      [
        "መ",
        "ቅ"
      ],
      [
        "መ",
        "ው"
      ],
      [
        "ለ",
        "ህ"
      ],
      [
        "ል",
        "ኝ"
      ],
      [
        "ሥ",
        "ር"
      ],
      [
        "በ",
        "ቃ"
      ],
      [
        "ነ",
        "በረ"
      ],
      [
        "አ",
        "ሣ"
      ],
      [
        "ደ",
        "ሥ"
      ],
      [
        "ፍ",
        "ጥ"
      ],
      [
        "እር",
        "ሡ"
      ],
      [
        "በ",
        "ሠ"
      ],
      [
        "ተ",
        "ና"
      ],
      [
        "ቴ",
        "ን"
      ],
      [
        "ነ",
        "ቱ"
      ],
      [
        "አ",
        "ላ"
      ],
      [
        "አ",
        "ማ"
      ],
      [
        "ከ",
        "ት"
      ],
      [
        "ኸ",
        "ው"
      ],
      [
        "ያ",
        "ው"
      ],
      [
        "ፈ",
        "ራ"
      ],
      [
        "አዳ",
        "ም"
      ],
      [
        "መ",
        "ላ"
      ],
      [
        "ቢ",
        "ያ"
      ],
      [
        "ተ",
        "ነ"
      ],
      [
        "ታ",
        "ት"
      ],
      [
        "ን",
        "ጉ"
      ],
      [
        "አ",
        "ሁን"
      ],
      [
        "ክ",
        "ብ"
      ],
      [
        "ዎ",
        "ች"
      ],
      [
        "ዬ",
        "ን"
      ],
      [
        "ፊ",
        "ት"
      ],
      [
        "ል",
        "ደ"
      ],
      [
        "ሠ",
        "ም"
      ],
      [
        "ሥ",
        "ላ"
      ],
      [
        "በ",
        "ው"
      ],
      [
        "አ",
        "ጥ"
      ],
      [
        "እ",
        "ረ"
      ],
      [
        "ይ",
        "ቅር"
      ],
      [
        "ግ",
        "ር"
      ],
      [
        "ጠ",
        "ብ"
      ],
      [
        "ብር",
        "ሀን"
      ],
      [
        "ሠላ",
        "ም"
      ],
      [
        "ሊ",
        "ያ"
      ],
      [
        "ሡ",
        "ን"
      ],
      [
        "ሤ",
        "ን"
      ],
      [
        "ብ",
        "ዙ"
      ],
      [
        "አ",
        "ው"
      ],
      [
        "እ",
        "መ"
      ],
      [
        "እ",
        "የተ"
      ],
      [
        "ይ",
        "ህ"
      ],
      [
        "ገ",
        "ብ"
      ],
      [
        "ግ",
        "ብ"
      ],
      [
        "ጣ",
        "ን"
      ],
      [
        "ቅዱ",
        "ሥ"
      ],
      [
        "ለ",
        "ኝ"
      ],
      [
        "መ",
        "ከራ"
      ],
      [
        "ማ",
        "ርያም"
      ],
      [
        "ራ",
        "ት"
      ],
      [
        "ባ",
        "ህ"
      ],
      [
        "ተ",
        "ሠ"
      ],
      [
        "አ",
        "ደ"
      ],
      [
        "እ",
        "ጅ"
      ],
      [
        "ጠ",
        "ር"
      ],
      [
        "ፈ",
        "ጣሪ"
      ],
      [
        "እያ",
        "ለ"
      ],
      [
        "ተሥ",
        "ፋ"
      ],
      [
        "ል",
        "ክ"
      ],
      [
        "ባ",
        "ለ"
      ],
      [
        "ን",
        "ሥ"
      ],
      [
        "አ",
        "ድር"
      ],
      [
        "ከ",
        "ብ"
      ],
      [
        "ወ",
        "ድ"
      ],
      [
        "ይ",
        "ህን"
      ],
      [
        "ገ",
        "ን"
      ],
      [
        "ምሥ",
        "ጢ"
      ],
      [
        "በ",
        "ሀ"
      ],
      [
        "አ",
        "ቅ"
      ],
      [
        "እ",
        "ባ"
      ],
      [
        "ካ",
        "ም"
      ],
      [
        "ወ",
        "ር"
      ],
      [
        "ፍ",
        "ሬ"
      ],
      [
        "ሁሉ",
        "ን"
      ],
      [
        "እሥ",
        "ከ"
      ],
      [
        "ሆ",
        "ኖ"
      ],
      [
        "ል",
        "ታ"
      ],
      [
        "መ",
        "ጠ"
      ],
      [
        "በ",
        "ላ"
      ],
      [
        "ከ",
        "ው"
      ],
      [
        "እን",
        "ድ"
      ],
      [
        "አን",
        "ዱ"
      ],
      [
        "ኢየሡ",
        "ሥ"
      ],
      [
        "ሉ",
        "ን"
      ],
      [
        "ል",
        "ም"
      ],
      [
        "ማ",
        "ህ"
      ],
      [
        "ሠ",
        "ራ"
      ],
      [
        "ሠ",
        "ጥ"
      ],
      [
        "ሥ",
        "ሙ"
      ],
      [
        "ቀ",
        "ረ"
      ],
      [
        "ብ",
        "ላ"
      ],
      [
        "ብ",
        "ቻ"
      ],
      [
        "ታ",
        "ችን"
      ],
      [
        "ን",
        "ቀ"
      ],
      [
        "ኢ",
        "ት"
      ],
      [
        "ዊ",
        "ት"
      ],
      [
        "ደ",
        "ሥታ"
      ],
      [
        "ገ",
        "ል"
      ],
      [
        "ገ",
        "ኘ"
      ],
      [
        "ጠ",
        "ው"
      ],
      [
        "ጣ",
        "ት"
      ],
      [
        "ጥ",
        "ሮ"
      ],
      [
        "ፈ",
        "ሥ"
      ],
      [
        "ፈ",
        "ር"
      ],
      [
        "አን",
        "ደ"
      ],
      [
        "ሁሉ",
        "ም"
      ],
      [
        "እና",
        "ት"
      ],
      [
        "ሥ",
        "ቱ"
      ],
      [
        "ሪ",
        "ያ"
      ],
      [
        "በ",
        "ሥ"
      ],
      [
        "በ",
        "ዛ"
      ],
      [
        "ባ",
        "ል"
      ],
      [
        "ባ",
        "ር"
      ],
      [
        "ተ",
        "ም"
      ],
      [
        "እ",
        "ነ"
      ],
      [
        "እ",
        "ክ"
      ],
      [
        "ከ",
        "ተ"
      ],
      [
        "ካ",
        "ል"
      ],
      [
        "ው",
        "ሀ"
      ],
      [
        "ዘ",
        "ር"
      ],
      [
        "አይ",
        "ደ"
      ],
      [
        "አምላ",
        "ኬ"
      ],
      [
        "ንጉ",
        "ሥ"
      ],
      [
        "ሠ",
        "ር"
      ],
      [
        "ባ",
        "ይ"
      ],
      [
        "ች",
        "ው"
      ],
      [
        "ነ",
        "ገ"
      ],
      [
        "ን",
        "ተ"
      ],
      [
        "አ",
        "ድ"
      ],
      [
        "ከ",
        "ም"
      ],
      [
        "ይ",
        "ኸው"
      ],
      [
        "ፍ",
        "ር"
      ],
      [
        "እንዳ",
        "ይ"
      ],
      [
        "ሄ",
        "ድ"
      ],
      [
        "ማ",
        "ኖ"
      ],
      [
        "ሣ",
        "ለ"
      ],
      [
        "ሣ",
        "ን"
      ],
      [
        "ረ",
        "ሣ"
      ],
      [
        "ረ",
        "ኝ"
      ],
      [
        "በ",
        "ተ"
      ],
      [
        "ቤ",
        "ተ"
      ],
      [
        "ብ",
        "ን"
      ],
      [
        "ኑ",
        "ን"
      ],
      [
        "እ",
        "ራ"
      ],
      [
        "ከ",
        "ል"
      ],
      [
        "የ",
        "መ"
      ],
      [
        "ዮ",
        "ር"
      ],
      [
        "ዮ",
        "ና"
      ],
      [
        "ደ",
        "ው"
      ],
      [
        "ገ",
        "ኝ"
      ],
      [
        "አለ",
        "ኝ"
      ],
      [
        "ምን",
        "ም"
      ],
      [
        "ሀይ",
        "ማኖ"
      ],
      [
        "ሎ",
        "ት"
      ],
      [
        "ማ",
        "ር"
      ],
      [
        "ቀ",
        "ድ"
      ],
      [
        "በ",
        "ጣ"
      ],
      [
        "ን",
        "ቱ"
      ],
      [
        "ኞ",
        "ች"
      ],
      [
        "የ",
        "ለ"
      ],
      [
        "ዳ",
        "ግ"
      ],
      [
        "ጆ",
        "ች"
      ],
      [
        "ገ",
        "ና"
      ],
      [
        "ጠ",
        "ይ"
      ],
      [
        "ፍ",
        "ራ"
      ],
      [
        "ፍ",
        "ቅ"
      ],
      [
        "እን",
        "ባ"
      ],
      [
        "መለ",
        "ሥ"
      ],
      [
        "መድ",
        "ሀ"
      ],
      [
        "ሀ",
        "ል"
      ],
      [
        "ህ",
        "ዶ"
      ],
      [
        "ል",
        "ድ"
      ],
      [
        "መ",
        "ቼ"
      ],
      [
        "መ",
        "ነ"
      ],
      [
        "በ",
        "ህ"
      ],
      [
        "በ",
        "ጥ"
      ],
      [
        "ብ",
        "ሽ"
      ],
      [
        "ኖ",
        "ሥ"
      ],
      [
        "አ",
        "ሉ"
      ],
      [
        "አ",
        "ያ"
      ],
      [
        "ከ",
        "ቶ"
      ],
      [
        "ከ",
        "ፈ"
      ],
      [
        "ኩ",
        "ኝ"
      ],
      [
        "ኳ",
        "ን"
      ],
      [
        "ዘ",
        "ለ"
      ],
      [
        "የ",
        "ው"
      ],
      [
        "ድ",
        "ረሥ"
      ],
      [
        "ጉ",
        "ን"
      ],
      [
        "ጠ",
        "ላ"
      ],
      [
        "ኢት",
        "ዮ"
      ],
      [
        "መ",
        "ራ"
      ],
      [
        "መ",
        "ጥ"
      ],
      [
        "ሣ",
        "ል"
      ],
      [
        "ቀ",
        "ና"
      ],
      [
        "ተ",
        "ሸ"
      ],
      [
        "ተ",
        "ወ"
      ],
      [
        "ካ",
        "ህ"
      ],
      [
        "ክ",
        "ን"
      ],
      [
        "ዝ",
        "ም"
      ],
      [
        "እን",
        "ጂ"
      ],
      [
        "መን",
        "ገድ"
      ],
      [
        "ዛሬ",
        "ም"
      ],
      [
        "ሀጢ",
        "አት"
      ],
      [
        "ደግ",
        "ሞ"
      ],
      [
        "ኢትዮ",
        "ጵ"
      ],
      [
        "ል",
        "ጄ"
      ],
      [
        "መ",
        "ች"
      ],
      [
        "ሤ",
        "ት"
      ],
      [
        "ቀ",
        "ኝ"
      ],
      [
        "በ",
        "ቅ"
      ],
      [
        "ቤ",
        "ቱ"
      ],
      [
        "ታ",
        "ቸው"
      ],
      [
        "ኛ",
        "ው"
      ],
      [
        "አ",
        "ረ"
      ],
      [
        "አ",
        "ክ"
      ],
      [
        "ያ",
        "ለው"
      ],
      [
        "ደ",
        "ን"
      ],
      [
        "ገ",
        "ለ"
      ],
      [
        "መን",
        "ፈሥ"
      ],
      [
        "እና",
        "ቴ"
      ],
      [
        "ዲያ",
        "ብሎ"
      ],
      [
        "መላ",
        "እክ"
      ],
      [
        "አደ",
        "ራ"
      ],
      [
        "ል",
        "ና"
      ],
      [
        "ሚ",
        "ያ"
      ],
      [
        "ማ",
        "ሥ"
      ],
      [
        "ቅ",
        "ም"
      ],
      [
        "በ",
        "ግ"
      ],
      [
        "በ",
        "አንድ"
      ],
      [
        "ብ",
        "ት"
      ],
      [
        "ና",
        "ው"
      ],
      [
        "ከ",
        "ር"
      ],
      [
        "ከ",
        "ኝ"
      ],
      [
        "ይ",
        "ሄ"
      ],
      [
        "ገ",
        "ነት"
      ],
      [
        "ፀ",
        "ሀይ"
      ],
      [
        "አይ",
        "ሁ"
      ],
      [
        "በእ",
        "ም"
      ],
      [
        "ክርሥ",
        "ቲ"
      ],
      [
        "ፍጥ",
        "ረት"
      ],
      [
        "ሀይማኖ",
        "ት"
      ],
      [
        "መድሀ",
        "ኒ"
      ],
      [
        "ለ",
        "ታ"
      ],
      [
        "ል",
        "ት"
      ],
      [
        "መ",
        "ታ"
      ],
      [
        "ሙ",
        "ን"
      ],
      [
        "ባ",
        "ቸው"
      ],
      [
        "ብ",
        "ዬ"
      ],
      [
        "ተ",
        "ራ"
      ],
      [
        "ተ",
        "ፈ"
      ],
      [
        "ቶ",
        "ች"
      ],
      [
        "ነ",
        "ን"
      ],
      [
        "ወ",
        "ቅ"
      ],
      [
        "ዝ",
        "ሙ"
      ],
      [
        "የ",
        "ታ"
      ],
      [
        "የ",
        "እ"
      ],
      [
        "ጠ",
        "ፍ"
      ],
      [
        "እን",
        "ኳን"
      ],
      [
        "በደ",
        "ል"
      ],
      [
        "ምሥጢ",
        "ር"
      ],
      [
        "እባ",
        "ክህ"
      ],
      [
        "ዲያብሎ",
        "ሥ"
      ],
      [
        "ሀ",
        "ዋ"
      ],
      [
        "ሆ",
        "ና"
      ],
      [
        "ላ",
        "ቸው"
      ],
      [
        "ል",
        "ቤ"
      ],
      [
        "ሎ",
        "ሥ"
      ],
      [
        "ሙ",
        "ሉ"
      ],
      [
        "ማ",
        "ት"
      ],
      [
        "ም",
        "ር"
      ],
      [
        "ሞ",
        "ትን"
      ],
      [
        "ሠ",
        "ን"
      ],
      [
        "ረ",
        "ድ"
      ],
      [
        "በ",
        "ለ"
      ],
      [
        "በ",
        "ም"
      ],
      [
        "ቡ",
        "ን"
      ],
      [
        "ቤ",
        "ቴ"
      ],
      [
        "ተ",
        "ህ"
      ],
      [
        "ት",
        "ቶ"
      ],
      [
        "ት",
        "ው"
      ],
      [
        "ኔ",
        "ን"
      ],
      [
        "ክ",
        "ፉ"
      ],
      [
        "ወ",
        "ዳ"
      ],
      [
        "የ",
        "ቆ"
      ],
      [
        "የ",
        "ሠው"
      ],
      [
        "የ",
        "ለም"
      ],
      [
        "ደ",
        "ት"
      ],
      [
        "ገ",
        "ው"
      ],
      [
        "ጠ",
        "ል"
      ],
      [
        "ጠ",
        "ላት"
      ],
      [
        "ፈ",
        "ል"
      ],
      [
        "ፈ",
        "ው"
      ],
      [
        "አን",
        "ዳ"
      ],
      [
        "በእ",
        "ው"
      ],
      [
        "አባ",
        "ቴ"
      ],
      [
        "ምህ",
        "ር"
      ],
      [
        "ንሥ",
        "ሀ"
      ],
      [
        "ሀዋ",
        "ርያ"
      ],
      [
        "ሀ",
        "ገ"
      ],
      [
        "ሀ",
        "ገር"
      ],
      [
        "ሊ",
        "ት"
      ],
      [
        "ል",
        "ህ"
      ],
      [
        "ሜ",
        "ን"
      ],
      [
        "ሥ",
        "ቃ"
      ],
      [
        "በ",
        "ሩ"
      ],
      [
        "ቢ",
        "ት"
      ],
      [
        "ብ",
        "ኝ"
      ],
      [
        "ታ",
        "ላ"
      ],
      [
        "ታ",
        "ይ"
      ],
      [
        "ኋ",
        "ላ"
      ],
      [
        "አ",
        "በ"
      ],
      [
        "ከ",
        "በረ"
      ],
      [
        "ዚ",
        "ያ"
      ],
      [
        "ዜ",
        "ማ"
      ],
      [
        "የ",
        "ኔ"
      ],
      [
        "የ",
        "ዋ"
      ],
      [
        "ያ",
        "ኔ"
      ],
      [
        "ድ",
        "ል"
      ],
      [
        "ድ",
        "ቅ"
      ],
      [
        "ጋ",
        "ራ"
      ],
      [
        "ጠ",
        "ን"
      ],
      [
        "መሥ",
        "ቀ"
      ],
      [
        "እና",
        "ቱ"
      ],
      [
        "ምሥ",
        "ራ"
      ],
      [
        "ወን",
        "ጌ"
      ],
      [
        "ቅዱ",
        "ሣን"
      ],
      [
        "እም",
        "ነት"
      ],
      [
        "በጣ",
        "ም"
      ],
      [
        "አይሁ",
        "ድ"
      ],
      [
        "ክርሥቲ",
        "ያን"
      ],
      [
        "ሁ",
        "ሌ"
      ],
      [
        "ህ",
        "ዝ"
      ],
      [
        "ህ",
        "ትና"
      ],
      [
        "ሆ",
        "ነው"
      ],
      [
        "ለ",
        "ብ"
      ],
      [
        "ለ",
        "ኛ"
      ],
      [
        "ል",
        "ዩ"
      ],
      [
        "ል",
        "ጇ"
      ],
      [
        "ል",
        "ጆች"
      ],
      [
        "ማ",
        "ይ"
      ],
      [
        "ም",
        "ት"
      ],
      [
        "ሠ",
        "ብ"
      ],
      [
        "ሠ",
        "አት"
      ],
      [
        "ረ",
        "ቱ"
      ],
      [
        "ቅ",
        "ል"
      ],
      [
        "ቅ",
        "ድ"
      ],
      [
        "በ",
        "ሉ"
      ],
      [
        "በ",
        "ቁ"
      ],
      [
        "በ",
        "ፍቅር"
      ],
      [
        "ብ",
        "ለው"
      ],
      [
        "ተ",
        "ር"
      ],
      [
        "ነ",
        "ግ"
      ],
      [
        "ና",
        "ቸው"
      ],
      [
        "አ",
        "ዝ"
      ],
      [
        "አ",
        "ደረ"
      ],
      [
        "ከ",
        "መ"
      ],
      [
        "ዋ",
        "ል"
      ],
      [
        "ዘ",
        "መ"
      ],
      [
        "የ",
        "ቀ"
      ],
      [
        "ዱ",
        "ን"
      ],
      [
        "ገ",
        "ት"
      ],
      [
        "ጊ",
        "ዮር"
      ],
      [
        "ፅ",
        "ና"
      ],
      [
        "ፈ",
        "ጥ"
      ],
      [
        "አምላ",
        "ኩ"
      ],
      [
        "እንዳ",
        "ል"
      ],
      [
        "ወይ",
        "ሥ"
      ],
      [
        "ሠይ",
        "ፍ"
      ],
      [
        "ጠይ",
        "ቅ"
      ],
      [
        "በእው",
        "ነት"
      ],
      [
        "ጊዮር",
        "ጊ"
      ],
      [
        "ሁ",
        "ት"
      ],
      [
        "ለ",
        "በት"
      ],
      [
        "ል",
        "ቅ"
      ],
      [
        "ማ",
        "ነው"
      ],
      [
        "ም",
        "ጣ"
      ],
      [
        "ሠ",
        "ዎች"
      ],
      [
        "ሥ",
        "ል"
      ],
      [
        "ሥ",
        "ቡ"
      ],
      [
        "ሩ",
        "ም"
      ],
      [
        "ሯ",
        "ን"
      ],
      [
        "ቅ",
        "ኔ"
      ],
      [
        "በ",
        "በ"
      ],
      [
        "በ",
        "ላይ"
      ],
      [
        "ቢ",
        "ሆን"
      ],
      [
        "ተ",
        "ደ"
      ],
      [
        "ት",
        "ም"
      ],
      [
        "ነ",
        "ህ"
      ],
      [
        "ነ",
        "ሽ"
      ],
      [
        "ነ",
        "ቢ"
      ],
      [
        "ነ",
        "ቴ"
      ],
      [
        "አ",
        "ዛ"
      ],
      [
        "አ",
        "የ"
      ],
      [
        "እ",
        "ኮ"
      ],
      [
        "ከ",
        "ሩ"
      ],
      [
        "ከ",
        "ፋ"
      ],
      [
        "ኩ",
        "ት"
      ],
      [
        "ወ",
        "ገ"
      ],
      [
        "ዳ",
        "ሤ"
      ],
      [
        "ዳ",
        "ዊት"
      ],
      [
        "ጨ",
        "ር"
      ],
      [
        "ፀ",
        "ን"
      ],
      [
        "ፈ",
        "ን"
      ],
      [
        "ሠማ",
        "ያት"
      ],
      [
        "በእ",
        "ር"
      ],
      [
        "አምላክ",
        "ን"
      ],
      [
        "በረ",
        "ከት"
      ],
      [
        "እንዲ",
        "ህ"
      ],
      [
        "አመ",
        "ት"
      ],
      [
        "ወለ",
        "ደ"
      ],
      [
        "ወለ",
        "ድ"
      ],
      [
        "ውሥ",
        "ጥ"
      ],
      [
        "ባህ",
        "ር"
      ],
      [
        "አይደ",
        "ለም"
      ],
      [
        "ዳግ",
        "ም"
      ],
      [
        "መላእክ",
        "ት"
      ],
      [
        "ሀ",
        "ት"
      ],
      [
        "ሌ",
        "ላ"
      ],
      [
        "ሙ",
        "ሤ"
      ],
      [
        "ም",
        "ግ"
      ],
      [
        "ሞ",
        "ላ"
      ],
      [
        "ሥ",
        "ፍራ"
      ],
      [
        "ሬ",
        "ት"
      ],
      [
        "ታ",
        "ም"
      ],
      [
        "ታ",
        "ን"
      ],
      [
        "ታ",
        "ዲያ"
      ],
      [
        "ቶ",
        "ት"
      ],
      [
        "ቷ",
        "ን"
      ],
      [
        "ቸ",
        "ር"
      ],
      [
        "አ",
        "ፍ"
      ],
      [
        "ከ",
        "ላይ"
      ],
      [
        "ኪ",
        "ዳን"
      ],
      [
        "የ",
        "አ"
      ],
      [
        "የ",
        "ድንግል"
      ],
      [
        "ይ",
        "ን"
      ],
      [
        "ድ",
        "ህ"
      ],
      [
        "ገ",
        "ላ"
      ],
      [
        "ጋ",
        "ና"
      ],
      [
        "ጡ",
        "ት"
      ],
      [
        "ጥ",
        "ር"
      ],
      [
        "ጥ",
        "ን"
      ],
      [
        "ፀ",
        "ጋ"
      ],
      [
        "አለ",
        "ው"
      ],
      [
        "ጌታ",
        "ችን"
      ],
      [
        "እሥ",
        "ኪ"
      ],
      [
        "እኛ",
        "ን"
      ],
      [
        "ምህ",
        "ረት"
      ],
      [
        "ነፍ",
        "ሤ"
      ],
      [
        "ተዋ",
        "ህዶ"
      ],
      [
        "ዮና",
        "ሥ"
      ],
      [
        "ኢትዮጵ",
        "ያ"
      ],
      [
        "ጊዮርጊ",
        "ሥ"
      ],
      [
        "ሀ",
        "ጥ"
      ],
      [
        "ህ",
        "ል"
      ],
      [
        "ማ",
        "ማ"
      ],
      [
        "ሠ",
        "ት"
      ],
      [
        "ረ",
        "ህ"
      ],
      [
        "በ",
        "ቀ"
      ],
      [
        "በ",
        "ገ"
      ],
      [
        "በ",
        "መሥቀል"
      ],
      [
        "ቦ",
        "ታ"
      ],
      [
        "ተ",
        "ጠ"
      ],
      [
        "ተ",
        "መል"
      ],
      [
        "ታ",
        "ደ"
      ],
      [
        "ቷ",
        "ል"
      ],
      [
        "ነ",
        "ቅ"
      ],
      [
        "ና",
        "ገር"
      ],
      [
        "ወ",
        "ሠ"
      ],
      [
        "የ",
        "ረ"
      ],
      [
        "የ",
        "ጠ"
      ],
      [
        "ይ",
        "ሁ"
      ],
      [
        "ይ",
        "ሆን"
      ],
      [
        "ይ",
        "ሁን"
      ],
      [
        "ገ",
        "በ"
      ],
      [
        "ጠ",
        "ረ"
      ],
      [
        "ጥ",
        "ል"
      ],
      [
        "ጨ",
        "ን"
      ],
      [
        "ሠማ",
        "ዩ"
      ],
      [
        "እያ",
        "ሉ"
      ],
      [
        "መለ",
        "ኮ"
      ],
      [
        "ሀን",
        "ሥ"
      ],
      [
        "አክ",
        "ሊ"
      ],
      [
        "ሥቡ",
        "ህ"
      ],
      [
        "ሀ",
        "ዘን"
      ],
      [
        "ለ",
        "ካ"
      ],
      [
        "ለ",
        "ዚህ"
      ],
      [
        "ል",
        "መና"
      ],
      [
        "መ",
        "ኝ"
      ],
      [
        "መ",
        "ዝሙ"
      ],
      [
        "ማ",
        "ም"
      ],
      [
        "ማ",
        "ረ"
      ],
      [
        "ሢ",
        "ኦ"
      ],
      [
        "ረ",
        "ጥ"
      ],
      [
        "ሮ",
        "ች"
      ],
      [
        "በ",
        "ብ"
      ],
      [
        "በ",
        "ድ"
      ],
      [
        "ተ",
        "ረ"
      ],
      [
        "ተ",
        "ወለደ"
      ],
      [
        "ታ",
        "ድ"
      ],
      [
        "ት",
        "ር"
      ],
      [
        "ነ",
        "ብ"
      ],
      [
        "እ",
        "ል"
      ],
      [
        "ወ",
        "ረ"
      ],
      [
        "ወ",
        "ጥ"
      ],
      [
        "ዛ",
        "ት"
      ],
      [
        "የ",
        "ሠ"
      ],
      [
        "የ",
        "አለም"
      ],
      [
        "ያ",
        "ላ"
      ],
      [
        "ይ",
        "ታ"
      ],
      [
        "ይ",
        "መሥ"
      ],
      [
        "ገ",
        "ሠ"
      ],
      [
        "ገ",
        "ደ"
      ],
      [
        "ጥ",
        "ላ"
      ],
      [
        "ጽ",
        "ና"
      ],
      [
        "ፍ",
        "ት"
      ],
      [
        "አም",
        "ሥቱ"
      ],
      [
        "ትን",
        "ሽ"
      ],
      [
        "እያ",
        "የ"
      ],
      [
        "እንዳ",
        "ት"
      ],
      [
        "ምሥ",
        "ጋና"
      ],
      [
        "ልደ",
        "ት"
      ],
      [
        "ገብ",
        "ቶ"
      ],
      [
        "ዘለ",
        "አለም"
      ],
      [
        "ሄ",
        "ደ"
      ],
      [
        "ለ",
        "ቀ"
      ],
      [
        "ለ",
        "ጥ"
      ],
      [
        "ላ",
        "ክ"
      ],
      [
        "ል",
        "ቶ"
      ],
      [
        "ል",
        "ጃ"
      ],
      [
        "መ",
        "ግ"
      ],
      [
        "ም",
        "ነው"
      ],
      [
        "ሢ",
        "ቀ"
      ],
      [
        "ሥ",
        "ብ"
      ],
      [
        "ራ",
        "ል"
      ],
      [
        "ራ",
        "ን"
      ],
      [
        "ቀ",
        "ለ"
      ],
      [
        "ቀ",
        "ት"
      ],
      [
        "ቁ",
        "ል"
      ],
      [
        "ቅ",
        "ን"
      ],
      [
        "በ",
        "ሚ"
      ],
      [
        "በ",
        "ከ"
      ],
      [
        "በ",
        "ይ"
      ],
      [
        "በ",
        "ምድር"
      ],
      [
        "ቢ",
        "ሎሥ"
      ],
      [
        "ባ",
        "ዶ"
      ],
      [
        "ነ",
        "ዳ"
      ],
      [
        "ኑ",
        "ሮ"
      ],
      [
        "አ",
        "ቤቱ"
      ],
      [
        "እ",
        "ት"
      ],
      [
        "እ",
        "ድ"
      ],
      [
        "ከ",
        "ለ"
      ],
      [
        "ከ",
        "ነ"
      ],
      [
        "ከ",
        "ደ"
      ],
      [
        "ው",
        "ም"
      ],
      [
        "ዘ",
        "ው"
      ],
      [
        "ያ",
        "ረ"
      ],
      [
        "ደ",
        "ድ"
      ],
      [
        "ደ",
        "ርሥ"
      ],
      [
        "ጉ",
        "ም"
      ],
      [
        "ግ",
        "ድ"
      ],
      [
        "ፀ",
        "ና"
      ],
      [
        "ፊ",
        "ቱ"
      ],
      [
        "በት",
        "ን"
      ],
      [
        "ድን",
        "ቅ"
      ],
      [
        "መል",
        "ካም"
      ],
      [
        "ልብ",
        "ህ"
      ],
      [
        "ዘን",
        "ድ"
      ],
      [
        "ተን",
        "ኮ"
      ],
      [
        "ኢየሡ",
        "ሥን"
      ],
      [
        "ተነ",
        "ሥ"
      ],
      [
        "ይቅር",
        "ታ"
      ],
      [
        "እመ",
        "ቤቴ"
      ],
      [
        "እጅ",
        "ግ"
      ],
      [
        "ይህን",
        "ን"
      ],
      [
        "አንደ",
        "በት"
      ],
      [
        "ካህ",
        "ናት"
      ],
      [
        "በእም",
        "ነት"
      ],
      [
        "ህ",
        "ም"
      ],
      [
        "ለ",
        "የ"
      ],
      [
        "ለ",
        "ይ"
      ],
      [
        "ል",
        "በ"
      ],
      [
        "ሏ",
        "ቸው"
      ],
      [
        "መ",
        "ክ"
      ],
      [
        "ሙ",
        "ት"
      ],
      [
        "ም",
        "ድ"
      ],
      [
        "ሢ",
        "ል"
      ],
      [
        "ሣ",
        "ር"
      ],
      [
        "ሬ",
        "ን"
      ],
      [
        "ቃ",
        "ና"
      ],
      [
        "ቃ",
        "ን"
      ],
      [
        "በ",
        "ፈ"
      ],
      [
        "በ",
        "እን"
      ],
      [
        "በ",
        "ሠማይ"
      ],
      [
        "ተ",
        "ክ"
      ],
      [
        "ተ",
        "ገ"
      ],
      [
        "ነ",
        "ነ"
      ],
      [
        "አ",
        "ዋ"
      ],
      [
        "አ",
        "ዘ"
      ],
      [
        "ከ",
        "ተማ"
      ],
      [
        "ዋ",
        "ት"
      ],
      [
        "ዝ",
        "ን"
      ],
      [
        "የ",
        "ዘ"
      ],
      [
        "የ",
        "ሆነ"
      ],
      [
        "የ",
        "ሆነው"
      ],
      [
        "ያ",
        "ሣ"
      ],
      [
        "ይ",
        "ሠ"
      ],
      [
        "ይ",
        "ሠማ"
      ],
      [
        "ድ",
        "ሥ"
      ],
      [
        "ገ",
        "ሥ"
      ],
      [
        "ገ",
        "ዛ"
      ],
      [
        "ጋ",
        "ው"
      ],
      [
        "ግ",
        "ና"
      ],
      [
        "ጥ",
        "ም"
      ],
      [
        "ጴ",
        "ጥሮ"
      ],
      [
        "ጹ",
        "ም"
      ],
      [
        "ፁ",
        "ም"
      ],
      [
        "ፈ",
        "ታ"
      ],
      [
        "ፍ",
        "ጡ"
      ],
      [
        "ፍ",
        "ፁም"
      ],
      [
        "ነው",
        "ና"
      ],
      [
        "ሁሉ",
        "ንም"
      ],
      [
        "ብር",
        "ሀ"
      ],
      [
        "አል",
        "ጋ"
      ],
      [
        "እኔ",
        "ን"
      ],
      [
        "ያን",
        "ን"
      ],
      [
        "አንድ",
        "ነት"
      ],
      [
        "በደ",
        "ሥታ"
      ],
      [
        "ሣይ",
        "ሆን"
      ],
      [
        "ተማ",
        "ሪ"
      ],
      [
        "መቅ",
        "ደሥ"
      ],
      [
        "ጠፍ",
        "ቶ"
      ],
      [
        "አንዳ",
        "ች"
      ],
      [
        "ሥቃ",
        "ይ"
      ],
      [
        "ታላ",
        "ቅ"
      ],
      [
        "ወንጌ",
        "ል"
      ],
      [
        "አክሊ",
        "ል"
      ],
      [
        "ህ",
        "ፃ"
      ],
      [
        "ለ",
        "ኔ"
      ],
      [
        "ሊ",
        "ቀ"
      ],
      [
        "ሌ",
        "ሊት"
      ],
      [
        "ል",
        "ቦ"
      ],
      [
        "ማ",
        "ለት"
      ],
      [
        "ም",
        "ክን"
      ],
      [
        "ሟ",
        "ን"
      ],
      [
        "ሠ",
        "ረ"
      ],
      [
        "ሠ",
        "ቀ"
      ],
      [
        "ሥ",
        "ማ"
      ],
      [
        "ሩ",
        "ህ"
      ],
      [
        "ራ",
        "ው"
      ],
      [
        "ራ",
        "ቸው"
      ],
      [
        "ሽ",
        "ኝ"
      ],
      [
        "ቀ",
        "ዳ"
      ],
      [
        "ቃ",
        "ሉ"
      ],
      [
        "ቃ",
        "ጥ"
      ],
      [
        "በ",
        "ሣ"
      ],
      [
        "በ",
        "ዝ"
      ],
      [
        "በ",
        "ጎ"
      ],
      [
        "በ",
        "ሠው"
      ],
      [
        "በ",
        "ዚህ"
      ],
      [
        "በ",
        "ሥጋ"
      ],
      [
        "በ",
        "ሙሉ"
      ],
      [
        "ባ",
        "ረ"
      ],
      [
        "ባ",
        "ኤ"
      ],
      [
        "ብ",
        "ረ"
      ],
      [
        "ተ",
        "ኛ"
      ],
      [
        "ተ",
        "ብሎ"
      ],
      [
        "ት",
        "እ"
      ],
      [
        "ት",
        "ህትና"
      ],
      [
        "ቶ",
        "ቹ"
      ],
      [
        "ነ",
        "ቃ"
      ],
      [
        "አ",
        "ኩ"
      ],
      [
        "አ",
        "ዎ"
      ],
      [
        "አ",
        "ቸው"
      ],
      [
        "አ",
        "ቤት"
      ],
      [
        "ካ",
        "ን"
      ],
      [
        "ክ",
        "ፋ"
      ],
      [
        "ወ",
        "ቀ"
      ],
      [
        "ወ",
        "ዴት"
      ],
      [
        "ዘ",
        "ም"
      ],
      [
        "ዮ",
        "ሥ"
      ],
      [
        "ደ",
        "ክ"
      ],
      [
        "ዲ",
        "ሥ"
      ],
      [
        "ዲ",
        "ት"
      ],
      [
        "ጆ",
        "ሮ"
      ],
      [
        "ግ",
        "ራ"
      ],
      [
        "ጠ",
        "ኝ"
      ],
      [
        "ጠ",
        "ጣ"
      ],
      [
        "ጨ",
        "ለማ"
      ],
      [
        "ፍ",
        "ታ"
      ],
      [
        "እንደ",
        "ምን"
      ],
      [
        "የተ",
        "ማ"
      ],
      [
        "መን",
        "ገ"
      ],
      [
        "ድን",
        "ገት"
      ],
      [
        "እና",
        "ም"
      ],
      [
        "ጌታ",
        "ዬ"
      ],
      [
        "እንዲ",
        "ያ"
      ],
      [
        "ምሥ",
        "ክር"
      ],
      [
        "ምሥ",
        "ጉን"
      ],
      [
        "ልጅ",
        "ሽ"
      ],
      [
        "ወይ",
        "ን"
      ],
      [
        "አዳ",
        "ምን"
      ],
      [
        "ነፍ",
        "ሤን"
      ],
      [
        "እውነት",
        "ን"
      ],
      [
        "ተቀ",
        "ም"
      ],
      [
        "ሠይ",
        "ጣን"
      ],
      [
        "አድር",
        "ጎ"
      ],
      [
        "ሀዋርያ",
        "ት"
      ],
      [
        "መሥቀ",
        "ሉ"
      ],
      [
        "ቅድ",
        "ሥት"
      ],
      [
        "መዝሙ",
        "ር"
      ],
      [
        "ሢኦ",
        "ል"
      ],
      [
        "ሀ",
        "ብ"
      ],
      [
        "ሀ",
        "ና"
      ],
      [
        "ሀ",
        "ሠት"
      ],
      [
        "ሄ",
        "ዱ"
      ],
      [
        "ሆ",
        "ኜ"
      ],
      [
        "ለ",
        "ሚ"
      ],
      [
        "ል",
        "ቡ"
      ],
      [
        "ል",
        "ጁ"
      ],
      [
        "መ",
        "ሪ"
      ],
      [
        "መ",
        "ቀ"
      ],
      [
        "መ",
        "ፃ"
      ],
      [
        "መ",
        "ሬት"
      ],
      [
        "ሠ",
        "ኝ"
      ],
      [
        "ሠ",
        "አ"
      ],
      [
        "ሢ",
        "ሆን"
      ],
      [
        "ሥ",
        "ው"
      ],
      [
        "ረ",
        "ግ"
      ],
      [
        "ራ",
        "ሥ"
      ],
      [
        "ራ",
        "ሽ"
      ],
      [
        "ሸ",
        "ን"
      ],
      [
        "ቆ",
        "ም"
      ],
      [
        "ባ",
        "ለው"
      ],
      [
        "ተ",
        "ቆ"
      ],
      [
        "ተ",
        "ት"
      ],
      [
        "ተ",
        "ከ"
      ],
      [
        "ተ",
        "ጋ"
      ],
      [
        "ተ",
        "ግ"
      ],
      [
        "ተ",
        "አም"
      ],
      [
        "ታ",
        "ሪ"
      ],
      [
        "ት",
        "ምህር"
      ],
      [
        "ነ",
        "ጋ"
      ],
      [
        "ነ",
        "ፃ"
      ],
      [
        "ነ",
        "ቱን"
      ],
      [
        "ን",
        "ብ"
      ],
      [
        "ኖ",
        "ረው"
      ],
      [
        "አ",
        "ታ"
      ],
      [
        "አ",
        "ጣ"
      ],
      [
        "አ",
        "ሏቸው"
      ],
      [
        "ከ",
        "ረ"
      ],
      [
        "ከ",
        "አ"
      ],
      [
        "ከ",
        "እን"
      ],
      [
        "ከ",
        "ዚህ"
      ],
      [
        "ኪ",
        "ማሥ"
      ],
      [
        "ወ",
        "ዲያ"
      ],
      [
        "ዜ",
        "ር"
      ],
      [
        "የ",
        "ወ"
      ],
      [
        "የ",
        "ፈ"
      ],
      [
        "የ",
        "እግዚአብሄር"
      ],
      [
        "ያ",
        "ችን"
      ],
      [
        "ዮ",
        "ሀንሥ"
      ],
      [
        "ዳ",
        "ኖሥ"
      ],
      [
        "ዶ",
        "ኪማሥ"
      ],
      [
        "ጅ",
        "ራ"
      ],
      [
        "ገ",
        "ኛ"
      ],
      [
        "ጉ",
        "ዞ"
      ],
      [
        "ግ",
        "ሥ"
      ],
      [
        "ጣ",
        "ው"
      ],
      [
        "ጣ",
        "ቸው"
      ],
      [
        "ጦ",
        "ር"
      ],
      [
        "ጽ",
        "ድቅ"
      ],
      [
        "ፍ",
        "ጹም"
      ],
      [
        "እን",
        "ጠይቅ"
      ],
      [
        "እንደ",
        "ሚ"
      ],
      [
        "ሠው",
        "ን"
      ],
      [
        "አል",
        "ፎ"
      ],
      [
        "በረ",
        "ታ"
      ],
      [
        "መለ",
        "ሠ"
      ],
      [
        "እየ",
        "ሡ"
      ],
      [
        "አንተ",
        "ን"
      ],
      [
        "ሀይ",
        "ል"
      ],
      [
        "የሚያ",
        "ደር"
      ],
      [
        "ገድ",
        "ል"
      ],
      [
        "አመ",
        "ፀ"
      ],
      [
        "ክህ",
        "ደት"
      ],
      [
        "አላ",
        "ማ"
      ],
      [
        "ሠም",
        "ቶ"
      ],
      [
        "አንደ",
        "በ"
      ],
      [
        "ቀድ",
        "ሞ"
      ],
      [
        "ከፈ",
        "ለ"
      ],
      [
        "ተሸ",
        "ክ"
      ],
      [
        "ሁሌ",
        "ም"
      ],
      [
        "አምላኩ",
        "ን"
      ],
      [
        "ቸር",
        "ነት"
      ],
      [
        "ተንኮ",
        "ል"
      ],
      [
        "ፍጡ",
        "ር"
      ],
      [
        "ልቦ",
        "ና"
      ],
      [
        "ሄ",
        "ም"
      ],
      [
        "ለ",
        "ያ"
      ],
      [
        "ለ",
        "እኔ"
      ],
      [
        "ለ",
        "ክብ"
      ],
      [
        "ሊ",
        "ቃ"
      ],
      [
        "ሊ",
        "ያሥ"
      ],
      [
        "ላ",
        "ጅ"
      ],
      [
        "ላ",
        "ለም"
      ],
      [
        "ሎ",
        "ሄ"
      ],
      [
        "መ",
        "ሀል"
      ],
      [
        "ም",
        "ሮ"
      ],
      [
        "ሞ",
        "ተ"
      ],
      [
        "ሞ",
        "ልቶ"
      ],
      [
        "ሠ",
        "ለ"
      ],
      [
        "ሢ",
        "መጣ"
      ],
      [
        "ሣ",
        "ሌ"
      ],
      [
        "ሣ",
        "ያሥ"
      ],
      [
        "ሥ",
        "ቀ"
      ],
      [
        "ረ",
        "ን"
      ],
      [
        "ረ",
        "ዳ"
      ],
      [
        "ራ",
        "ሡ"
      ],
      [
        "ር",
        "ባ"
      ],
      [
        "ሮ",
        "ን"
      ],
      [
        "ቁ",
        "ም"
      ],
      [
        "ቃ",
        "ለሁ"
      ],
      [
        "ቅ",
        "ዳሤ"
      ],
      [
        "ባ",
        "ችን"
      ],
      [
        "ቤ",
        "ዛ"
      ],
      [
        "ብ",
        "ለህ"
      ],
      [
        "ብ",
        "ዛት"
      ],
      [
        "ታ",
        "ል"
      ],
      [
        "ታ",
        "ች"
      ],
      [
        "ና",
        "ፍ"
      ],
      [
        "አ",
        "ህ"
      ],
      [
        "አ",
        "ካል"
      ],
      [
        "ኤ",
        "ሎሄ"
      ],
      [
        "ካ",
        "ላ"
      ],
      [
        "ካ",
        "ለው"
      ],
      [
        "የ",
        "ል"
      ],
      [
        "የ",
        "ቱ"
      ],
      [
        "የ",
        "ና"
      ],
      [
        "የ",
        "አባ"
      ],
      [
        "የ",
        "ነበረ"
      ],
      [
        "ያ",
        "ዘ"
      ],
      [
        "ያ",
        "ደ"
      ],
      [
        "ያ",
        "ደረ"
      ],
      [
        "ይ",
        "ዞ"
      ],
      [
        "ደ",
        "ል"
      ],
      [
        "ደ",
        "ባ"
      ],
      [
        "ዳ",
        "ር"
      ],
      [
        "ዳ",
        "ና"
      ],
      [
        "ድ",
        "ጓ"
      ],
      [
        "ጀ",
        "መረ"
      ],
      [
        "ገ",
        "ሩ"
      ],
      [
        "ጋ",
        "ይ"
      ],
      [
        "ግ",
        "ሥት"
      ],
      [
        "ጠ",
        "ሩ"
      ],
      [
        "ጣ",
        "ል"
      ],
      [
        "ጨ",
        "ነቅ"
      ],
      [
        "ጭ",
        "ንቀ"
      ],
      [
        "ፋ",
        "ና"
      ],
      [
        "አን",
        "ገ"
      ],
      [
        "አለ",
        "ሙ"
      ],
      [
        "ብር",
        "ቱ"
      ],
      [
        "በእ",
        "ሣት"
      ],
      [
        "አት",
        "በሉ"
      ],
      [
        "ሥት",
        "መ"
      ],
      [
        "እንዲ",
        "ሁ"
      ],
      [
        "እንዳ",
        "ን"
      ],
      [
        "እግ",
        "ዜር"
      ],
      [
        "እር",
        "ሷ"
      ],
      [
        "ህይወ",
        "ቴ"
      ],
      [
        "መሠ",
        "ረ"
      ],
      [
        "ወን",
        "በ"
      ],
      [
        "ወን",
        "ድ"
      ],
      [
        "የም",
        "ት"
      ],
      [
        "ነፍ",
        "ሥ"
      ],
      [
        "አር",
        "ጎ"
      ],
      [
        "በራ",
        "ሡ"
      ],
      [
        "ጠር",
        "ቶ"
      ],
      [
        "በሀ",
        "ጥ"
      ],
      [
        "አንዱ",
        "ን"
      ],
      [
        "አምላኬ",
        "ን"
      ],
      [
        "ተወ",
        "ኝ"
      ],
      [
        "ልጇ",
        "ን"
      ],
      [
        "ነቢ",
        "ዩ"
      ],
      [
        "ጴጥሮ",
        "ሥ"
      ],
      [
        "ተአም",
        "ር"
      ],
      [
        "ጅራ",
        "ፍ"
      ],
      [
        "እየሡ",
        "ሥ"
      ],
      [
        "ሁ",
        "ኝ"
      ],
      [
        "ሁ",
        "ለት"
      ],
      [
        "ሄ",
        "ሮ"
      ],
      [
        "ሄ",
        "ዋን"
      ],
      [
        "ህ",
        "ግ"
      ],
      [
        "ለ",
        "ሥጋ"
      ],
      [
        "ሊ",
        "ና"
      ],
      [
        "ላ",
        "ችን"
      ],
      [
        "ሌ",
        "ት"
      ],
      [
        "መ",
        "ሆ"
      ],
      [
        "መ",
        "መ"
      ],
      [
        "መ",
        "ቃ"
      ],
      [
        "መ",
        "ት"
      ],
      [
        "መ",
        "ካ"
      ],
      [
        "መ",
        "ዳ"
      ],
      [
        "ማ",
        "እ"
      ],
      [
        "ሜ",
        "ጋ"
      ],
      [
        "ሢ",
        "ያሥ"
      ],
      [
        "ሣ",
        "ሉ"
      ],
      [
        "ሣ",
        "ቤ"
      ],
      [
        "ሣ",
        "ቱ"
      ],
      [
        "ሤ",
        "ፍ"
      ],
      [
        "ሥ",
        "ሟን"
      ],
      [
        "ሦ",
        "ች"
      ],
      [
        "ራ",
        "ቅ"
      ],
      [
        "ራ",
        "ዊ"
      ],
      [
        "ር",
        "ህ"
      ],
      [
        "ር",
        "ቅ"
      ],
      [
        "ሾ",
        "ህ"
      ],
      [
        "ቀ",
        "ላ"
      ],
      [
        "ቀ",
        "ጥ"
      ],
      [
        "በ",
        "ሡ"
      ],
      [
        "በ",
        "ኔ"
      ],
      [
        "በ",
        "ኝ"
      ],
      [
        "በ",
        "ቃል"
      ],
      [
        "በ",
        "አንቺ"
      ],
      [
        "በ",
        "ተሥፋ"
      ],
      [
        "በ",
        "ዚያ"
      ],
      [
        "ብ",
        "ህ"
      ],
      [
        "ብ",
        "ቅ"
      ],
      [
        "ተ",
        "ዘ"
      ],
      [
        "ተ",
        "ነሣ"
      ],
      [
        "ታ",
        "ረ"
      ],
      [
        "ታ",
        "ዘ"
      ],
      [
        "ት",
        "ቼ"
      ],
      [
        "ቺ",
        "ን"
      ],
      [
        "ች",
        "ሎ"
      ],
      [
        "ነ",
        "ባ"
      ],
      [
        "ኖ",
        "ሮ"
      ],
      [
        "አ",
        "ሠ"
      ],
      [
        "አ",
        "ሸ"
      ],
      [
        "አ",
        "ግ"
      ],
      [
        "አ",
        "ገኘ"
      ],
      [
        "እ",
        "ሷ"
      ],
      [
        "ኦ",
        "ት"
      ],
      [
        "ኦ",
        "ሜጋ"
      ],
      [
        "ከ",
        "ሚ"
      ],
      [
        "ከ",
        "ጌታ"
      ],
      [
        "ከ",
        "ሞት"
      ],
      [
        "ከ",
        "ምድር"
      ],
      [
        "ኸ",
        "ኝ"
      ],
      [
        "ወ",
        "ክ"
      ],
      [
        "ወ",
        "ልድ"
      ],
      [
        "ዉ",
        "ን"
      ],
      [
        "ዊ",
        "ው"
      ],
      [
        "ዋ",
        "ጋ"
      ],
      [
        "ዋ",
        "ህዶ"
      ],
      [
        "ው",
        "ለታ"
      ],
      [
        "የ",
        "ነ"
      ],
      [
        "የ",
        "ጥ"
      ],
      [
        "የ",
        "ህይወት"
      ],
      [
        "የ",
        "ሠጠ"
      ],
      [
        "ያ",
        "ቄ"
      ],
      [
        "ያ",
        "ድ"
      ],
      [
        "ይ",
        "ሥ"
      ],
      [
        "ይ",
        "ባ"
      ],
      [
        "ዮ",
        "ሤፍ"
      ],
      [
        "ደ",
        "ለ"
      ],
      [
        "ደ",
        "ፋ"
      ],
      [
        "ጆ",
        "ቹ"
      ],
      [
        "ጉ",
        "ያ"
      ],
      [
        "ግ",
        "ባ"
      ],
      [
        "ግ",
        "ዳ"
      ],
      [
        "ጠ",
        "ለ"
      ],
      [
        "ጠ",
        "ባ"
      ],
      [
        "ጥ",
        "ፋ"
      ],
      [
        "ጨ",
        "ረ"
      ],
      [
        "ፀ",
        "ሎት"
      ],
      [
        "ፈ",
        "ረ"
      ],
      [
        "ፉ",
        "ን"
      ],
      [
        "አን",
        "ሥ"
      ],
      [
        "አን",
        "ዲት"
      ],
      [
        "እንደ",
        "ገና"
      ],
      [
        "የተ",
        "ዋህዶ"
      ],
      [
        "ሠማ",
        "እ"
      ],
      [
        "በእ",
        "ግ"
      ],
      [
        "እኔ",
        "ሥ"
      ],
      [
        "እኔ",
        "ው"
      ],
      [
        "በረ",
        "ከ"
      ],
      [
        "በር",
        "ባን"
      ],
      [
        "ሥን",
        "ት"
      ],
      [
        "እሥ",
        "ካ"
      ],
      [
        "እሥ",
        "ክ"
      ],
      [
        "መሠ",
        "ረት"
      ],
      [
        "ዲያ",
        "ቢሎሥ"
      ],
      [
        "ገባ",
        "ው"
      ],
      [
        "ወጣ",
        "ት"
      ],
      [
        "ሠማይ",
        "ን"
      ],
      [
        "ጠራ",
        "ት"
      ],
      [
        "ውሥ",
        "ጤ"
      ],
      [
        "ሀጢ",
        "ያት"
      ],
      [
        "ሠጠ",
        "ው"
      ],
      [
        "ከፍ",
        "ታ"
      ],
      [
        "መቅ",
        "ደ"
      ],
      [
        "አሣ",
        "ል"
      ],
      [
        "ተና",
        "ገረ"
      ],
      [
        "አማ",
        "ኑ"
      ],
      [
        "ሥላ",
        "ሤ"
      ],
      [
        "እረ",
        "ኛ"
      ],
      [
        "ግር",
        "ማ"
      ],
      [
        "እመ",
        "ብርሀን"
      ],
      [
        "መከራ",
        "ው"
      ],
      [
        "እራ",
        "ሡን"
      ],
      [
        "ዮር",
        "ዳኖሥ"
      ],
      [
        "አለኝ",
        "ታ"
      ],
      [
        "መራ",
        "ራ"
      ],
      [
        "መድሀኒ",
        "ት"
      ],
      [
        "ትው",
        "ልድ"
      ],
      [
        "ሀገ",
        "ሬ"
      ],
      [
        "ወገ",
        "ኔ"
      ],
      [
        "በእር",
        "ሡ"
      ],
      [
        "ይሁ",
        "ዳ"
      ],
      [
        "ታድ",
        "ያ"
      ],
      [
        "ነነ",
        "ዌ"
      ],
      [
        "ሊቃ",
        "ውን"
      ],
      [
        "አትበሉ",
        "ኝ"
      ],
      [
        "ሥትመ",
        "ጪ"
      ],
      [
        "ወንበ",
        "ዴ"
      ],
      [
        "ሀ",
        "ሤት"
      ],
      [
        "ለ",
        "ኪ"
      ],
      [
        "ለ",
        "እኛ"
      ],
      [
        "ሉ",
        "ም"
      ],
      [
        "ላ",
        "ችሁ"
      ],
      [
        "ሌ",
        "ለው"
      ],
      [
        "ል",
        "ይ"
      ],
      [
        "ል",
        "ሄም"
      ],
      [
        "ሏ",
        "ት"
      ],
      [
        "መ",
        "ጋ"
      ],
      [
        "መ",
        "ሆን"
      ],
      [
        "መ",
        "ዳን"
      ],
      [
        "ማ",
        "ለ"
      ],
      [
        "ማ",
        "ሬ"
      ],
      [
        "ማ",
        "ግ"
      ],
      [
        "ም",
        "ረጥ"
      ],
      [
        "ሠ",
        "ባ"
      ],
      [
        "ሡ",
        "ም"
      ],
      [
        "ሢ",
        "ቃ"
      ],
      [
        "ሢ",
        "ታ"
      ],
      [
        "ሢ",
        "ሄድ"
      ],
      [
        "ሣ",
        "ኤ"
      ],
      [
        "ሣ",
        "ያ"
      ],
      [
        "ሤ",
        "ራ"
      ],
      [
        "ረ",
        "ገ"
      ],
      [
        "ረ",
        "ጋ"
      ],
      [
        "ራ",
        "ቱ"
      ],
      [
        "ራ",
        "ችን"
      ],
      [
        "ራ",
        "ሡን"
      ],
      [
        "ሻ",
        "ቸው"
      ],
      [
        "ሾ",
        "ላ"
      ],
      [
        "ቀ",
        "ቀ"
      ],
      [
        "ቁ",
        "ት"
      ],
      [
        "ቃ",
        "ት"
      ],
      [
        "ቅ",
        "ሦ"
      ],
      [
        "ቆ",
        "ሜ"
      ],
      [
        "ቆ",
        "ኝ"
      ],
      [
        "ቋ",
        "ም"
      ],
      [
        "በ",
        "ኛ"
      ],
      [
        "በ",
        "ምን"
      ],
      [
        "በ",
        "አለም"
      ],
      [
        "በ",
        "ለን"
      ],
      [
        "በ",
        "ክብር"
      ],
      [
        "በ",
        "ፊት"
      ],
      [
        "በ",
        "ኋላ"
      ],
      [
        "ቡ",
        "ነ"
      ],
      [
        "ብ",
        "ለ"
      ],
      [
        "ተ",
        "ሻ"
      ],
      [
        "ተ",
        "ካ"
      ],
      [
        "ተ",
        "ጎ"
      ],
      [
        "ተ",
        "ጨን"
      ],
      [
        "ቴ",
        "ና"
      ],
      [
        "ት",
        "ላ"
      ],
      [
        "ነ",
        "ይ"
      ],
      [
        "ን",
        "ኢ"
      ],
      [
        "ን",
        "ገረ"
      ],
      [
        "ኝ",
        "ን"
      ],
      [
        "አ",
        "ሉት"
      ],
      [
        "አ",
        "ዲሥ"
      ],
      [
        "እ",
        "ላ"
      ],
      [
        "እ",
        "ኚ"
      ],
      [
        "እ",
        "ጁ"
      ],
      [
        "እ",
        "ጣ"
      ],
      [
        "እ",
        "ርሥ"
      ],
      [
        "እ",
        "ማም"
      ],
      [
        "ከ",
        "ሠ"
      ],
      [
        "ከ",
        "ኔ"
      ],
      [
        "ከ",
        "ን"
      ],
      [
        "ከ",
        "ንቱ"
      ],
      [
        "ኩ",
        "ል"
      ],
      [
        "ካ",
        "ው"
      ],
      [
        "ኮ",
        "ከብ"
      ],
      [
        "ወ",
        "ሥ"
      ],
      [
        "ወ",
        "ጡ"
      ],
      [
        "ዙ",
        "ፋ"
      ],
      [
        "የ",
        "ሸ"
      ],
      [
        "የ",
        "ያ"
      ],
      [
        "የ",
        "ደ"
      ],
      [
        "የ",
        "ፍቅር"
      ],
      [
        "የ",
        "ደም"
      ],
      [
        "ዮ",
        "ን"
      ],
      [
        "ዱ",
        "ት"
      ],
      [
        "ዳ",
        "ነ"
      ],
      [
        "ዳ",
        "ቸው"
      ],
      [
        "ዴ",
        "ን"
      ],
      [
        "ድ",
        "ነው"
      ],
      [
        "ድ",
        "ካም"
      ],
      [
        "ጀ",
        "ርባ"
      ],
      [
        "ጅ",
        "ህ"
      ],
      [
        "ገ",
        "ብር"
      ],
      [
        "ግ",
        "ም"
      ],
      [
        "ግ",
        "ሮ"
      ],
      [
        "ግ",
        "ሩም"
      ],
      [
        "ጠ",
        "በ"
      ],
      [
        "ጠ",
        "የቀ"
      ],
      [
        "ጥ",
        "ግ"
      ],
      [
        "ጥ",
        "ለው"
      ],
      [
        "ጥ",
        "ፋት"
      ],
      [
        "ጨ",
        "ት"
      ],
      [
        "ጨ",
        "ንቀ"
      ],
      [
        "ጸ",
        "ሎት"
      ],
      [
        "ጽ",
        "ድ"
      ],
      [
        "ፃ",
        "ድ"
      ],
      [
        "ፈ",
        "ቃ"
      ],
      [
        "ፈ",
        "ፅ"
      ],
      [
        "ፈ",
        "ውሥ"
      ],
      [
        "ፊ",
        "ያ"
      ],
      [
        "ፍ",
        "ን"
      ],
      [
        "እን",
        "ጀ"
      ],
      [
        "እን",
        "ጅ"
      ],
      [
        "እን",
        "ቅል"
      ],
      [
        "አለ",
        "ች"
      ],
      [
        "አም",
        "ሥት"
      ],
      [
        "እንደ",
        "ዚህ"
      ],
      [
        "የሚ",
        "ያሥ"
      ],
      [
        "አይ",
        "ነት"
      ],
      [
        "ሠማ",
        "ያ"
      ],
      [
        "ትን",
        "ሣኤ"
      ],
      [
        "ወደ",
        "ደ"
      ],
      [
        "አል",
        "ቻ"
      ],
      [
        "አሥ",
        "ተማ"
      ],
      [
        "በረ",
        "ት"
      ],
      [
        "ሥለ",
        "ሆነ"
      ],
      [
        "መል",
        "አኩ"
      ],
      [
        "እሥ",
        "ቲ"
      ],
      [
        "ድንግል",
        "ን"
      ],
      [
        "ደረ",
        "ሠ"
      ],
      [
        "ምድር",
        "ን"
      ],
      [
        "ዘን",
        "ግ"
      ],
      [
        "ወጣ",
        "ቱ"
      ],
      [
        "አንቺ",
        "ን"
      ],
      [
        "በማ",
        "ለት"
      ],
      [
        "ባን",
        "ቺ"
      ],
      [
        "ግር",
        "ፋት"
      ],
      [
        "ጠብ",
        "ቅ"
      ],
      [
        "ሠላም",
        "ታ"
      ],
      [
        "እንድ",
        "ት"
      ],
      [
        "ሥሙ",
        "ን"
      ],
      [
        "ብላ",
        "ቴና"
      ],
      [
        "ገኘ",
        "ው"
      ],
      [
        "ፍር",
        "ድ"
      ],
      [
        "ፍቅ",
        "ሯን"
      ],
      [
        "ኢትዮጵ",
        "ያን"
      ],
      [
        "ጠን",
        "ቅ"
      ],
      [
        "ምሥራ",
        "ች"
      ],
      [
        "ለብ",
        "ሦ"
      ],
      [
        "አደረ",
        "ሠ"
      ],
      [
        "ምክን",
        "ያት"
      ],
      [
        "ታሪ",
        "ክ"
      ],
      [
        "ሄሮ",
        "ድሥ"
      ],
      [
        "አማኑ",
        "ኤል"
      ],
      [
        "እማም",
        "ላክ"
      ],
      [
        "ሀ",
        "ፍ"
      ],
      [
        "ህ",
        "ሊና"
      ],
      [
        "ለ",
        "ድ"
      ],
      [
        "ለ",
        "መሥ"
      ],
      [
        "ለ",
        "አምላክ"
      ],
      [
        "ላ",
        "ንተ"
      ],
      [
        "ሏ",
        "ል"
      ],
      [
        "መ",
        "ም"
      ],
      [
        "መ",
        "ሸ"
      ],
      [
        "መ",
        "ኪ"
      ],
      [
        "መ",
        "ዘ"
      ],
      [
        "መ",
        "ጡ"
      ],
      [
        "መ",
        "ኖር"
      ],
      [
        "መ",
        "ምህር"
      ],
      [
        "ሙ",
        "ታን"
      ],
      [
        "ሚ",
        "ሥ"
      ],
      [
        "ማ",
        "ል"
      ],
      [
        "ማ",
        "ሣ"
      ],
      [
        "ማ",
        "ቸው"
      ],
      [
        "ሞ",
        "ቱ"
      ],
      [
        "ሠ",
        "ቅ"
      ],
      [
        "ሢ",
        "ሠማ"
      ],
      [
        "ሣ",
        "ላ"
      ],
      [
        "ሣ",
        "ለሁ"
      ],
      [
        "ሦ",
        "ሥት"
      ],
      [
        "ረ",
        "ደ"
      ],
      [
        "ሪ",
        "ት"
      ],
      [
        "ራ",
        "ችሁ"
      ],
      [
        "ራ",
        "ሤን"
      ],
      [
        "ር",
        "ሡ"
      ],
      [
        "ሽ",
        "ው"
      ],
      [
        "ቀ",
        "ይ"
      ],
      [
        "ቀ",
        "ፍ"
      ],
      [
        "ቀ",
        "በል"
      ],
      [
        "ቆ",
        "ሞ"
      ],
      [
        "ቆ",
        "ጥ"
      ],
      [
        "ቋ",
        "ቋም"
      ],
      [
        "በ",
        "ታ"
      ],
      [
        "በ",
        "ን"
      ],
      [
        "በ",
        "ዘ"
      ],
      [
        "በ",
        "አምላክ"
      ],
      [
        "በ",
        "ድንግል"
      ],
      [
        "በ",
        "ሉት"
      ],
      [
        "በ",
        "ፍጥ"
      ],
      [
        "በ",
        "ግብ"
      ],
      [
        "በ",
        "ንሥሀ"
      ],
      [
        "ብ",
        "ል"
      ],
      [
        "ብ",
        "ፅ"
      ],
      [
        "ቦ",
        "ት"
      ],
      [
        "ተ",
        "ለ"
      ],
      [
        "ተ",
        "መ"
      ],
      [
        "ተ",
        "ሽ"
      ],
      [
        "ተ",
        "ቃ"
      ],
      [
        "ተ",
        "ኝ"
      ],
      [
        "ተ",
        "ጣ"
[...]
