<pad>	0
<unk>	0
<s>	0
</s>	0
▁አ	-0
▁እ	-1
▁በ	-2
▁የ	-3
▁መ	-4
▁ከ	-5
▁ተ	-6
▁እን	-7
▁ሥ	-8
▁ለ	-9
▁ነ	-10
▁ይ	-11
▁ያ	-12
▁ሠ	-13
▁ወ	-14
▁ል	-15
▁ም	-16
▁ብ	-17
▁ሢ	-18
▁ማ	-19
▁አን	-20
▁ነው	-21
▁ደ	-22
ነት	-23
ቸው	-24
▁ት	-25
▁እንደ	-26
▁ባ	-27
▁ድ	-28
▁ላ	-29
▁አለ	-30
▁ፍ	-31
▁ግ	-32
▁የሚ	-33
ምላ	-34
▁ሁ	-35
▁ሀ	-36
▁ሣ	-37
በት	-38
▁ቀ	-39
ለው	-40
▁ሆ	-41
▁ክ	-42
▁አይ	-43
▁ዘ	-44
▁ታ	-45
▁ጠ	-46
ውን	-47
ችን	-48
▁ቢ	-49
▁ገ	-50
ለም	-51
▁በእ	-52
▁አምላ	-53
ጌታ	-54
ርሥ	-55
▁ሁሉ	-56
▁የተ	-57
▁ፈ	-58
▁በአ	-59
▁እያ	-60
ቅር	-61
▁እና	-62
▁ቅ	-63
▁ው	-64
ትን	-65
▁አል	-66
▁ሊ	-67
▁አሥ	-68
ንም	-69
▁ላይ	-70
▁ካ	-71
ንግ	-72
▁ህ	-73
▁እየ	-74
▁ጌታ	-75
▁እንዲ	-76
▁እኔ	-77
▁ጥ	-78
ምን	-79
▁ወደ	-80
▁እንዳ	-81
▁የአ	-82
▁ሥለ	-83
ማይ	-84
ብር	-85
ገር	-86
ህን	-87
ሆን	-88
ድር	-89
▁ምን	-90
ረው	-91
▁አምላክ	-92
ነው	-93
▁በመ	-94
ናት	-95
▁ን	-96
▁ግን	-97
▁አባ	-98
ቱን	-99
በር	-100
▁እሥ	-101
ርያ	-102
ንግል	-103
▁የእ	-104
ለት	-105
ሣት	-106
ላት	-107
▁ቤ	-108
መን	-109
▁ሠው	-110
▁ብሎ	-111
ሥቀ	-112
ረት	-113
ንገ	-114
▁ቃ	-115
▁ምሥ	-116
▁ለመ	-117
ሠው	-118
ውነት	-119
ሠማ	-120
በረ	-121
ይወ	-122
▁እግ	-123
ተው	-124
▁ሚ	-125
▁ዳ	-126
▁ጋ	-127
ችሁ	-128
▁ሞ	-129
▁ሥት	-130
ንድ	-131
▁ጊ	-132
▁የሚያ	-133
▁ኢ	-134
▁እር	-135
▁ክርሥ	-136
ለሁ	-137
ሥታ	-138
▁ዛ	-139
▁በደ	-140
▁የም	-141
ያት	-142
▁አመ	-143
ዲያ	-144
▁አት	-145
▁ከአ	-146
▁አንድ	-147
ቶሥ	-148
▁ሢያ	-149
▁ፍቅር	-150
ዚህ	-151
▁ሣይ	-152
▁ወይ	-153
▁አንተ	-154
ንተ	-155
አት	-156
▁የመ	-157
▁ያለ	-158
ሡሥ	-159
▁ዛሬ	-160
ሁን	-161
ሀን	-162
▁ፀ	-163
ያን	-164
ደር	-165
ዴት	-166
ሄር	-167
▁ልጅ	-168
▁ከእ	-169
▁ድንግል	-170
አብ	-171
ልን	-172
ሥት	-173
ባት	-174
ነሣ	-175
ዚአብ	-176
▁አደ	-177
ዚአብሄር	-178
▁መል	-179
▁ማን	-180
▁ጊዜ	-181
ረሥ	-182
▁ቃል	-183
▁ነበር	-184
▁በሀ	-185
▁ተቀ	-186
▁አዳ	-187
ሞት	-188
▁ሆይ	-189
▁ህይወ	-190
በል	-191
ፋት	-192
▁ዝ	-193
▁ለማ	-194
▁ለአ	-195
ቀው	-196
ናል	-197
▁ጎ	-198
የሡሥ	-199
▁በም	-200
▁ብር	-201
▁አም	-202
▁ክርሥቶሥ	-203
ለች	-204
ሎሥ	-205
መሥ	-206
መጣ	-207
ራት	-208
ኖር	-209
ዋን	-210
ገረ	-211
▁ቆ	-212
ሥቀል	-213
▁መን	-214
▁ሥራ	-215
ሉት	-216
ሩን	-217
ኤል	-218
▁ዮ	-219
ርያም	-220
▁በተ	-221
▁በፍ	-222
▁የማይ	-223
▁እውነት	-224
ላይ	-225
ቀር	-226
ዳን	-227
▁ሠማ	-228
▁ሥን	-229
▁እኛ	-230
▁ያል	-231
▁እንዴት	-232
ሽን	-233
▁ጨ	-234
▁ሊያ	-235
▁መለ	-236
▁ጋር	-237
ለን	-238
ልኝ	-239
▁አር	-240
ህር	-241
ሠጠ	-242
ኛል	-243
ጣሪ	-244
▁ሆነ	-245
▁ለእ	-246
▁አሣ	-247
▁አብ	-248
▁ዘመን	-249
ሆነ	-250
ሡን	-251
ወለ	-252
ጣን	-253
▁ጉ	-254
ምላክ	-255
▁ቅዱ	-256
▁በማ	-257
▁በሥ	-258
▁ቤት	-259
ለሥ	-260
ተማ	-261
ነቱ	-262
▁ሄ	-263
▁ልብ	-264
ሀይ	-265
ላም	-266
ሥፋ	-267
ቴን	-268
ትና	-269
ከራ	-270
ኸው	-271
ገባ	-272
ጣት	-273
▁ሥም	-274
▁ትን	-275
▁አባት	-276
ክር	-277
ዎች	-278
ዬን	-279
ጠራ	-280
ፊት	-281
▁በሠ	-282
▁ነገር	-283
ለህ	-284
ታት	-285
ያሥ	-286
ጠፋ	-287
▁ሙ	-288
▁መሠ	-289
▁መሥ	-290
▁በግ	-291
▁ተመ	-292
▁እሡ	-293
▁እሣት	-294
▁እንድ	-295
ምር	-296
ታው	-297
ከት	-298
ፈራ	-299
▁ራ	-300
▁መድ	-301
▁ሥላ	-302
▁ደግ	-303
ሤን	-304
ርቶ	-305
ንቅ	-306
ክህ	-307
ደት	-308
▁ነኝ	-309
▁ነፍ	-310
▁አጥ	-311
▁እመ	-312
▁ደም	-313
▁አለም	-314
▁እግዚአብሄር	-315
ለኝ	-316
ንቀ	-317
ያው	-318
▁ሌ	-319
▁ቁ	-320
▁ጣ	-321
▁ተማ	-322
▁ናት	-323
▁አላ	-324
▁እረ	-325
▁ለምን	-326
▁ይቅር	-327
መና	-328
ረገ	-329
ንቺ	-330
ደው	-331
ጠው	-332
▁ጭ	-333
ምነት	-334
▁ቀን	-335
▁በረ	-336
▁ተነ	-337
▁አማ	-338
▁እጅ	-339
▁ከመ	-340
▁ከፍ	-341
▁ምድር	-342
▁አንቺ	-343
▁እየተ	-344
▁እያለ	-345
▁ማርያም	-346
▁ኢየሡሥ	-347
ሉን	-348
▁ጸ	-349
▁አው	-350
▁እባ	-351
▁ከም	-352
▁የሠ	-353
▁ይህ	-354
▁አድር	-355
▁እሥከ	-356
▁ይህን	-357
ክት	-358
ዋህ	-359
ጉሥ	-360
▁ሀጢ	-361
▁ሆኖ	-362
▁መንገ	-363
▁ሠላም	-364
▁አሁን	-365
▁ህይወት	-366
ልድ	-367
ንን	-368
ወጣ	-369
ዊት	-370
የት	-371
ገኘ	-372
ፈሥ	-373
▁ጽ	-374
ታችን	-375
▁መላ	-376
▁ሠይ	-377
▁በል	-378
▁በር	-379
▁ተሠ	-380
▁አበ	-381
ድንግል	-382
▁ሁሉን	-383
▁መከራ	-384
መረ	-385
ሙን	-386
ሪያ	-387
ካም	-388
ጥሮ	-389
▁ዋ	-390
▁በህ	-391
▁ተና	-392
▁አያ	-393
▁የነ	-394
▁ድም	-395
▁ሁሉም	-396
▁ምሥጢ	-397
▁አይደ	-398
ረሣ	-399
ረኝ	-400
ርቅ	-401
ቀን	-402
ችው	-403
ዱን	-404
ገን	-405
▁ና	-406
▁አቅ	-407
▁ወን	-408
▁ውሀ	-409
▁የለ	-410
▁ሠማይ	-411
▁እንዳይ	-412
መው	-413
ማኖ	-414
ኑን	-415
ንቱ	-416
ኳን	-417
ዘን	-418
▁ፅ	-419
አለም	-420
▁መጠ	-421
▁ማህ	-422
▁ሥር	-423
▁ቢያ	-424
▁ከል	-425
▁የማ	-426
▁አለኝ	-427
▁አንደ	-428
▁አዳም	-429
▁እርሡ	-430
ላል	-431
ሎት	-432
ሥተ	-433
ሥቱ	-434
ርሡ	-435
በቃ	-436
ኞች	-437
ዋል	-438
ጆች	-439
ገል	-440
▁መር	-441
▁መጣ	-442
▁ባለ	-443
▁ብላ	-444
▁ዳግ	-445
▁ፍሬ	-446
▁ክብር	-447
▁ይኸው	-448
ሀል	-449
ሄድ	-450
ልም	-451
ልቅ	-452
ሥሀ	-453
ብሽ	-454
ብን	-455
ትዮ	-456
ኖሥ	-457
ከው	-458
ኩኝ	-459
ክብ	-460
ውሥ	-461
ደረ	-462
ድቅ	-463
ገድ	-464
ላቸው	-465
ዋህዶ	-466
ጥረት	-467
▁ሥጋ	-468
▁በት	-469
▁ብቻ	-470
▁ብዙ	-471
▁ተን	-472
▁አቤ	-473
▁አድ	-474
▁እነ	-475
▁ውሥ	-476
▁ዘመ	-477
▁ቅዱሥ	-478
▁ንጉሥ	-479
▁እናት	-480
▁ደሥታ	-481
▁አምላኬ	-482
ልህ	-483
ብቶ	-484
ናው	-485
ወደ	-486
ጉን	-487
ፍራ	-488
▁ሽ	-489
▁ቸ	-490
▁ኮ	-491
▁ጀ	-492
ባቸው	-493
ትዮጵ	-494
▁መቅ	-495
▁በጥ	-496
▁ተሸ	-497
▁እው	-498
▁ከቶ	-499
▁መድሀ	-500
▁ነበረ	-501
▁እንጂ	-502
▁ዛሬም	-503
▁ደግሞ	-504
▁እንኳን	-505
ሤት	-506
ርድ	-507
ናሥ	-508
ኛው	-509
ወን	-510
ገኝ	-511
▁ሸ	-512
ብሎሥ	-513
ታቸው	-514
▁መቼ	-515
▁ሠም	-516
▁በጣ	-517
▁ተከ	-518
▁ተጠ	-519
▁እራ	-520
▁ተሥፋ	-521
▁አደራ	-522
▁ያለው	-523
ዲያብሎሥ	-524
▁መሥቀል	-525
ረድ	-526
ኔን	-527
ከኝ	-528
ድሥ	-529
ፍቶ	-530
▁ፊ	-531
ማኖት	-532
እክት	-533
ክርሥ	-534
▁ሣለ	-535
▁በገ	-536
▁አሉ	-537
▁ዝም	-538
▁የል	-539
▁የዘ	-540
▁ይሄ	-541
▁ግር	-542
▁በአንድ	-543
መር	-544
ሠጥ	-545
ራራ	-546
ባል	-547
ታደ	-548
የው	-549
ዮር	-550
ጋው	-551
ናገር	-552
▁ሀይ	-553
▁ምህ	-554
▁በራ	-555
▁በቃ	-556
▁ተወ	-557
▁የሀ	-558
▁ደሥ	-559
▁ድረሥ	-560
▁ፈጣሪ	-561
▁እባክህ	-562
ሁድ	-563
ማት	-564
ምጣ	-565
ቅዱ	-566
በላ	-567
በዛ	-568
ቡን	-569
ብኝ	-570
ተህ	-571
ቶች	-572
ዚያ	-573
ዜማ	-574
ገለ	-575
ጠይ	-576
መለሥ	-577
ዋርያ	-578
▁መና	-579
▁ትው	-580
▁አረ	-581
▁አፍ	-582
▁ከተ	-583
▁ካል	-584
▁የቆ	-585
▁ፍቅ	-586
▁እመቤ	-587
▁እናቴ	-588
▁እንባ	-589
▁የለም	-590
▁መንገድ	-591
▁መድሀኒ	-592
▁ብርሀን	-593
ሊት	-594
መሠ	-595
ማር	-596
ሜን	-597
ሣል	-598
ሥራ	-599
ቀል	-600
ቀኝ	-601
በው	-602
በደ	-603
ቢት	-604
ብረ	-605
ታይ	-606
ኋላ	-607
ከብ	-608
ወቅ	-609
ዝሙ	-610
ደን	-611
ግባ	-612
ፈጠ	-613
ምህር	-614
▁ልክ	-615
▁መች	-616
▁ሞት	-617
▁ብዬ	-618
▁አክ	-619
▁የህ	-620
▁የኔ	-621
▁የደ	-622
▁የጠ	-623
▁ያን	-624
▁ምንም	-625
▁በጣም	-626
▁አባቴ	-627
▁የሠው	-628
▁ዮናሥ	-629
▁መንፈሥ	-630
ላቅ	-631
መድ	-632
ረሠ	-633
ርሦ	-634
ቃይ	-635
ክን	-636
ዳም	-637
ድን	-638
ጊሥ	-639
ፈለ	-640
▁ር	-641
▁ኖ	-642
ህትና	-643
ቲያን	-644
▁ሁሌ	-645
▁ሥሙ	-646
▁በሚ	-647
▁ብት	-648
▁ተፈ	-649
▁አዝ	-650
▁አየ	-651
▁የት	-652
▁ያሥ	-653
ዮርጊሥ	-654
▁ወይሥ	-655
▁ምሥጢር	-656
▁በፍቅር	-657
▁እንዳል	-658
ግዚአብሄር	-659
▁ጊዮርጊሥ	-660
ሁት	-661
ልፍ	-662
ምሮ	-663
ሠራ	-664
ሣን	-665
ሩም	-666
ሯን	-667
በሩ	-668
በራ	-669
ነቴ	-670
ኩት	-671
ኩን	-672
ዳሤ	-673
ገሬ	-674
▁ቦ	-675
▁ኤ	-676
ለበት	-677
ወለድ	-678
▁ለብ	-679
▁በከ	-680
▁በድ	-681
▁ቤተ	-682
▁እም	-683
▁ከሥ	-684
▁ከደ	-685
▁የታ	-686
▁ያኔ	-687
▁ጠብ	-688
▁ልጆች	-689
▁ሠአት	-690
▁በላይ	-691
▁ታዲያ	-692
▁አንዳ	-693
▁እናቱ	-694
▁የሆነ	-695
▁ዳግም	-696
▁ፀሀይ	-697
▁እንዲህ	-698
▁የአለም	-699
▁በእውነት	-700
▁አይደለም	-701
ሀት	-702
ለማ	-703
ልቶ	-704
ልና	-705
ረቱ	-706
ረጥ	-707
ሬት	-708
ቡህ	-709
ብህ	-710
ቷን	-711
ነቅ	-712
ነን	-713
ነፍ	-714
ንት	-715
ድሞ	-716
ጋና	-717
ጠብ	-718
ጡት	-719
ሀንሥ	-720
ኪዳን	-721
ወለደ	-722
ጠይቅ	-723
▁ልጇ	-724
▁ቀረ	-725
▁ባይ	-726
▁ኤል	-727
▁እኮ	-728
▁ከወ	-729
▁የሥ	-730
ትዮጵያ	-731
▁ማነው	-732
▁ብለው	-733
▁አመት	-734
▁እሥኪ	-735
▁እኛን	-736
▁ከላይ	-737
▁የድንግል	-738
ሞላ	-739
ሠት	-740
ረህ	-741
ረዳ	-742
በሠ	-743
ባን	-744
ብሎ	-745
ተን	-746
ቷል	-747
ከል	-748
ወድ	-749
ዘለ	-750
ገና	-751
ገው	-752
ጥቶ	-753
ፅና	-754
ፈር	-755
ፈው	-756
▁ኑ	-757
ርነት	-758
ይወት	-759
ጥሮሥ	-760
▁ለም	-761
▁ልቤ	-762
▁ልጄ	-763
▁ሢጠ	-764
▁በክ	-765
▁ቦታ	-766
▁ታም	-767
▁ትእ	-768
▁ነቢ	-769
▁አካ	-770
▁ከሠ	-771
▁ዘር	-772
▁የኢ	-773
▁የከ	-774
▁ፊት	-775
ብርሀን	-776
▁ሀገር	-777
▁ሞትን	-778
▁ሥቡህ	-779
▁ሥፍራ	-780
▁አለው	-781
▁አንዱ	-782
▁አክሊ	-783
▁እያሉ	-784
▁ይሁን	-785
▁ይሆን	-786
▁እምነት	-787
▁በመሥቀል	-788
▁አምላክን	-789
ሁሉ	-790
ለመ	-791
ለታ	-792
ማሥ	-793
ሠን	-794
ረን	-795
ሮች	-796
ቀመ	-797
ቀት	-798
ቃጥ	-799
ነግ	-800
ዋት	-801
ዛት	-802
ደድ	-803
ድል	-804
ድቃ	-805
ገሩ	-806
ጠን	-807
ጨን	-808
▁ጦ	-809
በረው	-810
ቢሎሥ	-811
ደርሥ	-812
▁ሆና	-813
▁ልታ	-814
▁ልት	-815
▁ሥታ	-816
▁በቅ	-817
▁በበ	-818
▁በዘ	-819
▁ተሥ	-820
▁ተደ	-821
▁ነሽ	-822
▁አሠ	-823
▁እማ	-824
▁ከነ	-825
▁ወዳ	-826
▁ወገ	-827
▁የፍ	-828
▁ጋራ	-829
▁ለዚህ	-830
▁መቅደ	-831
▁ሠዎች	-832
▁ሠይፍ	-833
▁ተመል	-834
▁እያየ	-835
▁ውሥጥ	-836
▁ገብቶ	-837
▁ጠላት	-838
▁ሀጢአት	-839
▁ተወለደ	-840
▁እንዳት	-841
▁መላእክት	-842
▁ዲያብሎሥ	-843
ህል	-844
ህም	-845
ልታ	-846
ልጃ	-847
መል	-848
መነ	-849
ምቶ	-850
ረደ	-851
ራል	-852
ራው	-853
ርም	-854
ርዳ	-855
ርጉ	-856
ቅም	-857
በሉ	-858
ቢያ	-859
እት	-860
ከሩ	-861
ውም	-862
ገሠ	-863
ግብ	-864
ፍት	-865
▁ች	-866
▁ኦ	-867
▁ዙ	-868
ህናት	-869
ንገት	-870
ይሁድ	-871
ጥያት	-872
▁ሄደ	-873
▁መጥ	-874
▁ሚያ	-875
▁ቅኔ	-876
▁በፈ	-877
▁ከሀ	-878
▁ዜማ	-879
▁የወ	-880
▁የገ	-881
▁ያላ	-882
▁ልመና	-883
▁መለኮ	-884
▁መዝሙ	-885
▁በደል	-886
▁ትንሽ	-887
▁አቤቱ	-888
▁የተማ	-889
▁ጠፍቶ	-890
ክርሥቶሥ	-891
▁ሀዋርያ	-892
▁በምድር	-893
▁አክሊል	-894
▁ይህንን	-895
▁በእምነት	-896
▁ክርሥቲያን	-897
ሙት	-898
ረጋ	-899
ረግ	-900
ራን	-901
ርፍ	-902
ሽኝ	-903
ቀና	-904
ቃል	-905
ታን	-906
ክል	-907
ኮል	-908
ዘው	-909
ዮሥ	-910
ዲሥ	-911
ዲት	-912
ድሜ	-913
ጌል	-914
ጠላ	-915
ጠል	-916
ጥር	-917
ጹም	-918
ፀና	-919
ፁም	-920
ፈል	-921
ፍታ	-922
▁ሤ	-923
▁ዞ	-924
▁ጆ	-925
ሏቸው	-926
ራቸው	-927
ድሥት	-928
▁ህዝ	-929
▁ሌላ	-930
▁ምት	-931
▁ምድ	-932
▁ሢል	-933
▁ሣት	-934
▁በን	-935
▁ተር	-936
▁ተዘ	-937
▁ነህ	-938
▁ነብ	-939
▁አዋ	-940
▁አዘ	-941
▁ከቤ	-942
▁ክብ	-943
▁ወለ	-944
▁ወር	-945
▁ይሠ	-946
▁ደረ	-947
▁ድል	-948
▁ጠፋ	-949
ሠማያት	-950
ጴጥሮሥ	-951
▁ቢሆን	-952
▁ባህር	-953
▁ተነሥ	-954
▁ነውና	-955
▁እጅግ	-956
▁ዘንድ	-957
▁ይሠማ	-958
▁ድንቅ	-959
▁ገነት	-960
▁ሣይሆን	-961
▁በሠማይ	-962
▁በረከት	-963
▁አንደበ	-964
▁አንዳች	-965
▁እመቤቴ	-966
▁እንዲያ	-967
▁ፍጥረት	-968
ህሩ	-969
መኝ	-970
ሙሉ	-971
ማን	-972
ሟን	-973
ሠረ	-974
ሠብ	-975
ሣይ	-976
ቀሠ	-977
ቀረ	-978
በሥ	-979
ባኤ	-980
ባይ	-981
ቦና	-982
ትቶ	-983
ኦል	-984
ዝን	-985
ደል	-986
ገሥ	-987
ጋይ	-988
ግል	-989
ጠር	-990
ጣው	-991
ጽና	-992
▁ጫ	-993
ላለም	-994
ሥቀሉ	-995
አቸው	-996
▁ለሚ	-997
▁ለሥ	-998
▁ለኔ	-999
▁ለኛ	-1000
▁ለካ	-1001
▁ላል	-1002
▁መታ	-1003
▁መክ	-1004
▁መው	-1005
▁መግ	-1006
▁ማእ	-1007
▁ሢቀ	-1008
▁ቀና	-1009
▁በወ	-1010
▁ተራ	-1011
▁ተዋ	-1012
▁አዎ	-1013
▁ክፉ	-1014
▁ወጣ	-1015
▁ያሣ	-1016
▁ያደ	-1017
▁ይሥ	-1018
▁ድን	-1019
▁ጆሮ	-1020
▁ግብ	-1021
▁ጥላ	-1022
▁ፀጋ	-1023
▁ፈጥ	-1024
▁ሀዘን	-1025
▁ልደት	-1026
▁መልአ	-1027
▁ምነው	-1028
▁ምክን	-1029
▁ሥቃይ	-1030
▁በአን	-1031
▁በዚህ	-1032
▁ተማሪ	-1033
▁ተብሎ	-1034
▁ታላቅ	-1035
▁ነፍሤ	-1036
▁ንሥሀ	-1037
▁አቤት	-1038
▁እናም	-1039
▁ከተማ	-1040
▁ወይን	-1041
▁ይመሥ	-1042
▁ሁሉንም	-1043
▁መልካም	-1044
▁ምህረት	-1045
▁ምሥጉን	-1046
▁ተዋህዶ	-1047
▁ትህትና	-1048
▁አዳምን	-1049
▁አድርጎ	-1050
▁እንደሚ	-1051
▁ይቅርታ	-1052
▁ጌታችን	-1053
▁አንደበት	-1054
▁እውነትን	-1055
ሁዳ	-1056
ልቁ	-1057
ልደ	-1058
መቅ	-1059
ሞተ	-1060
ራሽ	-1061
ራቅ	-1062
ራፍ	-1063
ርባ	-1064
ሸከ	-1065
ቁም	-1066
ቆም	-1067
ተት	-1068
ቶት	-1069
እን	-1070
ክሞ	-1071
ያል	-1072
ዶኪ	-1073
ጅሽ	-1074
ገኛ	-1075
ገዛ	-1076
ጊዜ	-1077
ግድ	-1078
ጡር	-1079
ፈታ	-1080
▁ሡ	-1081
▁ጅ	-1082
በረታ	-1083
ኖረው	-1084
ጣቸው	-1085
▁ሆኜ	-1086
▁ለሠ	-1087
▁መሪ	-1088
▁መፃ	-1089
▁ሙሤ	-1090
▁ማይ	-1091
▁ሠራ	-1092
▁ሠር	-1093
▁ሥማ	-1094
▁በቀ	-1095
▁በብ	-1096
▁በይ	-1097
▁በፀ	-1098
▁ተአ	-1099
▁ተገ	-1100
▁ታሪ	-1101
▁ታድ	-1102
▁ኋላ	-1103
▁ነገ	-1104
▁ኑሮ	-1105
▁አታ	-1106
▁አወ	-1107
▁አዛ	-1108
▁አጣ	-1109
▁ከር	-1110
▁ወድ	-1111
▁የበ	-1112
▁የያ	-1113
▁የጥ	-1114
▁ያረ	-1115
▁ገበ	-1116
▁ገባ	-1117
▁ጥበ	-1118
ዶኪማሥ	-1119
▁ሁሌም	-1120
▁ልቦና	-1121
▁መሬት	-1122
▁ማለት	-1123
▁ሢሆን	-1124
▁ሥትመ	-1125
▁በወን	-1126
▁ተቀም	-1127
▁አልፎ	-1128
▁አመፀ	-1129
▁አንገ	-1130
▁እኔን	-1131
▁ከዚህ	-1132
▁የአባ	-1133
▁ዳዊት	-1134
▁ጌታዬ	-1135
ሀይማኖት	-1136
▁ምሥክር	-1137
▁ምሥጋና	-1138
▁ቅድሥት	-1139
▁በደሥታ	-1140
▁ትምህር	-1141
▁ነፍሤን	-1142
▁አሏቸው	-1143
▁አምሥቱ	-1144
▁አንተን	-1145
▁ጴጥሮሥ	-1146
▁እንደምን	-1147
▁እንጠይቅ	-1148
▁የሚያደር	-1149
ሄም	-1150
ሄዱ	-1151
ለይ	-1152
ላጅ	-1153
ልክ	-1154
ልዩ	-1155
ሎሄ	-1156
መለ	-1157
ሠር	-1158
ሣሌ	-1159
ሣቱ	-1160
ሥም	-1161
ሥብ	-1162
ሮን	-1163
ሸን	-1164
ቀለ	-1165
ቀቀ	-1166
ቁት	-1167
በኝ	-1168
ተና	-1169
ታዘ	-1170
ንሥ	-1171
ከረ	-1172
ከተ	-1173
ከፋ	-1174
ያቄ	-1175
ደለ	-1176
ጁን	-1177
ግሮ	-1178
ግዳ	-1179
ጠኝ	-1180
ጥል	-1181
ፀን	-1182
ፈን	-1183
ፋቱ	-1184
ፋና	-1185
▁ዱ	-1186
▁ጩ	-1187
ሆነው	-1188
ራችሁ	-1189
ርጉም	-1190
ቀበል	-1191
ቃለሁ	-1192
ቃውን	-1193
ቅዱሥ	-1194
ነቱን	-1195
ናቸው	-1196
ዳቸው	-1197
ጢአት	-1198
ጨነቅ	-1199
▁ህግ	-1200
▁ለሀ	-1201
▁ልቡ	-1202
▁መቃ	-1203
▁ሠአ	-1204
▁ሢፈ	-1205
▁ሤት	-1206
▁ሥል	-1207
▁ራሡ	-1208
▁ቅን	-1209
▁በው	-1210
▁በዝ	-1211
▁ባል	-1212
▁ባዶ	-1213
▁ቤዛ	-1214
▁ተቆ	-1215
▁አህ	-1216
▁እሩ	-1217
▁ከዛ	-1218
▁ከፈ	-1219
▁ክህ	-1220
▁የቀ	-1221
▁የዳ	-1222
▁ይባ	-1223
▁ይዞ	-1224
▁ለእኔ	-1225
▁ለክብ	-1226
▁ሌሊት	-1227
▁ሢመጣ	-1228
▁በሙሉ	-1229
▁በራሡ	-1230
▁በዚያ	-1231
▁ብለህ	-1232
▁ብዛት	-1233
▁ነቢዩ	-1234
▁ናቸው	-1235
▁አሉት	-1236
▁አርጎ	-1237
▁አካል	-1238
▁ኤሎሄ	-1239
▁ከጌታ	-1240
▁ካለው	-1241
▁ወዲያ	-1242
▁የምት	-1243
▁የሠማ	-1244
ዲያቢሎሥ	-1245
▁መቅደሥ	-1246
▁መዝሙር	-1247
▁በእሣት	-1248
▁ተአምር	-1249
▁ትውልድ	-1250
▁አትበሉ	-1251
▁አንዱን	-1252
▁እንዳን	-1253
▁እየሡሥ	-1254
▁አንድነት	-1255
▁የእግዚአብሄር	-1256
ሁኝ	-1257
ህኑ	-1258
ለቅ	-1259
ለየ	-1260
ሊና	-1261
መራ	-1262
ማል	-1263
ማማ	-1264
ማሬ	-1265
ሜጋ	-1266
ሤፍ	-1267
ራዊ	-1268
ሾህ	-1269
ቃት	-1270
በቅ	-1271
በዴ	-1272
ብቃ	-1273
ተኛ	-1274
ቹን	-1275
ነባ	-1276
ነዌ	-1277
ንባ	-1278
ኦት	-1279
ከር	-1280
ካው	-1281
ኸኝ	-1282
ወሥ	-1283
ወር	-1284
ወት	-1285
ዉን	-1286
ዊው	-1287
ዋለ	-1288
ዜር	-1289
የቀ	-1290
ዳይ	-1291
ገብ	-1292
ጎች	-1293
ጠጣ	-1294
ፉን	-1295
▁ሦ	-1296
▁ረ	-1297
▁ኩ	-1298
▁ጮ	-1299
ህረት	-1300
ሆንም	-1301
ለምን	-1302
ላችሁ	-1303
ላችን	-1304
ባባይ	-1305
ባችን	-1306
▁ለወ	-1307
▁ለጥ	-1308
▁ልዩ	-1309
▁መሆ	-1310
▁መአ	-1311
▁ሙሉ	-1312
▁ምግ	-1313
▁ሢነ	-1314
▁በነ	-1315
▁በዛ	-1316
▁ባር	-1317
▁ባን	-1318
▁ተጋ	-1319
▁ተግ	-1320
▁ትቶ	-1321
▁ኖሮ	-1322
▁አግ	-1323
▁እል	-1324
▁እሠ	-1325
▁ከሚ	-1326
▁የና	-1327
▁ያድ	-1328
▁ጠላ	-1329
▁ፈል	-1330
ለአለም	-1331
▁ሀይል	-1332
▁ልብህ	-1333
▁መሀል	-1334
▁መለሠ	-1335
▁መሠረ	-1336
▁መራራ	-1337
▁በሀይ	-1338
▁በእም	-1339
▁ተቀበ	-1340
▁ተነሣ	-1341
▁ታድያ	-1342
▁አላማ	-1343
▁አልጋ	-1344
▁አሣል	-1345
▁አገኘ	-1346
▁እሥካ	-1347
▁እረኛ	-1348
▁እኔሥ	-1349
▁እኔው	-1350
▁እንቅ	-1351
▁እግር	-1352
▁ኦሜጋ	-1353
▁ከአን	-1354
▁ወልድ	-1355
▁ወገኔ	-1356
▁ውለታ	-1357
▁የሠጠ	-1358
▁የተሠ	-1359
▁የተባ	-1360
▁መሠረት	-1361
▁ሠማይን	-1362
▁ሥትመጪ	-1363
▁ቅዱሣን	-1364
▁በተሥፋ	-1365
▁በአንቺ	-1366
▁በእርሡ	-1367
▁ተናገረ	-1368
▁አለኝታ	-1369
▁አሥተማ	-1370
▁እራሡን	-1371
▁እንዲሁ	-1372
▁እንድት	-1373
▁ከምድር	-1374
▁መድሀኒት	-1375
▁አምላኩን	-1376
▁አምላኬን	-1377
▁አትበሉኝ	-1378
▁ኢየሡሥን	-1379
▁የህይወት	-1380
▁የተዋህዶ	-1381
ለሽ	-1382
ለያ	-1383
ሉም	-1384
ላው	-1385
ልሽ	-1386
ልጄ	-1387
ሏት	-1388
ምሥ	-1389
ሣቤ	-1390
ሣኤ	-1391
ሣው	-1392
ሦች	-1393
ረሻ	-1394
ረክ	-1395
ራቱ	-1396
ሬን	-1397
ሾላ	-1398
ቀድ	-1399
ቆኝ	-1400
ቋም	-1401
በቀ	-1402
በቱ	-1403
ቡነ	-1404
ታል	-1405
ቴና	-1406
ነሥ	-1407
ናን	-1408
ናወ	-1409
ኔው	-1410
ኝም	-1411
አቱ	-1412
ዛው	-1413
ደቱ	-1414
ዱት	-1415
ዳና	-1416
ዳጅ	-1417
ዴን	-1418
ጅህ	-1419
ጋት	-1420
ግሥ	-1421
ግሩ	-1422
ግር	-1423
ጠረ	-1424
ጠሩ	-1425
ጠገ	-1426
ጣል	-1427
ጥም	-1428
ጥረ	-1429
ጥቼ	-1430
ጨት	-1431
ፃን	-1432
ፊያ	-1433
▁ቋ	-1434
▁ፃ	-1435
▁ፋ	-1436
ራችን	-1437
ሮድሥ	-1438
ሻቸው	-1439
በደል	-1440
ኑኤል	-1441
ገባው	-1442
ገኘው	-1443
ጨንቀ	-1444
▁ሆን	-1445
▁ለኪ	-1446
▁ሊቀ	-1447
▁መካ	-1448
▁መዳ	-1449
▁መጋ	-1450
▁ምእ	-1451
▁ሢታ	-1452
▁ሣያ	-1453
▁ሤራ	-1454
▁ሥው	-1455
▁ቃሉ	-1456
▁በየ	-1457
▁በጋ	-1458
▁ባህ	-1459
▁ተክ	-1460
▁ተው	-1461
▁ትላ	-1462
▁ትቼ	-1463
▁ትግ	-1464
▁ነፃ	-1465
▁ንኢ	-1466
▁አሁ	-1467
▁አሸ	-1468
▁እሷ	-1469
▁እኚ	-1470
▁እጣ	-1471
▁ከበ	-1472
▁ከብ	-1473
▁ከታ	-1474
▁ወሠ	-1475
▁ዋጋ	-1476
▁የሸ	-1477
▁የካ	-1478
▁ይታ	-1479
▁ይዘ	-1480
▁ደር	-1481
▁ድር	-1482
▁ጉዞ	-1483
▁ጥግ	-1484
▁ጦር	-1485
▁ፈቃ	-1486
ርዳኖሥ	-1487
ንግሥት	-1488
▁ሀሠት	-1489
▁ሀሤት	-1490
▁ሁለት	-1491
▁ለእኛ	-1492
▁ለዘለ	-1493
▁ልጅሽ	-1494
▁ልጇን	-1495
▁መሆን	-1496
▁መዳን	-1497
▁ማህሌ	-1498
▁ምረጥ	-1499
▁ሠማእ	-1500
▁ሠማዩ	-1501
▁ሠውን	-1502
▁ሢሄድ	-1503
▁ሥሟን	-1504
▁ሥንት	-1505
▁ቀድሞ	-1506
▁ቅዳሤ	-1507
▁በምን	-1508
▁በሠው	-1509
▁በሥጋ	-1510
▁በትን	-1511
▁በትእ	-1512
▁በኋላ	-1513
▁በፊት	-1514
▁ባንቺ	-1515
▁ተጨን	-1516
▁ታሪክ	-1517
▁ንገረ	-1518
▁አለች	-1519
▁አልቻ	-1520
▁አዲሥ	-1521
▁እሥቲ	-1522
▁እርሥ	-1523
▁እርሷ	-1524
▁እንጀ	-1525
▁እንጅ	-1526
▁ከሞት	-1527
▁ከንቱ	-1528
▁ኪዳን	-1529
▁ወንድ	-1530
▁የቆመ	-1531
▁የደም	-1532
▁የጌታ	-1533
▁ያደረ	-1534
▁ይንገ	-1535
▁ዮሤፍ	-1536
▁ጀመረ	-1537
▁ግሩም	-1538
▁ጨለማ	-1539
▁ፈውሥ	-1540
▁ፍርድ	-1541
▁ፍጡር	-1542
▁ፍጹም	-1543
ትዮጵያን	-1544
▁ሊቃውን	-1545
▁ምድርን	-1546
▁ሠይጣን	-1547
▁ሥለሆነ	-1548
▁በማለት	-1549
▁በክብር	-1550
▁ብላቴና	-1551
▁አንቺን	-1552
▁አይነት	-1553
▁አደረሠ	-1554
▁ኤልያሥ	-1555
▁ካህናት	-1556
▁የፍቅር	-1557
▁ዮሀንሥ	-1558
▁ፍቅሯን	-1559
▁ምክንያት	-1560
▁ኢትዮጵያ	-1561
▁እማምላክ	-1562
▁እንደዚህ	-1563
▁የአምላክ	-1564
▁የኢየሡሥ	-1565
▁ድንግልን	-1566
▁እመብርሀን	-1567
▁የክርሥቶሥ	-1568
ለል	-1569
ለሙ	-1570
ለቱ	-1571
ለኛ	-1572
ለወ	-1573
ለድ	-1574
ሏል	-1575
መታ	-1576
ሡም	-1577
ሡት	-1578
ሣየ	-1579
ሪት	-1580
ርሷ	-1581
ርታ	-1582
ርጥ	-1583
ቁን	-1584
ቅዶ	-1585
በሣ	-1586
ባብ	-1587
ባቱ	-1588
ብሥ	-1589
ብሦ	-1590
ቦት	-1591
ተም	-1592
ቱም	-1593
ቱት	-1594
ቶን	-1595
ቺን	-1596
ነኝ	-1597
ኑት	-1598
ኖሩ	-1599
ኘት	-1600
ኝን	-1601
ኞት	-1602
ከመ	-1603
ኩል	-1604
ኸት	-1605
ዘብ	-1606
ዛብ	-1607
የረ	-1608
ደሉ	-1609
ደዱ	-1610
ዳው	-1611
ድህ	-1612
ድጓ	-1613
ጊያ	-1614
ግና	-1615
ጓዝ	-1616
ጠህ	-1617
ጠበ	-1618
ጥያ	-1619
ጾም	-1620
ፈች	-1621
ፊቱ	-1622
ፎች	-1623
▁ሺ	-1624
▁ጓ	-1625
▁ጡ	-1626
ሌለው	-1627
ምረው	-1628
ረሥቶ	-1629
ርተው	-1630
ቋቋም	-1631
ተናል	-1632
ታትን	-1633
ታዘዝ	-1634
ችንካ	-1635
ንገላ	-1636
ኤልን	-1637
ከበር	-1638
ከብር	-1639
ክብር	-1640
ወደደ	-1641
ያቸው	-1642
ያንን	-1643
ድነው	-1644
ጃችን	-1645
ጥለው	-1646
ጽድቅ	-1647
ፋትን	-1648
▁ለታ	-1649
▁ለት	-1650
▁ለነ	-1651
▁ለን	-1652
▁ልን	-1653
▁መነ	-1654
▁መኪ	-1655
▁ማሣ	-1656
▁ማር	-1657
▁ሠባ	-1658
▁ሢቃ	-1659
▁ሣር	-1660
▁ቃና	-1661
▁ቆሜ	-1662
▁ቆሞ	-1663
▁በላ	-1664
▁በባ	-1665
▁በኔ	-1666
▁በኛ	-1667
▁በጎ	-1668
▁በጨ	-1669
▁ብፅ	-1670
▁ተሞ	-1671
▁ተሻ	-1672
▁ተጎ	-1673
▁ተጣ	-1674
▁ታየ	-1675
▁ነዉ	-1676
▁ናፍ	-1677
▁እቃ	-1678
▁ከራ	-1679
▁ከጥ	-1680
▁ውሸ	-1681
▁ዙፋ	-1682
▁ዛፍ	-1683
▁የሣ	-1684
▁የባ	-1685
▁የኛ	-1686
▁የፀ	-1687
▁የፈ	-1688
▁ያቆ	-1689
▁ይወ	-1690
▁ዳር	-1691
▁ገላ	-1692
▁ጉል	-1693
▁ፊቱ	-1694
ቅዱሣን	-1695
ብርኤል	-1696
▁ሀጢአ	-1697
▁ህሊና	-1698
▁ለመሥ	-1699
▁ለብሦ	-1700
▁ለካሥ	-1701
▁ላንተ	-1702
▁መኖር	-1703
▁መፃጉ	-1704
▁ሞልቶ	-1705
▁ሠምቶ	-1706
▁ሠርቶ	-1707
▁ሢሠማ	-1708
▁ሥለኛ	-1709
▁ሥሙን	-1710
▁ሥትል	-1711
▁በረከ	-1712
▁በቃሉ	-1713
▁በብር	-1714
▁በግብ	-1715
▁ብርሀ	-1716
▁ተነሡ	-1717
▁ተወኝ	-1718
▁ትንቢ	-1719
▁አላት	-1720
▁አቃጥ	-1721
▁አንሥ	-1722
▁አይቶ	-1723
▁እባክ	-1724
▁እነሆ	-1725
▁እኔም	-1726
▁እንዴ	-1727
▁ከሥር	-1728
▁ከፈለ	-1729
▁ክፋት	-1730
▁ወልደ	-1731
▁ወደኔ	-1732
▁ወጣት	-1733
▁ዘንግ	-1734
▁የለው	-1735
▁የሚል	-1736
▁የሾላ	-1737
▁ያችን	-1738
▁ያንተ	-1739
▁ይሁዳ	-1740
▁ይምጣ	-1741
▁ይብቃ	-1742
▁ደመና	-1743
▁ድካም	-1744
▁ገድል	-1745
▁ግርማ	-1746
▁ጠርቶ	-1747
▁ጠበቃ	-1748
▁ጠንቅ	-1749
▁ጠየቀ	-1750
▁ጥላቻ	-1751
▁ጩኸት	-1752
▁ጭራሽ	-1753
▁ጭንቀ	-1754
▁ፍፁም	-1755
▁ለመማር	-1756
▁ለማየት	-1757
▁መሆኑን	-1758
▁መምህር	-1759
▁መከራው	-1760
▁ሢያሥተ	-1761
▁ሥለዚህ	-1762
▁በንሥሀ	-1763
▁በአለም	-1764
▁ተሸክሞ	-1765
▁ተናገር	-1766
▁ተንኮል	-1767
▁ተጨንቆ	-1768
▁ታምሯን	-1769
▁ቸርነት	-1770
▁አሣልፎ	-1771
▁አይሁድ	-1772
▁ከሠማይ	-1773
▁ክህደት	-1774
▁ወንጌል	-1775
▁የሚያሥ	-1776
▁የምሥራ	-1777
▁የአዳም	-1778
▁የእሣት	-1779
▁ይባላል	-1780
▁ደግሞም	-1781
▁ድንገት	-1782
▁ዶኪማሥ	-1783
▁ሀይማኖት	-1784
▁ለአምላክ	-1785
▁በሀጥያት	-1786
▁በአምላክ	-1787
▁በድንግል	-1788
▁አውቃለሁ	-1789
▁አደረሠሽ	-1790
▁ከሠማያት	-1791
▁የተማረው	-1792
▁የነበረው	-1793
▁የአይሁድ	-1794
▁ኢትዮጵያን	-1795
▁የኢትዮጵያ	-1796
▁እግዚአብሄርን	-1797
ህና	-1798
ለጋ	-1799
ለጥ	-1800
ልይ	-1801
መሽ	-1802
ሙሤ	-1803
ማም	-1804
ምና	-1805
ሠሠ	-1806
ሠኝ	-1807
ሠድ	-1808
ሣሉ	-1809
ሥን	-1810
ሥግ	-1811
ረም	-1812
ረሡ	-1813
ረዱ	-1814
ረጉ	-1815
ሩቅ	-1816
ራብ	-1817
ራኝ	-1818
ራፊ	-1819
ርን	-1820
ርዶ	-1821
ሮዬ	-1822
ሻር	-1823
ቀደ	-1824
ቀጣ	-1825
ቃዩ	-1826
ቅሎ	-1827
ቆጣ	-1828
ቋል	-1829
ባቂ	-1830
ቤተ	-1831
ብቅ	-1832
ብቆ	-1833
ተሽ	-1834
ቶቹ	-1835
ነሡ	-1836
ነቃ	-1837
ነቷ	-1838
ነድ	-1839
ናብ	-1840
ንክ	-1841
ኘው	-1842
ኙን	-1843
ኚቱ	-1844
ኡል	-1845
እክ	-1846
እይ	-1847
ኪዳ	-1848
ካኔ	-1849
ወቀ	-1850
ወቁ	-1851
ዘነ	-1852
ዘኑ	-1853
ዙት	-1854
የም	-1855
ዮን	-1856
ደች	-1857
ዲህ	-1858
ዳል	-1859
ዷን	-1860
ጆቹ	-1861
ገህ	-1862
ገም	-1863
ገጠ	-1864
ጉሡ	-1865
ጋሎ	-1866
ጠለ	-1867
ጠት	-1868
ጦሥ	-1869
ፃፈ	-1870
ፌን	-1871
▁ሂ	-1872
▁ሮ	-1873
ሄዋን	-1874
ልሄም	-1875
ማቸው	-1876
ሠጠው	-1877
ሢኦል	-1878
ሣነው	-1879
ረትን	-1880
ረጠው	-1881
ርሀት	-1882
ሸከም	-1883
ቀርቡ	-1884
በሉን	-1885
በትን	-1886
ብርሀ	-1887
ተኛው	-1888
ታችሁ	-1889
ታደሥ	-1890
ነቴን	-1891
ነፍሥ	-1892
ኛውን	-1893
ወድቅ	-1894
ወጣው	-1895
ዋለሁ	-1896
ዚያው	-1897
ያችሁ	-1898
ያዋን	-1899
ደረገ	-1900
ጀርባ	-1901
ገለጥ	-1902
ገረፈ	-1903
ግሥት	-1904
ግባር	-1905
ግኘት	-1906
ጠላት	-1907
ጠብቅ	-1908
ጣችን	-1909
ጥረው	-1910
ጥነት	-1911
ፅናና	-1912
ፈርሥ	-1913
ፈጠረ	-1914
▁ሀብ	-1915
▁ሄዳ	-1916
▁ለው	-1917
▁ለፍ	-1918
▁ልበ	-1919
▁መሀ	-1920
▁መዘ	-1921
▁ማሠ	-1922
▁ማሥ	-1923
▁ማደ	-1924
▁ሠቀ	-1925
▁ሠን	-1926
▁ሢሠ	-1927
▁ሢደ	-1928
▁ሣላ	-1929
▁ሣል	-1930
▁ሥብ	-1931
▁ራሥ	-1932
▁ሽማ	-1933
▁ቀር	-1934
▁በሌ	-1935
▁በታ	-1936
▁በዮ	-1937
▁ብን	-1938
▁ተል	-1939
▁ተቃ	-1940
▁ተባ	-1941
▁ተፀ	-1942
▁ታው	-1943
▁ታደ	-1944
▁ትዝ	-1945
▁ቸሩ	-1946
▁ችሎ	-1947
▁ነን	-1948
▁ነይ	-1949
▁አሻ	-1950
▁አእ	-1951
▁አፅ	-1952
▁አፈ	-1953
▁እደ	-1954
▁እድ	-1955
▁ከለ	-1956
▁ከኔ	-1957
▁ከን	-1958
▁ከው	-1959
▁ካላ	-1960
▁ወክ	-1961
▁የቱ	-1962
▁የን	-1963
▁የይ	-1964
▁የጣ	-1965
▁ይለ	-1966
▁ይገ	-1967
▁ድፍ	-1968
▁ገድ	-1969
▁ግና	-1970
▁ጠይ	-1971
▁ጣሪ	-1972
▁ፀን	-1973
ላእክት	-1974
ሥቀሉን	-1975
ኢየሡሥ	-1976
ዉያንን	-1977
ዋርያት	-1978
ገልጋይ	-1979
ጽናናት	-1980
▁ሀገሬ	-1981
▁ሄደች	-1982
▁ለሊት	-1983
▁ልጅህ	-1984
▁መናፍ	-1985
▁ምልጃ	-1986
▁ምሥራ	-1987
▁ሠማያ	-1988
▁ሡባኤ	-1989
▁ሢኦል	-1990
▁ሥለሷ	-1991
▁ሥላል	-1992
▁ሦሥት	-1993
▁ራሡን	-1994
▁ቁልቁ	-1995
▁ቃሉን	-1996
▁በሉት	-1997
▁በመል	-1998
▁በማህ	-1999
▁በሞት	-2000
▁በረሀ	-2001
▁በቀር	-2002
▁በቀን	-2003
▁በበረ	-2004
▁በእን	-2005
▁በክፉ	-2006
▁በጊዜ	-2007
▁በጌታ	-2008
▁በጥፊ	-2009
▁ባንድ	-2010
▁ብርቱ	-2011
▁ተለው	-2012
▁ተራራ	-2013
▁ትውል	-2014
▁አለና	-2015
▁አለፈ	-2016
▁አልቆ	-2017
▁አምል	-2018
▁አበሣ	-2019
▁አቡነ	-2020
▁አትር	-2021
▁አንዴ	-2022
▁አክብ	-2023
▁አዎን	-2024
▁አይተ	-2025
▁አይታ	-2026
▁እኚያ	-2027
▁እወቅ	-2028
▁እግሮ	-2029
▁እጣን	-2030
▁ከልጅ	-2031
▁ከዚያ	-2032
▁ከየት	-2033
▁ካንቺ	-2034
▁ወዴት	-2035
▁ወገን	-2036
▁ዘመድ	-2037
▁የሁሉ	-2038
▁የልጅ	-2039
▁የምን	-2040
▁የሞተ	-2041
▁የሞት	-2042
▁ያንን	-2043
▁ይልቅ	-2044
▁ደረሠ	-2045
▁ደርሦ	-2046
▁ድምፁ	-2047
▁ድምፅ	-2048
▁ጅራፍ	-2049
▁ጌታን	-2050
▁ጎዳና	-2051
▁ጠባቂ	-2052
▁ጥፋት	-2053
▁ጨርሦ	-2054
▁ጸሎት	-2055
▁ፈተና	-2056
▁ፈጥሮ	-2057
▁ፍሬን	-2058
▁ሀጥያት	-2059
▁ህይወቴ	-2060
▁ለአለም	-2061
▁ለአንተ	-2062
▁ለክብሯ	-2063
▁ልባችን	-2064
▁መለኮት	-2065
▁መልአክ	-2066
▁መቃብር	-2067
▁መወለድ	-2068
▁መግቢያ	-2069
▁ማህደር	-2070
▁ምሥጢሩ	-2071
▁በምልጃ	-2072
▁በርባን	-2073
▁በከንቱ	-2074
▁በገመድ	-2075
▁ብርታት	-2076
▁ተሠቀለ	-2077
▁ተቀበል	-2078
▁ተነሥቶ	-2079
▁ተንጋሎ	-2080
▁ትርጉም	-2081
▁ትንሣኤ	-2082
▁ትንቢት	-2083
▁ትእቢት	-2084
▁ናፍቆኝ	-2085
▁ንገረኝ	-2086
▁አሁንም	-2087
▁አህዛብ	-2088
▁አልፋና	-2089
▁አማላጅ	-2090
▁አምላኩ	-2091
▁አምላካ	-2092
▁አሥተው	-2093
▁አቅቶት	-2094
▁አዛኚቱ	-2095
▁አይደል	-2096
▁አደረገ	-2097
▁እንበል	-2098
▁እንደተ	-2099
▁እንደው	-2100
▁እንጀራ	-2101
▁እየፈራ	-2102
▁እያለች	-2103
▁ከወዴት	-2104
▁ወንበዴ	-2105
▁ውሀውን	-2106
▁የሆነው	-2107
▁የሚያው	-2108
▁የአምላ	-2109
▁ይሠቀል	-2110
▁ይናገር	-2111
▁ፍቅርን	-2112
▁ሀዋርያት	-2113
▁ለማግኘት	-2114
▁ላጽናናት	-2115
▁ምንድነው	-2116
▁ቃልኪዳን	-2117
▁በሀጢአት	-2118
▁በትህትና	-2119
▁በእምነቱ	-2120
▁በፍጥነት	-2121
▁ትምህርት	-2122
▁አማኑኤል	-2123
▁አድርገን	-2124
▁አገልጋይ	-2125
▁እንደገና	-2126
▁ከአምላክ	-2127
▁ወዳለበት	-2128
▁የተባለው	-2129
▁ይንገሩን	-2130
▁ዮርዳኖሥ	-2131
ሀፍ	-2132
ህራ	-2133
ህዝ	-2134
ሆና	-2135
ለለ	-2136
ለጠ	-2137
ሊላ	-2138
ላማ	-2139
ላሤ	-2140
ልሞ	-2141
ሎች	-2142
መመ	-2143
መሙ	-2144
መት	-2145
መኑ	-2146
መጥ	-2147
ሙም	-2148
ሜዳ	-2149
ምራ	-2150
ምሽ	-2151
ሞሥ	-2152
ሞቱ	-2153
ሞች	-2154
ሥል	-2155
ሥሦ	-2156
ሥር	-2157
ሦሦ	-2158
ረቃ	-2159
ረታ	-2160
ረካ	-2161
ረፈ	-2162
ራሥ	-2163
ርግ	-2164
ሮት	-2165
ሻል	-2166
ሽር	-2167
ቀም	-2168
ቀበ	-2169
ቀቱ	-2170
ቂም	-2171
ቂት	-2172
ቅሥ	-2173
ቆች	-2174
ቆዲ	-2175
በቁ	-2176
በባ	-2177
በብ	-2178
ቡት	-2179
ባር	-2180
ቤል	-2181
ቤቴ	-2182
ቤት	-2183
ተካ	-2184
ቲያ	-2185
ትም	-2186
ቶቼ	-2187
ቻል	-2188
ነህ	-2189
ነቁ	-2190
ነጋ	-2191
ናሽ	-2192
ናዬ	-2193
ናይ	-2194
ኖረ	-2195
ኖቼ	-2196
ኖና	-2197
አን	-2198
እና	-2199
ከለ	-2200
ከዳ	-2201
ከፍ	-2202
ኩህ	-2203
ኩሥ	-2204
ኪን	-2205
ካማ	-2206
ካሣ	-2207
ኬት	-2208
ወሠ	-2209
ዎት	-2210
ዘጋ	-2211
ዝል	-2212
ዞች	-2213
ያቱ	-2214
ደሡ	-2215
ዳት	-2216
ዳድ	-2217
ድሎ	-2218
ጀመ	-2219
ጀው	-2220
ጃፍ	-2221
ገኑ	-2222
ጉት	-2223
ጉያ	-2224
ጋዬ	-2225
ግሌ	-2226
ግም	-2227
ግሦ	-2228
ግሬ	-2229
ግጦ	-2230
ጎት	-2231
ጎን	-2232
ጠና	-2233
ጠፉ	-2234
ጲላ	-2235
ጻፈ	-2236
ፀም	-2237
ፁህ	-2238
ፅሞ	-2239
ፈተ	-2240
ፈቱ	-2241
ፋሥ	-2242
ፋፍ	-2243
ፍን	-2244
▁ቄ	-2245
▁ቻ	-2246
▁ኒ	-2247
▁ኔ	-2248
▁ኹ	-2249
▁ዩ	-2250
▁ጳ	-2251
▁ጻ	-2252
ህበት	-2253
ህነት	-2254
ለናል	-2255
ለኞች	-2256
መሠግ	-2257
መታት	-2258
መጣል	-2259
ማለሁ	-2260
ምክህ	-2261
ሞትን	-2262
ሠግድ	-2263
ሠጠን	-2264
ሣርፍ	-2265
ሣችን	-2266
ሣንን	-2267
ሥታት	-2268
ረበት	-2269
ራለች	-2270
ራንዮ	-2271
ርሠው	-2272
ርነቱ	-2273
ሻለሁ	-2274
ቀመጥ	-2275
በሩን	-2276
ችለው	-2277
ችልም	-2278
ናለን	-2279
ናንተ	-2280
ከበረ	-2281
ከውን	-2282
ከፈለ	-2283
ወረደ	-2284
ወደው	-2285
ውሥጤ	-2286
ያቄም	-2287
ይጣን	-2288
ድቃን	-2289
ድጓድ	-2290
ገረው	-2291
ጠራው	-2292
ጨረሻ	-2293
ፅበት	-2294
▁ሀገ	-2295
▁ሁኖ	-2296
▁ሄዶ	-2297
▁ሆድ	-2298
▁ለቅ	-2299
▁ለየ	-2300
▁ለይ	-2301
▁ሊቅ	-2302
▁ልቧ	-2303
▁ልጆ	-2304
▁መሢ	-2305
▁መባ	-2306
▁መት	-2307
▁ሙሽ	-2308
▁ሚሥ	-2309
▁ሚዳ	-2310
▁ሜዳ	-2311
▁ሠገ	-2312
▁ሠፊ	-2313
▁ሢዘ	-2314
▁ሣን	-2315
▁ሥሠ	-2316
▁ሥቀ	-2317
▁ሥቦ	-2318
▁ሸክ	-2319
▁ቀይ	-2320
▁ቀዳ	-2321
▁ቀጥ	-2322
▁ቅሉ	-2323
▁ቅል	-2324
▁በሉ	-2325
▁በሣ	-2326
▁በቁ	-2327
▁በቆ	-2328
▁በጉ	-2329
▁ባያ	-2330
▁ቤቱ	-2331
▁ተቸ	-2332
▁ተኝ	-2333
▁ታላ	-2334
▁ታሥ	-2335
▁ታረ	-2336
▁አሜ	-2337
▁አቁ	-2338
▁አና	-2339
▁ኢት	-2340
▁እብ	-2341
▁እዳ	-2342
▁እጄ	-2343
▁እጸ	-2344
▁ከባ	-2345
▁ካባ	-2346
▁ክር	-2347
▁ውል	-2348
▁ውሻ	-2349
▁የሌ	-2350
▁የረ	-2351
▁የቃ	-2352
▁የብ	-2353
▁የው	-2354
▁የጸ	-2355
▁ያሉ	-2356
▁ያፈ	-2357
▁ይላ	-2358
▁ይበ	-2359
▁ይዤ	-2360
▁ይድ	-2361
▁ደቂ	-2362
▁ደፋ	-2363
▁ዳሩ	-2364
▁ድው	-2365
▁ገል	-2366
▁ገብ	-2367
▁ገን	-2368
▁ጉድ	-2369
▁ጎን	-2370
▁ጎጆ	-2371
▁ጣእ	-2372
▁ጽጌ	-2373
▁ፈለ	-2374
▁ፍዳ	-2375
ሣይያሥ	-2376
ቆዲሞሥ	-2377
ተማረው	-2378
ታቸውን	-2379
ደባባይ	-2380
▁ህያው	-2381
▁ህጉን	-2382
▁ለመው	-2383
▁ለማው	-2384
▁ለወን	-2385
▁ልበል	-2386
▁ልኡል	-2387
▁ልጁን	-2388
▁መልሦ	-2389
▁መልካ	-2390
▁መሥሎ	-2391
▁መርከ	-2392
▁መብረ	-2393
▁መንደ	-2394
▁መአዛ	-2395
▁መኪና	-2396
▁መውጫ	-2397
▁ማሪያ	-2398
▁ምሣሌ	-2399
▁ምሥክ	-2400
▁ምኞት	-2401
▁ሠጥቼ	-2402
▁ሢታይ	-2403
▁ሢነሣ	-2404
▁ሣያሥ	-2405
▁ሥምህ	-2406
▁ሥራህ	-2407
▁ራሤን	-2408
▁ቀለም	-2409
▁ቀርቶ	-2410
▁ቀኖና	-2411
▁ቀየረ	-2412
▁ቃላት	-2413
▁በለን	-2414
▁በሚያ	-2415
▁በራሤ	-2416
▁በብዙ	-2417
▁በተን	-2418
▁በአማ	-2419
▁በእኔ	-2420
▁በእጄ	-2421
▁በእጅ	-2422
▁በእግ	-2423
▁በዘር	-2424
▁በየት	-2425
▁በደም	-2426
▁በግል	-2427
▁በፍቅ	-2428
▁ተመር	-2429
▁ተማም	-2430
▁ተምሮ	-2431
▁ተረሣ	-2432
▁ተቀብ	-2433
▁ተክለ	-2434
▁ተገለ	-2435
▁ትልቅ	-2436
▁ትእዛ	-2437
▁ነነዌ	-2438
▁ነዳጅ	-2439
▁አልባ	-2440
▁አመድ	-2441
▁አማኝ	-2442
▁አበው	-2443
▁አብቅ	-2444
▁አዋቂ	-2445
▁አዝኖ	-2446
▁አያሥ	-2447
▁አይቼ	-2448
▁አይን	-2449
▁አድሮ	-2450
▁አጣሁ	-2451
▁አጥቶ	-2452
▁አጽና	-2453
▁እልል	-2454
▁እምቢ	-2455
▁እሡም	-2456
▁እሥራ	-2457
▁እሥክ	-2458
▁እርቃ	-2459
▁እርካ	-2460
▁እሾህ	-2461
▁እውነ	-2462
▁እያል	-2463
▁እያደ	-2464
▁እጆች	-2465
▁ከበረ	-2466
▁ከቤተ	-2467
▁ከፊት	-2468
▁ከፍታ	-2469
▁ካንተ	-2470
▁ኮከብ	-2471
▁ወራት	-2472
▁ወርቅ	-2473
▁ወጣቱ	-2474
▁ውበት	-2475
▁ውዳሤ	-2476
▁ዘመነ	-2477
▁ዘርን	-2478
▁የሚሠ	-2479
▁የማት	-2480
▁የቆሎ	-2481
▁የበዛ	-2482
▁የነፍ	-2483
▁የአም	-2484
▁የእር	-2485
▁የእኛ	-2486
▁የዋለ	-2487
▁የዚህ	-2488
▁ያልተ	-2489
▁ያቺን	-2490
▁ይዘው	-2491
▁ደጃፍ	-2492
▁ዳግማ	-2493
▁ገበሬ	-2494
▁ጥቂት	-2495
▁ጥንት	-2496
▁ጭካኔ	-2497
▁ጸልዩ	-2498
▁ፍለጋ	-2499
▁ሀጢያት	-2500
▁ሄሮድሥ	-2501
▁ህይወቱ	-2502
▁ለመሄድ	-2503
▁ለመሆን	-2504
▁ለአዳም	-2505
▁ልባቸው	-2506
▁መላእክ	-2507
▁መሥቀሉ	-2508
▁መካከል	-2509
▁ማእበል	-2510
▁ምንድን	-2511
▁ሠላምታ	-2512
▁ሠማያት	-2513
▁ሥላላት	-2514
▁ሥርአት	-2515
▁ሥትመጣ	-2516
▁ሽማግሌ	-2517
▁በሀሠት	-2518
▁በሀሤት	-2519
▁በእርሥ	-2520
▁በእንተ	-2521
▁በፀሎት	-2522
▁በፍፁም	-2523
▁ቢሆንም	-2524
▁ብፅእት	-2525
▁ተለውጦ	-2526
▁ተቀምጦ	-2527
▁ትምክህ	-2528
▁አለሙን	-2529
▁አለቀሠ	-2530
▁አልሠማ	-2531
▁አመሥግ	-2532
▁አምሥት	-2533
▁አሥበኝ	-2534
▁አባቶች	-2535
▁አንተሥ	-2536
▁አንዲት	-2537
▁አይተው	-2538
▁እመቤት	-2539
▁እረኞች	-2540
▁እራሤን	-2541
▁እባክሽ	-2542
▁እጅጉን	-2543
▁እግዜር	-2544
▁ክብሩን	-2545
▁ክፋትን	-2546
▁የሀገሬ	-2547
▁የሚለው	-2548
▁የሚያጠ	-2549
▁የሠማዩ	-2550
▁የፈጠረ	-2551
▁ዩሀንሥ	-2552
▁ያለውን	-2553
▁ያሥተማ	-2554
▁ይህችን	-2555
▁ይመሥል	-2556
▁ይመጣል	-2557
▁ዮናሥን	-2558
▁ድህነት	-2559
▁ጌታውን	-2560
▁ግርፋት	-2561
▁ጠንቅቆ	-2562
▁ፍቅሩን	-2563
ክርሥቲያን	-2564
▁ህይወቴን	-2565
▁ሊቃውንት	-2566
▁ሠማእታት	-2567
▁በህይወት	-2568
▁በሠማያት	-2569
▁በድንገት	-2570
▁ኒቆዲሞሥ	-2571
▁ኢሣይያሥ	-2572
▁እንዲያው	-2573
▁እንዴትሥ	-2574
▁እየተከተ	-2575
▁ከድንግል	-2576
▁የሆነውን	-2577
▁የእውነት	-2578
▁የዘላለም	-2579
▁ይሠማኛል	-2580
▁ዲያቢሎሥ	-2581
▁ገብርኤል	-2582
▁ለዘለአለም	-2583
▁በሀይማኖት	-2584
▁የሀይማኖት	-2585
▁የሚያደርግ	-2586
▁የዘለአለም	-2587
▁የድንግልን	-2588
ለዩ	-2589
ለፍ	-2590
ሉይ	-2591
ሊቱ	-2592
ላፋ	-2593
ልቆ	-2594
ሏን	-2595
መህ	-2596
መላ	-2597
መቀ	-2598
መዱ	-2599
ሙር	-2600
ሚያ	-2601
ማሁ	-2602
ማለ	-2603
ሜም	-2604
ሜት	-2605
ምሩ	-2606
ምሬ	-2607
ሞቴ	-2608
ሠህ	-2609
ሠለ	-2610
ሠላ	-2611
ሠበ	-2612
ሢና	-2613
ሣብ	-2614
ረባ	-2615
ሩህ	-2616
ሩት	-2617
ሩክ	-2618
ሪቱ	-2619
ራቂ	-2620
ሬም	-2621
ሬቱ	-2622
ሬድ	-2623
ርሀ	-2624
ርማ	-2625
ርኩ	-2626
ሮሥ	-2627
ሻማ	-2628
ሽታ	-2629
ሽው	-2630
ሾክ	-2631
ቀፍ	-2632
ቂያ	-2633
ቃሉ	-2634
ቄን	-2635
ቅዝ	-2636
ቆዩ	-2637
ቈጣ	-2638
በህ	-2639
በች	-2640
ቤን	-2641
ብል	-2642
ተወ	-2643
ታዩ	-2644
ታገ	-2645
ቶሎ	-2646
ቶኝ	-2647
ቸዉ	-2648
ኋት	-2649
ነም	-2650
ነቀ	-2651
ነተ	-2652
ነነ	-2653
ነኔ	-2654
ነካ	-2655
ናሠ	-2656
ናቂ	-2657
ናቴ	-2658
ናፍ	-2659
ንቋ	-2660
ንካ	-2661
ንደ	-2662
ኗት	-2663
ኗን	-2664
አል	-2665
ኧረ	-2666
ከባ	-2667
ከነ	-2668
ኪሩ	-2669
ኬላ	-2670
ክሮ	-2671
ኮት	-2672
ኽው	-2673
ዘር	-2674
ዙን	-2675
ዚች	-2676
ዛን	-2677
ዝር	-2678
ዝቶ	-2679
የሩ	-2680
የቱ	-2681
ዩት	-2682
ይታ	-2683
ይፍ	-2684
ደቴ	-2685
ድማ	-2686
ዶም	-2687
ዶች	-2688
ዷል	-2689
ዷት	-2690
ጋጅ	-2691
ግማ	-2692
ግራ	-2693
ግቶ	-2694
ጎበ	-2695
ጠሽ	-2696
ጠጋ	-2697
ጡን	-2698
ጣቱ	-2699
ጤማ	-2700
ጥን	-2701
ጦታ	-2702
ጩት	-2703
ጪኝ	-2704
ጫወ	-2705
ጭቶ	-2706
ጭን	-2707
ጹን	-2708
ጿን	-2709
ፀመ	-2710
ፀተ	-2711
ፅም	-2712
ፆም	-2713
ፈት	-2714
ፉት	-2715
ፊቴ	-2716
ፋል	-2717
ፋሡ	-2718
ፍር	-2719
▁ጌ	-2720
▁ፕ	-2721
▁➊	-2722
ህረቱ	-2723
ሆነኝ	-2724
ለመደ	-2725
ለምዶ	-2726
ለቅሦ	-2727
ለወጠ	-2728
ላለሁ	-2729
ላባት	-2730
መለሠ	-2731
መረመ	-2732
ማልድ	-2733
ምሥት	-2734
ምቀት	-2735
ምንት	-2736
ምጣጤ	-2737
ሠምር	-2738
ሠጠኝ	-2739
ሣቤጥ	-2740
ሣእና	-2741
ሥራት	-2742
ሥተዋ	-2743
ሥጋና	-2744
ረምት	-2745
ረዳት	-2746
ረፊያ	-2747
ሪያው	-2748
ራትን	-2749
ርደው	-2750
ሻዳይ	-2751
ቅመሥ	-2752
ቅደሡ	-2753
በልህ	-2754
በሩት	-2755
ባበል	-2756
ብቶቹ	-2757
ብኛል	-2758
ተዋል	-2759
ታውን	-2760
ትክል	-2761
ቷቸው	-2762
ቻለሁ	-2763
ችሁን	-2764
ነሣቱ	-2765
ነበር	-2766
ነገጠ	-2767
ነፍሤ	-2768
ናወነ	-2769
ናዬዋ	-2770
ንቀሣ	-2771
ንቀቅ	-2772
ንካሬ	-2773
ንገቱ	-2774
ኖርም	-2775
ኩራብ	-2776
ካህኑ	-2777
ካችሁ	-2778
ካኤል	-2779
ክመው	-2780
ክርዳ	-2781
ወርድ	-2782
ወትር	-2783
ዋቸው	-2784
ውሎሥ	-2785
ውንም	-2786
ዙበት	-2787
ዛሙር	-2788
ያችን	-2789
ይወቴ	-2790
ይዎት	-2791
ደርጉ	-2792
ደበት	-2793
ደደው	-2794
ድግዳ	-2795
ጀለኛ	-2796
ጅራፍ	-2797
ገሊላ	-2798
ገድል	-2799
ጋለች	-2800
ጠገቤ	-2801
ጠፋው	-2802
ጢያት	-2803
ጣለው	-2804
ጣውን	-2805
ጥረቱ	-2806
ጥተው	-2807
ጽሀፍ	-2808
ፀልዩ	-2809
ፀናት	-2810
ፈልግ	-2811
ፈፀም	-2812
ፋለሥ	-2813
ፍረት	-2814
ፍተው	-2815
ፍነው	-2816
▁ሀሌ	-2817
▁ሁል	-2818
▁ለቀ	-2819
▁ለፀ	-2820
▁ሊታ	-2821
▁ልቀ	-2822
▁ልጁ	-2823
▁መም	-2824
▁መሸ	-2825
▁መቀ	-2826
▁መኝ	-2827
▁መጡ	-2828
▁መጮ	-2829
▁መፍ	-2830
▁ማማ	-2831
▁ማክ	-2832
▁ምሁ	-2833
▁ሞቶ	-2834
▁ሞኝ	-2835
▁ሠላ	-2836
▁ሠል	-2837
▁ሠብ	-2838
▁ሠዉ	-2839
▁ሢሉ	-2840
▁ሢላ	-2841
▁ሢመ	-2842
▁ሣታ	-2843
▁ረሣ	-2844
▁ረግ	-2845
▁ሺህ	-2846
▁ሻማ	-2847
▁ቀሥ	-2848
▁ቀኝ	-2849
▁ቀጠ	-2850
▁ቁራ	-2851
▁በሡ	-2852
▁በጸ	-2853
▁በፅ	-2854
▁ቢለ	-2855
▁ቢሠ	-2856
▁ባሥ	-2857
▁ብቅ	-2858
▁ተሣ	-2859
▁ተብ	-2860
▁ተቻ	-2861
▁ነቃ	-2862
▁ነጋ	-2863
▁ነጎ	-2864
▁አራ	-2865
▁አቀ	-2866
▁አኩ	-2867
▁አጉ	-2868
▁አጠ	-2869
▁ኤፍ	-2870
▁እሾ	-2871
▁እዚ	-2872
▁እፍ	-2873
▁ኧረ	-2874
▁ከህ	-2875
▁ከሆ	-2876
▁ከከ	-2877
▁ከይ	-2878
▁ከድ	-2879
▁ካፉ	-2880
▁ወሀ	-2881
▁ወአ	-2882
▁ዋለ	-2883
▁ውለ	-2884
▁ውጪ	-2885
▁የቅ	-2886
▁የጉ	-2887
▁የጋ	-2888
▁ያቃ	-2889
▁ያው	-2890
▁ያየ	-2891
▁ይሁ	-2892
▁ይማ	-2893
▁ይሻ	-2894
▁ይቆ	-2895
▁ይነ	-2896
▁ይዛ	-2897
▁ደፍ	-2898
▁ዳባ	-2899
▁ገሠ	-2900
▁ገና	-2901
▁ጉሮ	-2902
▁ጉያ	-2903
▁ግራ	-2904
▁ግቢ	-2905
▁ግዜ	-2906
▁ግፍ	-2907
▁ጣሉ	-2908
▁ጥሎ	-2909
▁ጥዬ	-2910
▁ጨክ	-2911
▁ጫፍ	-2912
▁ጾም	-2913
▁ፀሎ	-2914
▁ፅዋ	-2915
▁ፈጽ	-2916
መረመር	-2917
ሠማችሁ	-2918
ሥተምር	-2919
ሥታወት	-2920
ረኝነት	-2921
ሽንፈቱ	-2922
ብርሀም	-2923
ቸርነት	-2924
ችንካር	-2925
ኔአለም	-2926
ንግዲህ	-2927
ኪሩቤል	-2928
ክህደት	-2929
ዝከውን	-2930
ደንቃል	-2931
ጀመሪያ	-2932
ጀርባው	-2933
ገሥታት	-2934
ጥረታት	-2935
ጨርሠው	-2936
ጨንቀው	-2937
ጲላጦሥ	-2938
▁ሀሞት	-2939
▁ሀሣቤ	-2940
▁ህዝብ	-2941
▁ህፃን	-2942
▁ሆነን	-2943
▁ለመን	-2944
▁ለመግ	-2945
▁ለሠው	-2946
▁ለጌታ	-2947
▁ሊያድ	-2948
▁ልሄድ	-2949
▁ልሙት	-2950
▁ልሞት	-2951
▁ልቡን	-2952
▁ልብሡ	-2953
▁ልብሥ	-2954
▁ልደቱ	-2955
▁ልደቴ	-2956
▁መሥዋ	-2957
▁መቼም	-2958
▁መአት	-2959
▁ማረኝ	-2960
▁ማንም	-2961
▁ምራቅ	-2962
▁ምንጭ	-2963
▁ምግባ	-2964
▁ሠርቼ	-2965
▁ሠባኪ	-2966
▁ሠጥቶ	-2967
▁ሢሄዱ	-2968
▁ሢመለ	-2969
▁ሢወር	-2970
▁ሣለሁ	-2971
▁ሥላሤ	-2972
▁ሥማኝ	-2973
▁ሥቃዩ	-2974
▁ሥትፈ	-2975
▁ረሥቶ	-2976
▁ቀርቦ	-2977
▁ቅድሥ	-2978
▁ቅጣት	-2979
▁በሁሉ	-2980
▁በህጉ	-2981
▁በልቡ	-2982
▁በመን	-2983
▁በመዉ	-2984
▁በመጥ	-2985
▁በማይ	-2986
▁በምድ	-2987
▁በረት	-2988
▁በቃል	-2989
▁በባዶ	-2990
▁በአል	-2991
▁በእፀ	-2992
▁በዝቶ	-2993
▁በደሙ	-2994
▁በደን	-2995
▁በጋራ	-2996
▁በፊቱ	-2997
▁ቢነሣ	-2998
▁ባለው	-2999
▁ባንተ	-3000
▁ባንች	-3001
▁ብለን	-3002
▁ተማፅ	-3003
▁ተሥኖ	-3004
▁ተረድ	-3005
▁ተርቦ	-3006
▁ተቃር	-3007
▁ተወል	-3008
▁ተገል	-3009
▁ታድሞ	-3010
▁ታጠብ	-3011
▁ትንሹ	-3012
▁ናትና	-3013
▁አለሽ	-3014
▁አለቃ	-3015
▁አማል	-3016
▁አሜን	-3017
▁አምና	-3018
▁አሥቦ	-3019
▁አሥታ	-3020
▁አርማ	-3021
▁አቀረ	-3022
▁አብሣ	-3023
▁አብሮ	-3024
▁አብሽ	-3025
▁አታው	-3026
▁አንች	-3027
▁አእላ	-3028
▁አዋጅ	-3029
▁አያሻ	-3030
▁አያን	-3031
▁አዳኝ	-3032
▁አግኝ	-3033
▁አጠራ	-3034
▁አጥታ	-3035
▁አፍታ	-3036
▁እህል	-3037
▁እሠይ	-3038
▁እሣቱ	-3039
▁እሷም	-3040
▁እኔማ	-3041
▁እንሥ	-3042
▁እንግ	-3043
▁እዚህ	-3044
▁እየጣ	-3045
▁እድሜ	-3046
▁እጁን	-3047
▁እግሬ	-3048
▁ከሆን	-3049
▁ከለላ	-3050
▁ከማይ	-3051
▁ከርቤ	-3052
▁ከታች	-3053
▁ከጉያ	-3054
▁ከጠላ	-3055
▁ካልተ	-3056
▁ወሠን	-3057
▁ወርዶ	-3058
▁ወይም	-3059
▁ወይኑ	-3060
▁ወደቀ	-3061
▁ወጥቶ	-3062
▁ውሥጤ	-3063
▁ዙሪያ	-3064
▁ዞረህ	-3065
▁የሀይ	-3066
▁የመን	-3067
▁የሚፈ	-3068
▁የተረ	-3069
▁የተራ	-3070
▁የተን	-3071
▁የታደ	-3072
▁የእም	-3073
▁የወጣ	-3074
▁የደማ	-3075
▁የግል	-3076
▁የግድ	-3077
▁የጠዋ	-3078
▁የፀና	-3079
▁ያህል	-3080
▁ያለህ	-3081
▁ያለም	-3082
▁ያሉት	-3083
▁ያዘነ	-3084
▁ይበቃ	-3085
▁ይገባ	-3086
▁ይጠፋ	-3087
▁ደካማ	-3088
▁ደክሞ	-3089
▁ዳርቻ	-3090
▁ድምጽ	-3091
▁ድብቅ	-3092
▁ጀመር	-3093
▁ጀምሮ	-3094
▁ገብረ	-3095
▁ገዳም	-3096
▁ጉባኤ	-3097
▁ጌታም	-3098
▁ጠማማ	-3099
▁ጥበብ	-3100
▁ጥንቱ	-3101
▁ጨርቅ	-3102
▁ጽድቅ	-3103
▁ፀሎት	-3104
▁ፅድቅ	-3105
▁ፈርቶ	-3106
▁ፈቃድ	-3107
▁ፈፅሞ	-3108
▁ፊቱን	-3109
▁ፍቅሯ	-3110
ገለጥበት	-3111
▁ሀሞትን	-3112
▁ሄዳለች	-3113
▁ሆምጣጤ	-3114
▁ሆነልን	-3115
▁ለመኖር	-3116
▁ለሥጋው	-3117
▁ለአለሙ	-3118
▁መሠረተ	-3119
▁መሠከረ	-3120
▁መንደር	-3121
▁መንጋው	-3122
▁መፃጉእ	-3123
▁ሚካኤል	-3124
▁ማህሌት	-3125
▁ማህፀን	-3126
▁ማንነት	-3127
▁ምትራት	-3128
▁ሠራዊት	-3129
▁ሠቀሉት	-3130
▁ሠአታት	-3131
▁ሢደርሥ	-3132
▁ሣይኖር	-3133
▁ሥትናወ	-3134
▁ቀራንዮ	-3135
▁ቁልቁል	-3136
▁በሀዘን	-3137
▁በመንገ	-3138
▁በምሥራ	-3139
▁በሥደት	-3140
▁በሥጋው	-3141
▁በበረት	-3142
▁በበደል	-3143
▁በብረት	-3144
▁በአንተ	-3145
▁በእድሜ	-3146
▁በዘመን	-3147
▁በድካም	-3148
▁በገነት	-3149
▁በጨለማ	-3150
▁በጽድቅ	-3151
▁በፈጣሪ	-3152
▁ብርሀነ	-3153
▁ተመለሥ	-3154
▁ተመልከ	-3155
▁ተማሪው	-3156
▁ተሠቅሎ	-3157
▁ተራሮች	-3158
▁ተሸከመ	-3159
▁ተከፈተ	-3160
▁ተገለጠ	-3161
▁ተገረፈ	-3162
▁ተጋድሎ	-3163
▁ተጠማሁ	-3164
▁ተፈፀመ	-3165
▁ትላለህ	-3166
▁ትውልዱ	-3167
▁ትውፊት	-3168
▁ትግሀት	-3169
▁ቸርነቱ	-3170
▁ነገረው	-3171
▁አለልጄ	-3172
▁አለቆች	-3173
▁አለበት	-3174
▁አለችው	-3175
▁አላቸው	-3176
▁አልቀር	-3177
▁አመታት	-3178
▁አመፀኛ	-3179
▁አሜኬላ	-3180
▁አሥረው	-3181
▁አብረው	-3182
▁አንድም	-3183
▁አክብሮ	-3184
▁አውርዶ	-3185
▁አየሁት	-3186
▁እሩህሩ	-3187
▁እርካታ	-3188
▁እናቱን	-3189
▁እናቴን	-3190
▁እንደሌ	-3191
▁እንድታ	-3192
▁እንድን	-3193
▁እያየሁ	-3194
▁ከልብህ	-3195
▁ከሢኦል	-3196
▁ከአንዱ	-3197
▁ከእሣት	-3198
▁ከፈለክ	-3199
▁ክረምት	-3200
▁ክርክር	-3201
▁ወንድም	-3202
▁ወዲያው	-3203
▁ዘወትር	-3204
▁የለውም	-3205
▁የመዳን	-3206
▁የምድር	-3207
▁የሠላም	-3208
▁የሠማይ	-3209
▁የተማሪ	-3210
▁የተሠጠ	-3211
▁የታሠረ	-3212
▁የናቱን	-3213
▁የወደደ	-3214
▁የደሥታ	-3215
▁የዳዊት	-3216
▁የገነት	-3217
▁የፈጣሪ	-3218
▁ይለኛል	-3219
▁ይብቃን	-3220
▁ይገኛል	-3221
▁ድምጿን	-3222
▁ድንጋይ	-3223
▁ጉዞዬን	-3224
▁ግርግዳ	-3225
▁ግድግዳ	-3226
▁ጠብቀኝ	-3227
▁ጥላቻን	-3228
▁ጥንካሬ	-3229
▁ጭንቀት	-3230
▁ጳውሎሥ	-3231
▁ፈውሥን	-3232
▁ፍርሀት	-3233
▁ለመሥጠት	-3234
▁መሥታወት	-3235
▁መናፍሥት	-3236
▁መንገዱን	-3237
▁መንግሥት	-3238
▁መከራውን	-3239
▁መድሀኒቴ	-3240
▁ምህረትን	-3241
▁ምክንያቱ	-3242
▁ሠይጣንን	-3243
▁በሀጢያት	-3244
▁በልባቸው	-3245
▁በማርያም	-3246
▁በምህረት	-3247
▁በረከትን	-3248
▁በቅፅበት	-3249
▁በተለምዶ	-3250
▁በትእቢት	-3251
▁በወንጌል	-3252
▁ተቀምጠው	-3253
▁ትህትናን	-3254
▁ትምህርቱ	-3255
▁አመታትን	-3256
▁አሥተማረ	-3257
▁አርጋለች	-3258
▁አንደበተ	-3259
▁አንደበቱ	-3260
▁አይናቸው	-3261
▁አይኖርም	-3262
▁አደባባይ	-3263
▁አድርገው	-3264
▁ኤልያሥን	-3265
▁እናናዬዋ	-3266
▁እንቅልፍ	-3267
▁እንባዋን	-3268
▁እንደማት	-3269
▁እንዲፈታ	-3270
▁እንዳለኝ	-3271
▁እውነቱን	-3272
▁ከመሥቀል	-3273
▁ከእርጉም	-3274
▁ክርሥቲያ	-3275
▁ክርሥትና	-3276
▁ክብርሽን	-3277
▁ወንጀለኛ	-3278
▁ዘለአለም	-3279
▁የሚሣነው	-3280
▁የሚያበራ	-3281
▁የምሥራች	-3282
▁የቅዱሣን	-3283
▁የብርሀን	-3284
▁የአምሥቱ	-3285
▁የእምነት	-3286
▁የካህናት	-3287
▁የዶኪማሥ	-3288
▁ይደንቃል	-3289
▁ፍቅርህን	-3290
▁መንገድህን	-3291
▁ሣይጨርሠው	-3292
▁በአንድነት	-3293
▁በአደባባይ	-3294
▁በክርሥቶሥ	-3295
▁አንድያዋን	-3296
▁እንዳይገባ	-3297
▁ከእንግዲህ	-3298
▁የተዋህዶን	-3299
▁የኢየሡሥን	-3300
▁የያዝከውን	-3301
▁መድሀኒአለም	-3302
▁መድሀኔአለም	-3303
▁በአምላክነቱ	-3304
▁ቤተክርሥቲያን	-3305
ሀኒ	-3306
ህት	-3307
ህኒ	-3308
ሆኑ	-3309
ለሉ	-3310
ለቁ	-3311
ለነ	-3312
ለደ	-3313
ለዳ	-3314
ለጎ	-3315
ሉሽ	-3316
ላቱ	-3317
ላዲ	-3318
ሌን	-3319
ልማ	-3320
ልቃ	-3321
ልብ	-3322
ልአ	-3323
ልኩ	-3324
ልዳ	-3325
ልፋ	-3326
ሎቱ	-3327
መም	-3328
መሣ	-3329
መሩ	-3330
መኛ	-3331
ሚት	-3332
ማሉ	-3333
ማመ	-3334
ማረ	-3335
ማሪ	-3336
ማድ	-3337
ምሪ	-3338
ምቼ	-3339
ሞራ	-3340
ሞን	-3341
ሠሀ	-3342
ሠሩ	-3343
ሣህ	-3344
ሣሣ	-3345
ሣሽ	-3346
ሣሾ	-3347
ሣነ	-3348
ሥቆ	-3349
ሥጢ	-3350
ሥጨ	-3351
ረቀ	-3352
ረቅ	-3353
ረበ	-3354
ረከ	-3355
ረፍ	-3356
ሪዋ	-3357
ራሤ	-3358
ራና	-3359
ርቃ	-3360
ርደ	-3361
ርጓ	-3362
ሮጌ	-3363
ሮጥ	-3364
ሯል	-3365
ሸት	-3366
ሸነ	-3367
ሻህ	-3368
ሻም	-3369
ሻት	-3370
ሻው	-3371
ቀህ	-3372
ቁረ	-3373
ቅህ	-3374
ቅበ	-3375
ቅፍ	-3376
ቆሙ	-3377
ቆሥ	-3378
ቋላ	-3379
በለ	-3380
በሡ	-3381
በበ	-3382
በታ	-3383
በኛ	-3384
በድ	-3385
በጣ	-3386
ቡር	-3387
ቢው	-3388
ቢይ	-3389
ቤቱ	-3390
ብሠ	-3391
ብባ	-3392
ብት	-3393
ቦሙ	-3394
ቦር	-3395
ተመ	-3396
ተክ	-3397
ተደ	-3398
ቴት	-3399
ትሀ	-3400
ችሎ	-3401
ቿን	-3402
ኋን	-3403
ነሽ	-3404
ነበ	-3405
ነጣ	-3406
ናክ	-3407
ናዋ	-3408
ኖህ	-3409
ኖች	-3410
ኗል	-3411
ኞቹ	-3412
እሥ	-3413
ከም	-3414
ከን	-3415
ኩሽ	-3416
ካዜ	-3417
ክሪ	-3418
ክፉ	-3419
ኮሉ	-3420
ኳት	-3421
ኻል	-3422
ወሣ	-3423
ወረ	-3424
ወክ	-3425
ወጀ	-3426
ወጡ	-3427
ዘል	-3428
ዘፈ	-3429
ዛቱ	-3430
ዝብ	-3431
የል	-3432
የዉ	-3433
የጵ	-3434
ያተ	-3435
ያዘ	-3436
ዬም	-3437
ይራ	-3438
ይት	-3439
ዮብ	-3440
ዮች	-3441
ደሥ	-3442
ደቅ	-3443
ደብ	-3444
ደና	-3445
ደክ	-3446
ዱም	-3447
ዳር	-3448
ዳነ	-3449
ድሦ	-3450
ድቁ	-3451
ድቄ	-3452
ዶት	-3453
ዶክ	-3454
ጀብ	-3455
ጀቱ	-3456
ጀት	-3457
ገሣ	-3458
ገፈ	-3459
ገፋ	-3460
ጋዊ	-3461
ጋጣ	-3462
ግቦ	-3463
ግነ	-3464
ጎና	-3465
ጎዳ	-3466
ጐን	-3467
ጠሉ	-3468
ጠቁ	-3469
ጠቅ	-3470
ጠፍ	-3471
ጢፋ	-3472
ጣቴ	-3473
ጣኝ	-3474
ጣጫ	-3475
ጣፍ	-3476
ጥሩ	-3477
ጥቦ	-3478
ጥተ	-3479
ጥታ	-3480
ጥፍ	-3481
ጦር	-3482
ጸመ	-3483
ፀኗ	-3484
ፁእ	-3485
ፃኑ	-3486
ፃፍ	-3487
ፈነ	-3488
ፊው	-3489
ፋሽ	-3490
ፋቄ	-3491
ፋው	-3492
ፍሮ	-3493
ፍፌ	-3494
ፎም	-3495
▁ሹ	-3496
▁ቡ	-3497
▁ዜ	-3498
▁ዲ	-3499
▁ዶ	-3500
▁ጢ	-3501
▁ጾ	-3502
▁ፖ	-3503
ሀለው	-3504
ሀከል	-3505
ህራሄ	-3506
ህርን	-3507
ለህና	-3508
ለሥቱ	-3509
ለቀሠ	-3510
ለትን	-3511
ለውን	-3512
ልህም	-3513
ልኛል	-3514
ልጣን	-3515
ልፌን	-3516
መሠጠ	-3517
መሥል	-3518
መነች	-3519
መናን	-3520
መዋል	-3521
መጣም	-3522
መጣው	-3523
ማፀን	-3524
ምረህ	-3525
ምረኝ	-3526
ምኩኝ	-3527
ሠማዉ	-3528
ሠማው	-3529
ሠማዩ	-3530
ሠሠው	-3531
ሠራት	-3532
ሠበው	-3533
ሠኛል	-3534
ሠጠሽ	-3535
ሠጥም	-3536
ሡበት	-3537
ሣለሁ	-3538
ሣለች	-3539
ሣያሥ	-3540
ሥማማ	-3541
ረቱን	-3542
ረኛው	-3543
ረኞች	-3544
ረገኝ	-3545
ረገው	-3546
ሩፋት	-3547
ራለሁ	-3548
ራቷን	-3549
ርተህ	-3550
ርከብ	-3551
ርያሥ	-3552
ርያት	-3553
ርጠው	-3554
ርጥር	-3555
ሮውን	-3556
ሽረው	-3557
ቀምሥ	-3558
ቀርብ	-3559
ቀትን	-3560
ቀፈች	-3561
ቁረጥ	-3562
ቃብር	-3563
ቃቸው	-3564
ቃጠል	-3565
ቅለቱ	-3566
ቅሣት	-3567
ቅርብ	-3568
ቅበዘ	-3569
ቆሜን	-3570
በለኝ	-3571
በሠው	-3572
በቃኝ	-3573
በትም	-3574
በናል	-3575
በዛሉ	-3576
በዛል	-3577
ባለሁ	-3578
ባንን	-3579
ባኖሥ	-3580
ብሠው	-3581
ብረት	-3582
ብቀን	-3583
ተወኝ	-3584
ተፃፈ	-3585
ታዋን	-3586
ታደር	-3587
ትያን	-3588
ችለኝ	-3589
ችንን	-3590
ነበረ	-3591
ነናል	-3592
ነገር	-3593
ነፈች	-3594
ናችን	-3595
ንሡም	-3596
ንነት	-3597
ንድሙ	-3598
ኖረኝ	-3599
እምሮ	-3600
እንደ	-3601
ኩበት	-3602
ክረው	-3603
ክብሩ	-3604
ክብት	-3605
ኮቴት	-3606
ወለዱ	-3607
ወድቆ	-3608
ወጣን	-3609
ዉጣት	-3610
ዋለች	-3611
ዋደድ	-3612
ውሥጥ	-3613
ውቀው	-3614
ዎችም	-3615
ዘለለ	-3616
ዘመረ	-3617
ዘጋጀ	-3618
ዙሪት	-3619
ዚህን	-3620
ዝሙሩ	-3621
ዝሙር	-3622
ዝራዊ	-3623
የበት	-3624
ያለሁ	-3625
ያለም	-3626
ይመሥ	-3627
ይደለ	-3628
ዮርዳ	-3629
ዮናሥ	-3630
ደላት	-3631
ደረግ	-3632
ዱለት	-3633
ዳሤው	-3634
ዳዊት	-3635
ዶናይ	-3636
ገልግ	-3637
ገልጥ	-3638
ገሠኝ	-3639
ገኛዉ	-3640
ገዷን	-3641
ጊልን	-3642
ጋጅቶ	-3643
ጋጣሚ	-3644
ጌልን	-3645
ግሥቱ	-3646
ግረው	-3647
ግሬህ	-3648
ግባት	-3649
ግነት	-3650
ግዜር	-3651
ጎደለ	-3652
ጠመቀ	-3653
ጠራት	-3654
ጠፋን	-3655
ጣለች	-3656
ጣኦት	-3657
ጥአን	-3658
ጭንቀ	-3659
ጸልይ	-3660
ፃናት	-3661
ፅናኛ	-3662
ፈሠሠ	-3663
ፈረኝ	-3664
ፈሩን	-3665
ፈሪዋ	-3666
ፈራም	-3667
ፈራው	-3668
ፈኞች	-3669
ፈጠር	-3670
ፋችን	-3671
ፍሮች	-3672
ፎችና	-3673
▁ሀና	-3674
▁ሀኪ	-3675
▁ሁለ	-3676
▁ሁላ	-3677
▁ሁን	-3678
▁ሂድ	-3679
▁ህጉ	-3680
▁ለህ	-3681
▁ለዘ	-3682
▁ላሣ	-3683
▁ሌሎ	-3684
▁ልግ	-3685
▁መሦ	-3686
▁መብ	-3687
▁መቶ	-3688
▁መቸ	-3689
▁መዝ	-3690
▁መጸ	-3691
▁መጻ	-3692
▁ማቅ	-3693
▁ማታ	-3694
▁ማነ	-3695
▁ማየ	-3696
▁ማግ	-3697
▁ምኑ	-3698
▁ምክ	-3699
▁ሠሎ	-3700
▁ሠቅ	-3701
▁ሠደ	-3702
▁ሠግ	-3703
▁ሢሥ	-3704
▁ሢሻ	-3705
▁ሢኦ	-3706
▁ሢገ	-3707
▁ሣሉ	-3708
▁ሥሥ	-3709
▁ሥረ	-3710
▁ሥተ	-3711
▁ርሥ	-3712
▁ሸሽ	-3713
▁ቀለ	-3714
▁ቀሚ	-3715
▁ቀኑ	-3716
▁ቁሜ	-3717
▁ቂም	-3718
▁ቅብ	-3719
▁በኩ	-3720
▁በዙ	-3721
▁በጅ	-3722
▁ቢሉ	-3723
▁ቢባ	-3724
▁ባሣ	-3725
▁ብየ	-3726
▁ተካ	-3727
▁ተይ	-3728
▁ተጥ	-3729
▁ታች	-3730
▁ትና	-3731
▁ትወ	-3732
▁ንሥ	-3733
▁ንገ	-3734
▁ንጹ	-3735
▁ኖህ	-3736
▁ኖሬ	-3737
▁አሞ	-3738
▁አቃ	-3739
▁አቋ	-3740
▁አከ	-3741
▁አኮ	-3742
▁አጋ	-3743
▁ኤጲ	-3744
▁እጆ	-3745
▁እፋ	-3746
▁ከቀ	-3747
▁ከት	-3748
▁ከኛ	-3749
▁ኩሬ	-3750
▁ኪዳ	-3751
▁ካሉ	-3752
▁ካዱ	-3753
▁ክን	-3754
▁ክፍ	-3755
▁ኮሽ	-3756
▁ኮከ	-3757
▁ኹሉ	-3758
▁ወሥ	-3759
▁ወረ	-3760
▁ወቅ	-3761
▁ወግ	-3762
▁ወጡ	-3763
▁ዋሥ	-3764
▁ውሎ	-3765
▁ውጤ	-3766
▁ዘሩ	-3767
▁ዘግ	-3768
▁ዘፍ	-3769
▁ዝቅ	-3770
▁ዞር	-3771
▁የሁ	-3772
▁የላ	-3773
▁የራ	-3774
▁የዋ	-3775
▁የዝ	-3776
▁የጌ	-3777
▁የጽ	-3778
▁የፃ	-3779
▁የፊ	-3780
▁ያና	-3781
▁ያወ	-3782
▁ያጌ	-3783
▁ያጣ	-3784
▁ይል	-3785
▁ይሸ	-3786
▁ይቺ	-3787
▁ይው	-3788
▁ይግ	-3789
▁ደብ	-3790
▁ደዌ	-3791
▁ዳነ	-3792
▁ዳኛ	-3793
▁ድሮ	-3794
▁ድጓ	-3795
▁ገር	-3796
▁ግም	-3797
▁ግቡ	-3798
▁ግዴ	-3799
▁ጎል	-3800
▁ጎባ	-3801
▁ጓዳ	-3802
▁ጡት	-3803
▁ጣጣ	-3804
▁ጥሩ	-3805
▁ጫማ	-3806
▁ጭጭ	-3807
▁ጮሀ	-3808
▁ጮራ	-3809
▁ጽኑ	-3810
▁ጽና	-3811
▁ጽዋ	-3812
▁ፀሀ	-3813
▁ፅና	-3814
▁ፈራ	-3815
▁ፈር	-3816
▁ፈን	-3817
▁ፈጣ	-3818
▁ፍላ	-3819
▁ፍታ	-3820
▁ፕሮ	-3821
ሄሮድሥ	-3822
ለንበት	-3823
ልታቸዉ	-3824
መሠክር	-3825
መሠገን	-3826
መሥክር	-3827
መሥገን	-3828
መቅደሥ	-3829
መነዝር	-3830
ማርያም	-3831
ሠውረን	-3832
ረመረመ	-3833
ረሥከው	-3834
ረድኩኝ	-3835
ረጋግጦ	-3836
ሪያቸው	-3837
ራቱዋን	-3838
ርያምን	-3839
ትናገሩ	-3840
ትክልት	-3841
ችንካሩ	-3842
ናትነት	-3843
ንደገና	-3844
ንድነት	-3845
ንገላታ	-3846
ንግሥቱ	-3847
ንግጠው	-3848
አላለም	-3849
አቸውም	-3850
ክብርሽ	-3851
ዋክብት	-3852
ዘለሏን	-3853
ዛሙርቱ	-3854
የሩሣሌ	-3855
ደነገጠ	-3856
ገባቸው	-3857
ገባችሁ	-3858
ገኝበት	-3859
ገድሉት	-3860
ጠቅመኝ	-3861
ጠፋቸው	-3862
ጢፋኖሥ	-3863
ጥልጥል	-3864
▁ሀዘኑ	-3865
▁ሀያል	-3866
▁ሄዋን	-3867
▁ህማም	-3868
▁ህርያ	-3869
▁ሆነሽ	-3870
▁ሆነው	-3871
▁ለማጥ	-3872
▁ለምኖ	-3873
▁ለሞት	-3874
▁ለሥጋ	-3875
▁ለብቻ	-3876
▁ለድህ	-3877
▁ለጠላ	-3878
▁ሊያሥ	-3879
▁ሊያይ	-3880
▁ላንቺ	-3881
▁ልማር	-3882
▁ልምጣ	-3883
▁ልቤን	-3884
▁ልንገ	-3885
▁ልጇም	-3886
▁መሀሪ	-3887
▁መለያ	-3888
▁መመሥ	-3889
▁መምር	-3890
▁መሣይ	-3891
▁መረገ	-3892
▁መርጦ	-3893
▁መከል	-3894
▁መኻል	-3895
▁መጋቢ	-3896
▁መጓዝ	-3897
▁መጠቅ	-3898
▁መጠን	-3899
▁መጣች	-3900
▁መጣና	-3901
▁ሙሽራ	-3902
▁ሙታን	-3903
▁ሚዛን	-3904
▁ሚዳቆ	-3905
▁ሚጠሩ	-3906
▁ማህጸ	-3907
▁ማመን	-3908
▁ማሠሮ	-3909
▁ማሥታ	-3910
▁ማረን	-3911
▁ማንን	-3912
▁ማእድ	-3913
▁ማየት	-3914
▁ማደር	-3915
▁ምድራ	-3916
▁ምግብ	-3917
▁ሞገሥ	-3918
▁ሠማና	-3919
▁ሠማየ	-3920
▁ሠምቼ	-3921
▁ሠጠው	-3922
▁ሠጡት	-3923
▁ሢርድ	-3924
▁ሢቆጣ	-3925
▁ሢበላ	-3926
▁ሢበዛ	-3927
▁ሢባል	-3928
▁ሢዝል	-3929
▁ሢያን	-3930
▁ሢያይ	-3931
▁ሢጠራ	-3932
▁ሢጠጣ	-3933
▁ሥለመ	-3934
▁ሥለኔ	-3935
▁ሥላለ	-3936
▁ሥልቱ	-3937
▁ሥሜን	-3938
▁ሥምሽ	-3939
▁ሥሥት	-3940
▁ሥራዋ	-3941
▁ሥራው	-3942
▁ሥቦህ	-3943
▁ሥንቅ	-3944
▁ሥንቱ	-3945
▁ሥንዴ	-3946
▁ሥኖር	-3947
▁ሥውር	-3948
▁ሥደት	-3949
▁ሥጋው	-3950
▁ሥጪኝ	-3951
▁ረዳት	-3952
▁ራእይ	-3953
▁ቁራኛ	-3954
▁ቁጥር	-3955
▁ቄጤማ	-3956
▁ቋንቋ	-3957
▁በለሥ	-3958
▁በልቶ	-3959
▁በምክ	-3960
▁በሠባ	-3961
▁በረቱ	-3962
▁በርቶ	-3963
▁በሽታ	-3964
▁በቀኙ	-3965
▁በቀኝ	-3966
▁በቁም	-3967
▁በተራ	-3968
▁በቶሎ	-3969
▁በነፍ	-3970
▁በኛም	-3971
▁በአህ	-3972
▁በአዛ	-3973
▁በኩል	-3974
▁በወሬ	-3975
▁በይኝ	-3976
▁በደማ	-3977
▁በገዛ	-3978
▁በፊቴ	-3979
▁ቢያቆ	-3980
▁ባህሩ	-3981
▁ባሥቀ	-3982
▁ባነሣ	-3983
▁ቤቴን	-3984
▁ብፁእ	-3985
▁ተልኮ	-3986
▁ተማሩ	-3987
▁ተረዳ	-3988
▁ተሸክ	-3989
▁ተከቦ	-3990
▁ተከተ	-3991
▁ተከት	-3992
▁ተወው	-3993
▁ተደፋ	-3994
▁ተገኘ	-3995
▁ተግቼ	-3996
▁ታሥሮ	-3997
▁ታቦት	-3998
▁ታደያ	-3999
▁ትሁት	-4000
▁ትሆና	-4001
▁ትተን	-4002
▁ቸንክ	-4003
▁ችግር	-4004
▁ነሣህ	-4005
▁ነገረ	-4006
▁ነፋሥ	-4007
▁ነፍሥ	-4008
▁ኔሮን	-4009
▁ንጉሡ	-4010
▁ንፁህ	-4011
▁አለሙ	-4012
▁አልተ	-4013
▁አልክ	-4014
▁አልፈ	-4015
▁አልፋ	-4016
▁አማኙ	-4017
▁አምድ	-4018
▁አሣሥ	-4019
▁አሣይ	-4020
▁አሣዳ	-4021
▁አሥተ	-4022
▁አሥገ	-4023
▁አርገ	-4024
▁አርግ	-4025
▁አሮጌ	-4026
▁አሸዋ	-4027
▁አቀና	-4028
▁አትሠ	-4029
▁አውቆ	-4030
▁አዘነ	-4031
▁አዝላ	-4032
▁አየና	-4033
▁አድራ	-4034
▁አገር	-4035
▁አጥቼ	-4036
▁አፍሦ	-4037
▁ኤልሣ	-4038
▁እለት	-4039
▁እልፍ	-4040
▁እማማ	-4041
▁እምዋ	-4042
▁እርዳ	-4043
▁እርግ	-4044
▁እናታ	-4045
▁እንቢ	-4046
▁እንጃ	-4047
▁እውን	-4048
▁እጄን	-4049
▁እግሩ	-4050
▁እግዚ	-4051
▁ከልብ	-4052
▁ከመድ	-4053
▁ከሥጋ	-4054
▁ከሩቅ	-4055
▁ከርሷ	-4056
▁ከቤት	-4057
▁ከተጣ	-4058
▁ከእነ	-4059
▁ከእኛ	-4060
▁ከዛሬ	-4061
▁ከደሙ	-4062
▁ከግሩ	-4063
▁ከፊቱ	-4064
▁ከፍቶ	-4065
▁ካህኑ	-4066
▁ካህን	-4067
▁ክንድ	-4068
▁ወለል	-4069
▁ወሠነ	-4070
▁ወርደ	-4071
▁ወተት	-4072
▁ወንዝ	-4073
▁ወአባ	-4074
▁ወክላ	-4075
▁ወክሎ	-4076
▁ወድቄ	-4077
▁ዋይታ	-4078
▁ውሥጡ	-4079
▁ውሸት	-4080
▁ውዴን	-4081
▁ውጊያ	-4082
▁ዘመቻ	-4083
▁ዘመና	-4084
▁ዘመኔ	-4085
▁ዘይት	-4086
▁ዙፋን	-4087
▁ዝማሬ	-4088
▁ዝናብ	-4089
▁የሄዱ	-4090
▁የለሽ	-4091
▁የመው	-4092
▁የሚቀ	-4093
▁የሚታ	-4094
▁የሚዘ	-4095
▁የማያ	-4096
▁የተቀ	-4097
▁የተከ	-4098
▁የትም	-4099
▁የኔታ	-4100
▁የኖረ	-4101
▁የኛን	-4102
▁የአማ	-4103
▁የአን	-4104
▁የእና	-4105
▁የከፋ	-4106
▁የካድ	-4107
▁የወደ	-4108
▁የዋህ	-4109
▁የድል	-4110
▁የጉዞ	-4111
▁የጠላ	-4112
▁የፈለ	-4113
▁ያሥቀ	-4114
▁ያንቺ	-4115
▁ያየው	-4116
▁ያደፈ	-4117
▁ይህች	-4118
▁ይገለ	-4119
▁ይግባ	-4120
▁ይፈር	-4121
▁ይፈታ	-4122
▁ደቀመ	-4123
▁ድንጋ	-4124
▁ድውይ	-4125
▁ጀርባ	-4126
▁ገመድ	-4127
▁ገሞራ	-4128
▁ገበታ	-4129
▁ገባኝ	-4130
▁ጉልበ	-4131
▁ጊዜም	-4132
▁ጊዜው	-4133
▁ጌታዋ	-4134
▁ግሸን	-4135
▁ግባት	-4136
▁ግንባ	-4137
▁ግደሉ	-4138
▁ጎርፍ	-4139
▁ጠብቆ	-4140
▁ጥልና	-4141
▁ጥያቄ	-4142
▁ጥፋቱ	-4143
▁ጨረቃ	-4144
▁ጭፍራ	-4145
▁ፀንተ	-4146
▁ፃድቃ	-4147
▁ፅንሥ	-4148
▁ፈረሥ	-4149
▁ፈቅዶ	-4150
▁ፈጥና	-4151
▁ፈጽሞ	-4152
▁ፍሥሀ	-4153
▁ፍቁረ	-4154
መጣላችሁ	-4155
ነሣቱዋን	-4156
ዮርዳኖሥ	-4157
ደረገለት	-4158
ገልግሎት	-4159
ገኛለህና	-4160
ጨንቀኝን	-4161
▁ሀይማኖ	-4162
▁ሀገሬን	-4163
▁ሁላችን	-4164
▁ሁልጊዜ	-4165
▁ህዝቡን	-4166
▁ሆሣእና	-4167
▁ሆንኩኝ	-4168
▁ለማወቅ	-4169
▁ለማዳን	-4170
▁ለሠዎች	-4171
▁ለአንድ	-4172
▁ለእኔም	-4173
▁ለክብሩ	-4174
▁ለጣኦት	-4175
▁ልመለሥ	-4176
▁ልናገር	-4177
▁ልደትሽ	-4178
▁ልጅነት	-4179
▁መለከት	-4180
▁መለኮቱ	-4181
▁መለየት	-4182
▁መልአኩ	-4183
▁መሠረቷ	-4184
▁መርገም	-4185
▁መቋቋም	-4186
▁መንደሩ	-4187
▁መኝታው	-4188
▁መጮኋን	-4189
▁መፅናኛ	-4190
▁ሚሥጥር	-4191
▁ማንነቴ	-4192
▁ማንንም	-4193
▁ምሥኪን	-4194
▁ምኩራብ	-4195
▁ምድርም	-4196
▁ምድርና	-4197
▁ሠለሥቱ	-4198
▁ሠማእት	-4199
▁ሠማያዊ	-4200
▁ሠምተህ	-4201
▁ሠምተው	-4202
▁ሠዉነቱ	-4203
▁ሠውነቱ	-4204
▁ሠገደች	-4205
▁ሢለምን	-4206
▁ሢመለሥ	-4207
▁ሢታየዉ	-4208
▁ሢነገር	-4209
▁ሢናገር	-4210
▁ሢያልቅ	-4211
▁ሢጠመቅ	-4212
▁ሢጠራት	-4213
▁ሢጨነቅ	-4214
▁ሣያበቃ	-4215
▁ሣይቀር	-4216
▁ሥልጣን	-4217
▁ሥብሀት	-4218
▁ሥትለኝ	-4219
▁ሥንኩል	-4220
▁ሽንፈቱ	-4221
▁ቀየረዉ	-4222
▁ቅንነት	-4223
▁ቅንጣት	-4224
▁በለቅሦ	-4225
▁በላቸው	-4226
▁በመሀል	-4227
▁በመሆን	-4228
▁በማለዳ	-4229
▁በሠረጉ	-4230
▁በሥምሽ	-4231
▁በረሀብ	-4232
▁በርትቶ	-4233
▁በቃልህ	-4234
▁በቅዱሥ	-4235
▁በበረሀ	-4236
▁በብርቱ	-4237
▁በእልፍ	-4238
▁በከፍታ	-4239
▁በውነት	-4240
▁በዚያች	-4241
▁በዝማሬ	-4242
▁በጊዜው	-4243
▁በግርማ	-4244
▁በጥበብ	-4245
▁በጨርቅ	-4246
▁በፍቅሩ	-4247
▁ባህሩን	-4248
▁ባካችሁ	-4249
▁ባይኖር	-4250
▁ብለናል	-4251
▁ብሎናል	-4252
▁ብሥራት	-4253
▁ተማምኜ	-4254
▁ተሞልታ	-4255
▁ተሞልቶ	-4256
▁ተሥፋው	-4257
▁ተረድቶ	-4258
▁ተሻገረ	-4259
▁ተቀበለ	-4260
▁ተቆጠረ	-4261
▁ተቻችሎ	-4262
▁ተደብቆ	-4263
▁ተፀፀተ	-4264
▁ትታደሥ	-4265
▁ትናገር	-4266
▁ትንሽዬ	-4267
▁ትእዛዝ	-4268
▁ነበርክ	-4269
▁ነቢያት	-4270
▁ነብሡን	-4271
▁ነብሤን	-4272
▁ነግሬህ	-4273
▁ነፍሡን	-4274
▁ናዝራዊ	-4275
▁ንቅሣት	-4276
▁አሁንሥ	-4277
▁አለምን	-4278
▁አላወቁ	-4279
▁አልቀረ	-4280
▁አልቦሙ	-4281
▁አምሣል	-4282
▁አሠምቶ	-4283
▁አሥራት	-4284
▁አሥበህ	-4285
▁አሥተም	-4286
▁አሥታው	-4287
▁አሥፈራ	-4288
▁አረጋዊ	-4289
▁አርዮሥ	-4290
▁አርገህ	-4291
▁አቃጥሎ	-4292
▁አቅቶኝ	-4293
▁አቋቋም	-4294
▁አበዉን	-4295
▁አብሣሪ	-4296
▁አትልፋ	-4297
▁አትራቂ	-4298
▁አንሥቶ	-4299
▁አንብባ	-4300
▁አንተም	-4301
▁አንካሣ	-4302
▁አንዳን	-4303
▁አንገት	-4304
▁አዙሪት	-4305
▁አያቁም	-4306
▁አይኑን	-4307
▁አይኔን	-4308
▁አይኖቼ	-4309
▁አዳኙን	-4310
▁አጥንት	-4311
▁አጥፍቶ	-4312
▁ኢሣያሥ	-4313
▁ኢትየጵ	-4314
▁ኢያቄም	-4315
▁ኤፍሬም	-4316
▁እላለሁ	-4317
▁እረፍት	-4318
▁እርሡን	-4319
▁እርሷን	-4320
▁እናቶች	-4321
▁እናንተ	-4322
▁እንባዬ	-4323
▁እንደሁ	-4324
▁እንደም	-4325
▁እንዲታ	-4326
▁እንዳለ	-4327
▁እንዳላ	-4328
▁እንዳታ	-4329
▁እንዳጣ	-4330
▁እንድና	-4331
▁እየማለ	-4332
▁እየሠማ	-4333
▁እየቀጣ	-4334
▁እየተመ	-4335
▁እየኖር	-4336
▁እያነሣ	-4337
▁እያደባ	-4338
▁ከሆንክ	-4339
▁ከሌለው	-4340
▁ከምሦሦ	-4341
▁ከሠባት	-4342
▁ከአለም	-4343
▁ከእንሥ	-4344
▁ከእንቅ	-4345
▁ከውሥጤ	-4346
▁ከደጅሽ	-4347
▁ከጠላት	-4348
▁ከፈጣሪ	-4349
▁ካጠገቤ	-4350
▁ክህደቱ	-4351
▁ክፋትና	-4352
▁ወለሉን	-4353
▁ወይንኪ	-4354
▁ውለታው	-4355
▁ውሸትና	-4356
▁ዘንድሮ	-4357
▁ዘገሊላ	-4358
▁የሀገር	-4359
▁የሄዋን	-4360
▁የለበሡ	-4361
▁የለንም	-4362
▁የመጣው	-4363
▁የሚሆን	-4364
▁የሚሉሽ	-4365
▁የሚሠጥ	-4366
▁የሚበላ	-4367
▁የሚታይ	-4368
▁የሚገዛ	-4369
▁የሠጠች	-4370
▁የሥላሤ	-4371
▁የረቀቀ	-4372
▁የተሥፋ	-4373
▁የተባለ	-4374
▁የተነሣ	-4375
▁የነበረ	-4376
▁የእሾክ	-4377
▁የእድሜ	-4378
▁የከበረ	-4379
▁የክብር	-4380
▁የጅራፍ	-4381
▁የጠዋቱ	-4382
▁ያለዉን	-4383
▁ያልከው	-4384
▁ያንሁሉ	-4385
▁ያንተን	-4386
▁ያከበረ	-4387
▁ያይደለ	-4388
▁ያድራል	-4389
▁ይሥጠን	-4390
▁ይቁረጥ	-4391
▁ይቅበዘ	-4392
▁ይቆማሉ	-4393
▁ይበለን	-4394
▁ይወቀው	-4395
▁ይጠፋል	-4396
▁ደረቱን	-4397
▁ድምጹን	-4398
▁ድምፁን	-4399
▁ድረሥና	-4400
▁ገሠገሠ	-4401
▁ገንዘብ	-4402
▁ጉልበቱ	-4403
▁ጠበቃዬ	-4404
▁ጠባቂዬ	-4405
▁ጠይቀው	-4406
▁ጥንትም	-4407
▁ፃፎችና	-4408
▁ፅንሡም	-4409
▁ፈርተው	-4410
▁ፊትህን	-4411
▁ፍቅርም	-4412
▁ፍቅርሽ	-4413
ጨንቀዋለሁ	-4414
▁ሀዋርያው	-4415
▁ለመቅመሥ	-4416
▁ለመወለድ	-4417
▁ለመዉጣት	-4418
▁ለማውጣት	-4419
▁ለእውነት	-4420
▁ሊያቀርቡ	-4421
▁ልታማልድ	-4422
▁መለኮቱን	-4423
▁መልካሙን	-4424
▁መሥቀሉን	-4425
▁መሥዋእት	-4426
▁መሥገዷን	-4427
▁መቅደሡን	-4428
▁መጀመሪያ	-4429
▁ማልታቸዉ	-4430
▁ማሪያምን	-4431
▁ማርያምን	-4432
▁ማዘለሏን	-4433
▁ምህረትህ	-4434
▁ምሥክሮች	-4435
▁ምእመናን	-4436
▁ሠርገኛዉ	-4437
▁ሢመለከት	-4438
▁ሢፈጥረው	-4439
▁ሥትሠማዉ	-4440
▁ሥትናወጥ	-4441
▁ቅዱሣንን	-4442
▁ቅጥልጥል	-4443
▁በህይወቴ	-4444
▁በሌለበት	-4445
▁በመሀከል	-4446
▁በመሥቀሉ	-4447
▁በመንገድ	-4448
▁በመንፈሥ	-4449
▁በመጥፋቱ	-4450
▁በማህፀን	-4451
▁በማህፀኗ	-4452
▁በማፋለሥ	-4453
▁በምህረቱ	-4454
▁በምልጃዋ	-4455
▁በምንፈሥ	-4456
▁በርባንን	-4457
▁በበረከት	-4458
▁በተሠጠን	-4459
▁በተንኮል	-4460
▁በተዋህዶ	-4461
▁በትንቢት	-4462
▁በአማላጅ	-4463
▁በአኮቴት	-4464
▁በአይሁድ	-4465
▁በእርሥቴ	-4466
▁በክፉዎች	-4467
▁በዮሀንሥ	-4468
▁በግፈኞች	-4469
▁በፍጥረት	-4470
▁ባለንበት	-4471
▁ባገኝበት	-4472
▁ቤተልሄም	-4473
▁ብርሀንን	-4474
▁ተመልከት	-4475
▁ተሥፋዬን	-4476
▁ተረጋግጦ	-4477
▁ታምራቷን	-4478
▁ትመሥክር	-4479
▁አልቀርም	-4480
▁አልቻለም	-4481
▁አልችልም	-4482
▁አመፀኛው	-4483
▁አምላክም	-4484
▁አሥችለኝ	-4485
▁አሸነፈች	-4486
▁አሻፈረኝ	-4487
▁አቅቷቸው	-4488
▁አቋረጠው	-4489
▁አበሠራት	-4490
▁አብርሀም	-4491
▁አንደበቴ	-4492
▁አንዳችም	-4493
▁ኤልሣቤጥ	-4494
▁ኤልሻዳይ	-4495
▁እሥከሞት	-4496
▁እሩህሩህ	-4497
▁እርቃኔን	-4498
▁እናታችን	-4499
▁እንክርዳ	-4500
▁እንኳንሥ	-4501
▁እንደማይ	-4502
▁እንዳትተ	-4503
▁እውቀትን	-4504
▁እውነታው	-4505
▁እየፈራች	-4506
▁እያልከኝ	-4507
▁እደዘለለ	-4508
▁ከመቅደሡ	-4509
▁ውሥጣችን	-4510
▁ዘፍጥረት	-4511
▁የልጅነት	-4512
▁የመሥቀሉ	-4513
▁የሚኖረው	-4514
▁የማርያም	-4515
▁የማይሻር	-4516
▁የምህረት	-4517
▁የምንለው	-4518
▁የቆምኩኝ	-4519
▁የተወለድ	-4520
▁የአለምን	-4521
▁የአመታት	-4522
▁የአምላኬ	-4523
▁የአባቶቼ	-4524
▁የእርሡሥ	-4525
▁ያላያችሁ	-4526
▁ይመሥክር	-4527
▁ይቅርብኝ	-4528
▁ዳግማዊው	-4529
▁ገብረኤል	-4530
▁ጌታችንን	-4531
▁ግብራቸው	-4532
▁ጠላታችን	-4533
▁ጠፋባቸው	-4534
▁ጭንቀቱን	-4535
▁ለእንደገና	-4536
▁ሊቃውንትን	-4537
▁ልንገራችሁ	-4538
▁ሥላልተፃፈ	-4539
▁በመላእክት	-4540
▁በትእግሥት	-4541
▁በዲያብሎሥ	-4542
▁ተዋረድኩኝ	-4543
▁ታምራቱዋን	-4544
▁አልሠማህም	-4545
▁አሥጨንቀው	-4546
▁አንድነትን	-4547
▁እሥራኤልን	-4548
▁እንቅልፌን	-4549
▁እንደሌለው	-4550
▁እንዳልጠፋ	-4551
▁እንዳይሆን	-4552
▁እንዳይቀር	-4553
▁እንዳይበላ	-4554
▁እየተከተለ	-4555
▁እየደነገጠ	-4556
▁ከሀይማኖት	-4557
▁ከምትናገሩ	-4558
▁ክርሥቶሥን	-4559
▁የሀዋርያት	-4560
▁የመሥቀሉን	-4561
▁የሚያሣርፍ	-4562
▁የሚያደርጉ	-4563
▁የዲያቢሎሥ	-4564
▁የዲያብሎሥ	-4565
▁ያልተማረው	-4566
▁ያልገባችሁ	-4567
▁ጆሮአቸውም	-4568
▁ጠፍቶባቸው	-4569
▁ለዘለአላለም	-4570
▁ማሥነሣቱዋን	-4571
▁ምድራዉያንን	-4572
▁ሠማያዉያንን	-4573
▁በሚገለጥበት	-4574
▁የሠላምታዋን	-4575
▁የተደረገለት	-4576
▁ይቅበዘበዛሉ	-4577
▁በእግዚአብሄር	-4578
▁አሥጨንቀዋለሁ	-4579
▁እንደመጣላችሁ	-4580
▁ከእግዚአብሄር	-4581
▁የሚያሥጨንቀኝን	-4582
ሀው	-4583
ሀዱ	-4584
ሁም	-4585
ሁቱ	-4586
ህሌ	-4587
ሇላ	-4588
ለባ	-4589
ለኮ	-4590
ለዷ	-4591
ለፋ	-4592
ሉቃ	-4593
ሉኝ	-4594
ሉእ	-4595
ሊለ	-4596
ሊቀ	-4597
ሊጶ	-4598
ላሣ	-4599
ሀዩ	-4600
ህኔ	-4601
ለካ	-4602
ለክ	-4603
ላሡ	-4604
ላቹ	-4605
ላን	-4606
ላጊ	-4607
ላጡ	-4608
ልመ	-4609
ልተ	-4610
ልት	-4611
ልቸ	-4612
ልው	-4613
ልጁ	-4614
ልጅ	-4615
ልጋ	-4616
ልጐ	-4617
ልፉ	-4618
ሎሽ	-4619
መቁ	-4620
መቱ	-4621
መቼ	-4622
መኔ	-4623
መኪ	-4624
ሙና	-4625
ሙኝ	-4626
ማላ	-4627
ማሌ	-4628
ማሽ	-4629
ማቱ	-4630
ማታ	-4631
ማቴ	-4632
ማች	-4633
ማኒ	-4634
ምሣ	-4635
ምቅ	-4636
ምቱ	-4637
ምግ	-4638
ሞቅ	-4639
ሠሙ	-4640
ሠሥ	-4641
ሠሦ	-4642
ሠቀ	-4643
ሠኛ	-4644
ሠየ	-4645
ሠደ	-4646
ሠጡ	-4647
ሡየ	-4648
ሢቲ	-4649
ሢካ	-4650
ሣሥ	-4651
ሣሿ	-4652
ሣቆ	-4653
ሣኑ	-4654
ሣዝ	-4655
ሣድ	-4656
ሤሥ	-4657
ሤር	-4658
ሥለ	-4659
ሥማ	-4660
ሥሥ	-4661
ሥቴ	-4662
ረሀ	-4663
ረረ	-4664
ረሷ	-4665
ረሽ	-4666
ረብ	-4667
ረቴ	-4668
ረቷ	-4669
ረኛ	-4670
ረዝ	-4671
ሩሩ	-4672
ሩኝ	-4673
ሩጫ	-4674
ራር	-4675
ራሼ	-4676
ራኑ	-4677
ራኒ	-4678
ራኘ	-4679
ራፌ	-4680
ሬው	-4681
ርሠ	-4682
ርሣ	-4683
ርሽ	-4684
ርክ	-4685
ሮሮ	-4686
ሯሷ	-4687
ሯት	-4688
ሷል	-4689
ሷን	-4690
ሸረ	-4691
ሸር	-4692
ሸሸ	-4693
ሻፋ	-4694
ቀላ	-4695
ቀኘ	-4696
ቀኛ	-4697
ቀይ	-4698
ቀጥ	-4699
ቁል	-4700
ቁር	-4701
ቂቁ	-4702
ቂቱ	-4703
ቂኝ	-4704
ቃብ	-4705
ቃን	-4706
ቃኝ	-4707
ቅመ	-4708
ቅሜ	-4709
ቅሦ	-4710
ቅሮ	-4711
ቅተ	-4712
ቅና	-4713
ቅኔ	-4714
ቆቱ	-4715
ቆጥ	-4716
ቋን	-4717
ቍጣ	-4718
በቡ	-4719
በን	-4720
በአ	-4721
በዙ	-4722
በዝ	-4723
በይ	-4724
በግ	-4725
በፍ	-4726
ቡና	-4727
ቢቱ	-4728
ባለ	-4729
ባሉ	-4730
ባሠ	-4731
ባቤ	-4732
ባው	-4733
ባየ	-4734
ብላ	-4735
ብሩ	-4736
ብራ	-4737
ብብ	-4738
ብጦ	-4739
ቦካ	-4740
ቪሥ	-4741
ቫጆ	-4742
ተረ	-4743
ተብ	-4744
ተቱ	-4745
ተፈ	-4746
ታኒ	-4747
ታግ	-4748
ቴሤ	-4749
ቴው	-4750
ትኖ	-4751
ቻት	-4752
ነክ	-4753
ነይ	-4754
ነጥ	-4755
ነጻ	-4756
ነፃ	-4757
ኑኝ	-4758
ኒኩ	-4759
ናም	-4760
ናዝ	-4761
ናዳ	-4762
ንቃ	-4763
ንቶ	-4764
ንጉ	-4765
ኖሬ	-4766
ኖቹ	-4767
ኘህ	-4768
ኝቱ	-4769
ኝቷ	-4770
አሉ	-4771
አም	-4772
አኩ	-4773
ኡክ	-4774
ኣት	-4775
እሏ	-4776
እቆ	-4777
እየ	-4778
እግ	-4779
ኦን	-4780
ከሬ	-4781
ከኑ	-4782
ከኩ	-4783
ከካ	-4784
ከያ	-4785
ኩላ	-4786
ኩር	-4787
ኩይ	-4788
ኪዮ	-4789
ካሜ	-4790
ካኝ	-4791
ካከ	-4792
ኬፋ	-4793
ክለ	-4794
ክረ	-4795
ክቶ	-4796
ክቼ	-4797
ኮራ	-4798
ኮች	-4799
ኵሉ	-4800
ኸን	-4801
ወራ	-4802
ወዛ	-4803
ወጫ	-4804
ዊቱ	-4805
ዋላ	-4806
ዋር	-4807
ዋሻ	-4808
ዋሼ	-4809
ዋበ	-4810
ዋዛ	-4811
ዋይ	-4812
ዋጅ	-4813
ውር	-4814
ውቁ	-4815
ዎሥ	-4816
ዘና	-4817
ዘይ	-4818
ዛል	-4819
ዛሬ	-4820
ዛዛ	-4821
ዛዥ	-4822
ዜው	-4823
ዝራ	-4824
ዝቧ	-4825
ዝዞ	-4826
ዝዤ	-4827
ዞር	-4828
ዟት	-4829
ዢኝ	-4830
ዥው	-4831
የኝ	-4832
ዩጵ	-4833
ያማ	-4834
ያኑ	-4835
ያዝ	-4836
ያዩ	-4837
ይኔ	-4838
ይን	-4839
ዮቹ	-4840
ደላ	-4841
ደማ	-4842
ደም	-4843
ደቶ	-4844
ደፋ	-4845
ዳሉ	-4846
ዳጁ	-4847
ድኩ	-4848
ዶህ	-4849
ዶር	-4850
ጇን	-4851
ገቡ	-4852
ገታ	-4853
ገት	-4854
ገኙ	-4855
ገዙ	-4856
ገየ	-4857
ገደ	-4858
ገዱ	-4859
ገግ	-4860
ጉህ	-4861
ጉሜ	-4862
ጉም	-4863
ጋሁ	-4864
ጋሽ	-4865
ጋች	-4866
ጋን	-4867
ጌሉ	-4868
ግክ	-4869
ግው	-4870
ግፍ	-4871
ጎድ	-4872
ጓዘ	-4873
ጓደ	-4874
ጠሥ	-4875
ጠነ	-4876
ጠየ	-4877
ጢጢ	-4878
ጣሉ	-4879
ጣም	-4880
ጣራ	-4881
ጤዛ	-4882
ጥሉ	-4883
ጥራ	-4884
ጥሬ	-4885
ጥቅ	-4886
ጥኖ	-4887
ጥኝ	-4888
ጥኡ	-4889
ጧት	-4890
ጨሥ	-4891
ጭኝ	-4892
ጲጵ	-4893
ጸም	-4894
ጸባ	-4895
ጸፅ	-4896
ጹብ	-4897
ጽል	-4898
ጽኑ	-4899
ጽፎ	-4900
ፀል	-4901
ፀኑ	-4902
ፁብ	-4903
ፃና	-4904
ፃጉ	-4905
ፅሎ	-4906
ፅፋ	-4907
ፆሙ	-4908
ፈሩ	-4909
ፈሯ	-4910
ፈሽ	-4911
ፈቀ	-4912
ፈኑ	-4913
ፈፈ	-4914
ፉም	-4915
ፋቅ	-4916
ፋኒ	-4917
ፋጀ	-4918
ፋጠ	-4919
ፍል	-4920
▁ሎ	-4921
▁ቊ	-4922
▁ቶ	-4923
▁ኋ	-4924
▁ጷ	-4925
▁❷	-4926
▁❸	-4927
▁❹	-4928
▁❺	-4929
▁❻	-4930
▁❼	-4931
ሀቡን	-4932
ሀነም	-4933
ሄደው	-4934
ህፍት	-4935
ለመን	-4936
ለመው	-4937
ለሽና	-4938
ለታል	-4939
ለችም	-4940
ለዋል	-4941
ለውና	-4942
ለውጥ	-4943
ሉቃሥ	-4944
ሊሦች	-4945
ሊጶሥ	-4946
ላለን	-4947
ልልታ	-4948
ልሽቶ	-4949
ልተን	-4950
ልካም	-4951
መሥሎ	-4952
መንት	-4953
ሙኝማ	-4954
ማሬው	-4955
ማኛል	-4956
ምላኩ	-4957
ምራህ	-4958
ምቶኝ	-4959
ምንቱ	-4960
ምጠኝ	-4961
ሞተም	-4962
ሞክር	-4963
ሞገሥ	-4964
ሠበር	-4965
ሠትን	-4966
ሣቸው	-4967
ረሥቼ	-4968
ረናል	-4969
ረዱኝ	-4970
ሩንም	-4971
ሪያህ	-4972
ራመድ	-4973
ራዊቱ	-4974
ርቀን	-4975
ርገም	-4976
ሸነፈ	-4977
ሸንጎ	-4978
ሻለን	-4979
ሻውን	-4980
ሽንም	-4981
ሽንት	-4982
ሽከረ	-4983
ቀኛል	-4984
ቀዳው	-4985
ቅርታ	-4986
ቅባት	-4987
ቅዶን	-4988
ቅጣጫ	-4989
ቆጠር	-4990
ቆጣው	-4991
በርሥ	-4992
በደሌ	-4993
ባርቆ	-4994
ባበር	-4995
ባየን	-4996
ብርቶ	-4997
ቦቷን	-4998
ተኞች	-4999
ሆናት	-5000
ልሀል	-5001
ማመን	-5002
ሜቱን	-5003
ሠማያ	-5004
ሠብክ	-5005
ሣቱን	-5006
ሣችሁ	-5007
ሥቀር	-5008
ሥታው	-5009
ረሣት	-5010
ሪቱን	-5011
ሻገር	-5012
ቅተው	-5013
በርታ	-5014
ብላት	-5015
ብርን	-5016
ተኸኝ	-5017
ቱንም	-5018
ትንም	-5019
ቶልህ	-5020
ቸውን	-5021
ቻኮሉ	-5022
ችውና	-5023
ነሠው	-5024
ነሣል	-5025
ነሣኝ	-5026
ነሣው	-5027
ነትህ	-5028
ነትሽ	-5029
ነውም	-5030
ናትህ	-5031
ናትን	-5032
ናውን	-5033
ናውጥ	-5034
ናየው	-5035
ኔውን	-5036
ንሠር	-5037
ንቅም	-5038
ንበት	-5039
ንክሮ	-5040
ንጣሪ	-5041
ኗቸው	-5042
ኛለሁ	-5043
ኞችን	-5044
አትም	-5045
አችን	-5046
እልተ	-5047
እሥክ	-5048
እናን	-5049
እንዲ	-5050
ከሣት	-5051
ከራው	-5052
ከባሪ	-5053
ኩለው	-5054
ኪናው	-5055
ካሟን	-5056
ካችን	-5057
ኮንድ	-5058
ኮከብ	-5059
ወርሥ	-5060
ወደድ	-5061
ወድቁ	-5062
ወጣኝ	-5063
ዊበፍ	-5064
ዋለህ	-5065
ዋለው	-5066
ዋንጫ	-5067
ዋጠኝ	-5068
ውልደ	-5069
ውፊት	-5070
ዎትን	-5071
ዎችን	-5072
ዘመር	-5073
ዘምር	-5074
ዘምቱ	-5075
ዘንተ	-5076
ዚእን	-5077
ዛቱን	-5078
ያለን	-5079
ያኖሥ	-5080
ያውቅ	-5081
ዮንን	-5082
ደረሠ	-5083
ደርቅ	-5084
ደባል	-5085
ዳለው	-5086
ዳረሥ	-5087
ዳክር	-5088
ድሀኒ	-5089
ድረሥ	-5090
ድርግ	-5091
ዷቸው	-5092
ጀምር	-5093
ገለጽ	-5094
ገርሞ	-5095
ገነት	-5096
ገናና	-5097
ገኘሁ	-5098
ገኘሽ	-5099
ሆናል	-5100
ላጊዋ	-5101
ሎሥን	-5102
መሥጦ	-5103
ቀናል	-5104
ቁልኝ	-5105
በሙሉ	-5106
በቡን	-5107
በደለ	-5108
ብያት	-5109
ተቀር	-5110
ቲሣው	-5111
ነገረ	-5112
ኩልኝ	-5113
ውልድ	-5114
ዙዎች	-5115
ይኸው	-5116
ደረቷ	-5117
ደዋል	-5118
ገረፍ	-5119
ጋለሁ	-5120
ጋደለ	-5121
ግሽን	-5122
ግሽኝ	-5123
ግበት	-5124
ግተው	-5125
ጎችህ	-5126
ጎንህ	-5127
ጠልኩ	-5128
ጠመቅ	-5129
ጠረው	-5130
ጠናም	-5131
ጠይቁ	-5132
ጠገበ	-5133
ጠገቡ	-5134
ጡበት	-5135
ጣችሁ	-5136
ጥንቱ	-5137
ጨርሥ	-5138
ጨፍራ	-5139
ጫነው	-5140
ጭበር	-5141
ፀናል	-5142
ፅልህ	-5143
ፈቀው	-5144
ፈጣሪ	-5145
ፉበት	-5146
ፉትን	-5147
ፋበት	-5148
ፋቱን	-5149
ፋቸው	-5150
ፍረው	-5151
ፍራል	-5152
ፍቅር	-5153
ፎምያ	-5154
▁ሀያ	-5155
▁ህመ	-5156
▁ለሆ	-5157
▁ለተ	-5158
▁ለዋ	-5159
▁ለዚ	-5160
▁ለዛ	-5161
▁ለያ	-5162
▁ለደ	-5163
▁ለጠ	-5164
▁ለፋ	-5165
▁ሊዘ	-5166
▁ሊደ	-5167
▁ልቆ	-5168
▁ልይ	-5169
▁መሄ	-5170
▁መተ	-5171
▁መዋ	-5172
▁መደ	-5173
▁መጎ	-5174
▁መጽ	-5175
▁መፅ	-5176
▁ሙታ	-5177
▁ሚደ	-5178
▁ማዘ	-5179
▁ማዳ	-5180
▁ማድ	-5181
▁ማፋ	-5182
▁ምሪ	-5183
▁ምሮ	-5184
▁ምሽ	-5185
▁ምጥ	-5186
▁ሞቱ	-5187
▁ሞቼ	-5188
▁ሠሜ	-5189
▁ሠሪ	-5190
▁ሠጠ	-5191
▁ሠጡ	-5192
▁ሠጪ	-5193
▁ሢና	-5194
▁ሣሣ	-5195
▁ሣተ	-5196
▁ሣኦ	-5197
▁ሣዊ	-5198
▁ሥህ	-5199
ሆነን	-5200
ለታት	-5201
ሣሥሎ	-5202
ሣጣን	-5203
ሥፋፋ	-5204
ረሣኝ	-5205
ረተኛ	-5206
ራሡን	-5207
ርሡም	-5208
ሽታው	-5209
ቃለህ	-5210
ቦታው	-5211
ታመነ	-5212
ኖራል	-5213
ኬቴን	-5214
ያውም	-5215
ደለኝ	-5216
ደትህ	-5217
ገባህ	-5218
ገባን	-5219
ገባኝ	-5220
ገደል	-5221
▁ሌት	-5222
▁ሥሟ	-5223
▁ሥቼ	-5224
▁ሥደ	-5225
▁ሥድ	-5226
▁ሥጦ	-5227
▁ሥፖ	-5228
▁ረገ	-5229
▁ሹሞ	-5230
▁ሽቶ	-5231
▁ቀል	-5232
▁ቀሪ	-5233
▁ቀየ	-5234
▁ቀያ	-5235
▁ቁል	-5236
▁ቁም	-5237
▁ቅም	-5238
▁ቅር	-5239
▁ቅቤ	-5240
▁ቅድ	-5241
▁ቅፅ	-5242
▁ቆመ	-5243
▁ቆዳ	-5244
▁በሆ	-5245
▁በሦ	-5246
▁በሩ	-5247
▁በሬ	-5248
▁በሮ	-5249
▁በሷ	-5250
▁በቤ	-5251
▁በኢ	-5252
▁በዱ	-5253
▁በዳ	-5254
▁ቡጢ	-5255
▁ቢላ	-5256
▁ቢሡ	-5257
▁ቢሥ	-5258
▁ቢታ	-5259
▁ባየ	-5260
▁ቤቴ	-5261
▁ብሂ	-5262
▁ብል	-5263
▁ብታ	-5264
▁ብና	-5265
▁ብእ	-5266
▁ተሟ	-5267
▁ተቈ	-5268
▁ተበ	-5269
▁ተኮ	-5270
▁ተድ	-5271
▁ተጉ	-5272
▁ተጨ	-5273
▁ታሠ	-5274
▁ታን	-5275
▁ትሥ	-5276
▁ትኖ	-5277
▁ትክ	-5278
▁ነሥ	-5279
▁ነት	-5280
▁ነች	-5281
▁ነጽ	-5282
▁ናቅ	-5283
▁ንቆ	-5284
▁ንኡ	-5285
▁ንዶ	-5286
▁ንጽ	-5287
▁ንፅ	-5288
▁አሟ	-5289
▁አሢ	-5290
▁አሦ	-5291
▁አቶ	-5292
▁አኑ	-5293
▁አኔ	-5294
▁አጅ	-5295
▁አጽ	-5296
▁አፌ	-5297
▁እሄ	-5298
▁እህ	-5299
ሊበላ	-5300
ላውቅ	-5301
ልቅም	-5302
መልከ	-5303
ረካም	-5304
ራዊት	-5305
ርቅም	-5306
ቀድሞ	-5307
ቆመው	-5308
በችው	-5309
በኞች	-5310
ብሽኝ	-5311
ተሀል	-5312
ኑሮዬ	-5313
ከመኝ	-5314
ወንዙ	-5315
ውሥጡ	-5316
ደረጉ	-5317
ደኑኝ	-5318
ጀመረ	-5319
ጀክት	-5320
ጨልም	-5321
ፍሀል	-5322
▁ሸሸ	-5323
▁እሹ	-5324
▁እኒ	-5325
▁እዉ	-5326
▁እዋ	-5327
▁እጁ	-5328
▁እጾ	-5329
▁እፅ	-5330
▁ከሌ	-5331
▁ከሙ	-5332
▁ከማ	-5333
▁ከሷ	-5334
▁ከኢ	-5335
▁ከካ	-5336
▁ከዮ	-5337
▁ከጅ	-5338
▁ከጨ	-5339
▁ከጫ	-5340
▁ካለ	-5341
▁ካን	-5342
▁ካይ	-5343
▁ኮሮ	-5344
▁ኮነ	-5345
▁ወሬ	-5346
▁ወዶ	-5347
▁ወጋ	-5348
▁ዋና	-5349
▁ውብ	-5350
▁ውጥ	-5351
▁ውጭ	-5352
▁ዘን	-5353
▁ዘካ	-5354
▁ዜና	-5355
▁ዝሙ	-5356
▁ዝና	-5357
▁የሞ	-5358
▁የሷ	-5359
▁የክ	-5360
▁የየ	-5361
▁የድ	-5362
▁የጺ	-5363
▁ያር	-5364
▁ያቁ	-5365
▁ያቺ	-5366
▁ይቀ	-5367
▁ይተ	-5368
▁ይን	-5369
▁ይኽ	-5370
▁ይጣ	-5371
▁ይፈ	-5372
▁ደሀ	-5373
▁ደሙ	-5374
▁ደሞ	-5375
▁ደባ	-5376
▁ደነ	-5377
▁ደጅ	-5378
▁ደገ	-5379
▁ደጋ	-5380
▁ዱባ	-5381
▁ዳሥ	-5382
▁ዳቦ	-5383
▁ዳን	-5384
▁ዳዊ	-5385
▁ድብ	-5386
▁ድኬ	-5387
▁ገመ	-5388
▁ገጹ	-5389
▁ገጽ	-5390
▁ገፅ	-5391
▁ጉቦ	-5392
▁ጋሪ	-5393
▁ግል	-5394
▁ጎማ	-5395
▁ጎሣ	-5396
▁ጎሥ	-5397
▁ጎፋ	-5398
▁ጠል	-5399
ላቱት	-5400
ልመት	-5401
ማትር	-5402
ሣየው	-5403
ሥማር	-5404
ራኒዮ	-5405
ርቀኝ	-5406
ሷልና	-5407
ቅሣል	-5408
ቆምም	-5409
በሡት	-5410
ከብሩ	-5411
ደንቆ	-5412
ጀመር	-5413
ፈጠጠ	-5414
▁ጠም	-5415
▁ጠቋ	-5416
▁ጠየ	-5417
▁ጠጁ	-5418
▁ጠጋ	-5419
▁ጠፊ	-5420
▁ጠፍ	-5421
▁ጣለ	-5422
▁ጣራ	-5423
▁ጥል	-5424
▁ጥም	-5425
▁ጥሪ	-5426
▁ጥር	-5427
▁ጥፊ	-5428
▁ጨው	-5429
▁ጸሎ	-5430
▁ጸጥ	-5431
▁ፅህ	-5432
▁ፈታ	-5433
▁ፋታ	-5434
▁ፍም	-5435
▁ፍቃ	-5436
▁ፍጡ	-5437
▁ፍፃ	-5438
ሆንኩኝ	-5439
ለምናል	-5440
ላውያን	-5441
ልአኩን	-5442
መለሠም	-5443
መልክህ	-5444
መልጠው	-5445
መሠግን	-5446
መሥለኝ	-5447
መሥለው	-5448
መሥልህ	-5449
መንከኝ	-5450
መንዘር	-5451
ማኖትን	-5452
ምበሠው	-5453
ምግለው	-5454
ምጣብኝ	-5455
ሥራኤል	-5456
ሥቀልህ	-5457
ሥተዋል	-5458
ሥታርቅ	-5459
ሥጨናቂ	-5460
ረተኛን	-5461
ረግጠው	-5462
ራፊኮች	-5463
ርሎሥን	-5464
ቀበለው	-5465
ቀደመው	-5466
በረከት	-5467
በዛለን	-5468
በደሥታ	-5469
ባልዮሥ	-5470
ብሥበው	-5471
ተውከኝ	-5472
ታችንን	-5473
ታውቀው	-5474
ታደገን	-5475
ትናንቱ	-5476
ነባበር	-5477
ነታቸው	-5478
ነታችን	-5479
ነትሽን	-5480
ነግረው	-5481
ንቀሣቀ	-5482
ንቅልፍ	-5483
አምላክ	-5484
ከለከለ	-5485
ክትመጣ	-5486
ወድሣት	-5487
ዋለሁኝ	-5488
የሠማዩ	-5489
ደርገኝ	-5490
ደንቀው	-5491
ዳቸውም	-5492
ዳንከኝ	-5493
ድቃቸው	-5494
ገሠግሥ	-5495
ገሥገሥ	-5496
ገኘንም	-5497
ገኘኸው	-5498
ገኛቸው	-5499
ምረን	-5500
ሠደድ	-5501
ርባን	-5502
ሸነፍ	-5503
ሻልና	-5504
ቀመኝ	-5505
ቀመጤ	-5506
ቀጡት	-5507
ቃጥል	-5508
በሠኝ	-5509
በዋት	-5510
ታልና	-5511
ነቃኝ	-5512
ወድም	-5513
ዝቷል	-5514
ደነቅ	-5515
ራችንን	-5516
ቃጥለው	-5517
ታደሮች	-5518
ነግረኝ	-5519
ናገረው	-5520
ከልኸው	-5521
ኪዳንሽ	-5522
ደርሠን	-5523
ደርገው	-5524
ዶክሣው	-5525
ገድለው	-5526
ጎንብሦ	-5527
ጐንበሥ	-5528
ጠራችሁ	-5529
ጠቀመኝ	-5530
ጠብቀን	-5531
ጠይቀው	-5532
ጠፋበት	-5533
ፃድቃን	-5534
ፈላባት	-5535
ፈልገው	-5536
ፈራርቅ	-5537
ፈርሣት	-5538
ፈውሣል	-5539
ፈጠረው	-5540
ፈጠራት	-5541
ፍህበት	-5542
▁ሀሜት	-5543
▁ሀረግ	-5544
▁ሀገሩ	-5545
▁ሀጣን	-5546
▁ሀጥኡ	-5547
▁ሁለቴ	-5548
▁ሄደህ	-5549
▁ሄደው	-5550
▁ሄድኩ	-5551
▁ህመሙ	-5552
▁ህዝበ	-5553
▁ህጸፅ	-5554
▁ሆነች	-5555
▁ሆነና	-5556
▁ሆዱን	-5557
▁ለህዝ	-5558
▁ለመነ	-5559
▁ለማደ	-5560
▁ለሠራ	-5561
▁ለሥራ	-5562
▁ለራሥ	-5563
▁ለበሠ	-5564
▁ለተማ	-5565
▁ለአባ	-5566
▁ለይቶ	-5567
▁ሉቃሥ	-5568
▁ሊሄዱ	-5569
▁ሊሠራ	-5570
▁ሊሠጥ	-5571
▁ሊቀካ	-5572
▁ሊያሠ	-5573
▁ሊያዩ	-5574
▁ሊጥል	-5575
▁ላልጠ	-5576
▁ላሠረ	-5577
▁ላሥብ	-5578
▁ላከው	-5579
▁ላፍታ	-5580
▁ልሁን	-5581
▁ልሄም	-5582
▁ልቡና	-5583
▁ልብን	-5584
▁ልተው	-5585
▁ልትመ	-5586
▁ልጅን	-5587
▁ልጠራ	-5588
▁ልፋት	-5589
▁መለሥ	-5590
▁መለዋ	-5591
▁መለዮ	-5592
▁መላኩ	-5593
▁መላው	-5594
▁መልሡ	-5595
▁መልከ	-5596
▁መምቻ	-5597
▁መሞት	-5598
▁መሠደ	-5599
ለቅም	-5600
ሠፍት	-5601
ረጋጋ	-5602
ራርዳ	-5603
ራፌል	-5604
ርዮሥ	-5605
ርዳት	-5606
ባዝን	-5607
ነቢያ	-5608
ነከሩ	-5609
ዜርም	-5610
ዝእት	-5611
ግርም	-5612
ጠርም	-5613
ጠቅም	-5614
ጥራል	-5615
ፍርም	-5616
ፍትሄ	-5617
ላጃችን	-5618
መላለሥ	-5619
መልከት	-5620
ሠረችው	-5621
ሸከመው	-5622
ቀድልኝ	-5623
በሥኽው	-5624
ተትኸው	-5625
ቴሤማኒ	-5626
ከሩበት	-5627
ወንበዴ	-5628
ጎበኘው	-5629
ጥናለን	-5630
ጥያኖሥ	-5631
ፀናበት	-5632
▁ለሚያ	-5633
▁ሊመል	-5634
▁ላመነ	-5635
▁መሥራ	-5636
▁መርቶ	-5637
▁መርዝ	-5638
▁መባሌ	-5639
▁መቷል	-5640
▁መናፈ	-5641
▁መንፈ	-5642
▁መዘን	-5643
▁መጠህ	-5644
▁መጠመ	-5645
▁መጣህ	-5646
▁መጥቼ	-5647
▁መጥፎ	-5648
▁ሙሤን	-5649
▁ሙቀት	-5650
▁ሙዳይ	-5651
▁ሚሠጥ	-5652
▁ሚታዩ	-5653
▁ሚዳቋ	-5654
▁ማህተ	-5655
▁ማንሥ	-5656
▁ማወቅ	-5657
▁ማዳን	-5658
▁ምሁር	-5659
▁ምህላ	-5660
▁ምሉእ	-5661
▁ምሬቱ	-5662
▁ምትክ	-5663
▁ምንሥ	-5664
▁ምንጩ	-5665
▁ሞተህ	-5666
▁ሞገድ	-5667
▁ሠሙት	-5668
▁ሠሙን	-5669
▁ሠባት	-5670
▁ሠውና	-5671
▁ሠይሜ	-5672
▁ሠገል	-5673
▁ሠጠህ	-5674
▁ሠጠን	-5675
▁ሠጣት	-5676
▁ሢላክ	-5677
▁ሢመታ	-5678
▁ሢርቅ	-5679
▁ሢቀዘ	-5680
▁ሢነቃ	-5681
▁ሢኖሩ	-5682
▁ሢወጣ	-5683
▁ሢደር	-5684
▁ሢደክ	-5685
▁ሢገዛ	-5686
▁ሢጠፍ	-5687
▁ሣየው	-5688
▁ሣይወ	-5689
▁ሤቷን	-5690
▁ሥለቱ	-5691
▁ሥለነ	-5692
▁ሥለእ	-5693
▁ሥላት	-5694
▁ሥላጣ	-5695
▁ሥሙኝ	-5696
▁ሥምም	-5697
▁ሥምአ	-5698
▁ሥሠራ	-5699
ለቅሡ	-5700
ለየች	-5701
ሠርክ	-5702
ራዊቷ	-5703
ቅማማ	-5704
በቁት	-5705
ባኦት	-5706
ተኛም	-5707
ነተኛ	-5708
ኖቹን	-5709
እሣቱ	-5710
ከሣሿ	-5711
ከበኝ	-5712
ከፋኝ	-5713
ዋለክ	-5714
ያቄህ	-5715
ገኛት	-5716
▁ዱላ	-5717
▁ዱር	-5718
▁ጮኸ	-5719
▁ፋና	-5720
ልክቶች	-5721
ከተላል	-5722
▁ሀሣብ	-5723
▁ህግን	-5724
▁ልመራ	-5725
▁መሪው	-5726
▁መፃኢ	-5727
▁ሚጠጣ	-5728
▁ሠበቅ	-5729
▁ሥራን	-5730
▁ሥራዬ	-5731
▁ሥሽር	-5732
▁ሥንዱ	-5733
▁ሥወጣ	-5734
▁ሥጋም	-5735
▁ሥጠኝ	-5736
▁ሦሥቴ	-5737
▁ርህሩ	-5738
▁ርግብ	-5739
▁ሽረቱ	-5740
▁ሽፍቶ	-5741
▁ቀሥት	-5742
▁ቀረቦ	-5743
▁ቀረቶ	-5744
▁ቀረና	-5745
▁ቀናት	-5746
▁ቀኔን	-5747
▁ቀንበ	-5748
▁ቀድማ	-5749
▁ቀጠሮ	-5750
▁ቅኔና	-5751
▁ቅጠል	-5752
▁ቆመው	-5753
▁ቆቡን	-5754
▁ቆጠራ	-5755
▁ቆጥሮ	-5756
▁በሀጥ	-5757
▁በለም	-5758
▁በለው	-5759
▁በሏት	-5760
▁በመላ	-5761
▁በማቀ	-5762
▁በሠዉ	-5763
▁በሥመ	-5764
▁በሥሟ	-5765
▁በሥራ	-5766
▁በሥብ	-5767
▁በራፍ	-5768
▁በርሡ	-5769
▁በርታ	-5770
▁በቀና	-5771
▁በቁን	-5772
▁በበጎ	-5773
▁በናዝ	-5774
▁በአሉ	-5775
▁በአሣ	-5776
▁በአሥ	-5777
▁በአካ	-5778
▁በአክ	-5779
▁በአጭ	-5780
▁በአፈ	-5781
▁በእር	-5782
▁በእው	-5783
▁በእጁ	-5784
▁በውሀ	-5785
▁በውሠ	-5786
▁በውሻ	-5787
▁በዜማ	-5788
▁በደጋ	-5789
▁በግፍ	-5790
▁በፀጋ	-5791
▁ቢለም	-5792
▁ቢለው	-5793
▁ቢመጣ	-5794
▁ቢረሣ	-5795
▁ቢቀር	-5796
▁ቢያሥ	-5797
▁ቢያዝ	-5798
▁ቢያይ	-5799
ለወጥ	-5800
ለያየ	-5801
ለያይ	-5802
ላተም	-5803
ምጥም	-5804
ሣየኝ	-5805
ባብሮ	-5806
ነዙት	-5807
ናታል	-5808
ካሦች	-5809
ጠሩት	-5810
ሥታግሥ	-5811
ትንሣኤ	-5812
ወሥዱት	-5813
ገባኝም	-5814
ግርፋት	-5815
▁መዳኛ	-5816
▁ምርጥ	-5817
▁ምግቡ	-5818
▁ምግቤ	-5819
▁ሥውል	-5820
▁ርሥት	-5821
▁ቀለለ	-5822
▁ቁርጥ	-5823
▁ቢያጣ	-5824
▁ቢጠጣ	-5825
▁ባረካ	-5826
▁ባሪያ	-5827
▁ባርኮ	-5828
▁ባበራ	-5829
▁ባንዱ	-5830
▁ባክህ	-5831
▁ባድማ	-5832
▁ባድር	-5833
▁ቤትህ	-5834
▁ብለሽ	-5835
▁ብረት	-5836
▁ብረድ	-5837
▁ብቀር	-5838
▁ብታይ	-5839
▁ብትል	-5840
▁ብኩን	-5841
▁ቦታሥ	-5842
▁ተለይ	-5843
▁ተላል	-5844
▁ተማታ	-5845
▁ተሠማ	-5846
▁ተሥቦ	-5847
▁ተሸን	-5848
▁ተቀን	-5849
▁ተቀጣ	-5850
▁ተቃጥ	-5851
▁ተነሽ	-5852
▁ተናወ	-5853
▁ተናዘ	-5854
▁ተንኮ	-5855
▁ተኝቶ	-5856
▁ተከሦ	-5857
▁ተኩሥ	-5858
▁ተክል	-5859
▁ተወሥ	-5860
▁ተዋጊ	-5861
▁ተደና	-5862
▁ተገኙ	-5863
▁ተጠል	-5864
▁ተጠጣ	-5865
▁ተጥሦ	-5866
▁ተጽፎ	-5867
▁ተፀፅ	-5868
▁ታለቅ	-5869
▁ታበሠ	-5870
▁ትሆን	-5871
▁ትልቁ	-5872
▁ትረጉ	-5873
▁ትርጉ	-5874
▁ትተህ	-5875
▁ትቼው	-5876
▁ትካዜ	-5877
▁ትግል	-5878
▁ነህን	-5879
▁ነበሩ	-5880
▁ነቢይ	-5881
▁ነብር	-5882
▁ነውሯ	-5883
▁ነደው	-5884
▁ነዳጁ	-5885
▁ነግሮ	-5886
▁ኑሮዬ	-5887
▁ንባብ	-5888
▁ንብረ	-5889
▁ንዳድ	-5890
▁አሁኑ	-5891
▁አህያ	-5892
▁አለሁ	-5893
▁አለመ	-5894
▁አለቀ	-5895
▁አለን	-5896
▁አልይ	-5897
▁አመራ	-5898
▁አመቷ	-5899
ሣነኝ	-5900
ራኝታ	-5901
ሻፋፊ	-5902
ቅሣሉ	-5903
ቆሥን	-5904
ዘብቱ	-5905
ደደች	-5906
ጥያቴ	-5907
▁ሩቅ	-5908
▁ሮጠ	-5909
መሽብህ	-5910
ታችሁን	-5911
ነድበት	-5912
ወቁልኝ	-5913
ዘብኩት	-5914
ዚያውም	-5915
ያቸውን	-5916
ደርሠኝ	-5917
ጠበቀኝ	-5918
ጠበቀው	-5919
ፈርሥም	-5920
▁ሀብተ	-5921
▁ለሙሤ	-5922
▁ማነኝ	-5923
▁ሢቃኝ	-5924
▁ሢጓዝ	-5925
▁ሣርና	-5926
▁ሥነቃ	-5927
▁ቀሚሥ	-5928
▁በላኤ	-5929
▁በቆላ	-5930
▁በቤተ	-5931
▁በጎሣ	-5932
▁ታወቀ	-5933
▁አምሣ	-5934
▁አሠማ	-5935
▁አሢና	-5936
▁አሣር	-5937
▁አሣው	-5938
▁አሥሬ	-5939
▁አሥወ	-5940
▁አሥጨ	-5941
▁አረሙ	-5942
▁አረፈ	-5943
▁አረፉ	-5944
▁አርሦ	-5945
▁አርባ	-5946
▁አርብ	-5947
▁አሮን	-5948
▁አሸን	-5949
▁አቁሜ	-5950
▁አቅም	-5951
▁አቅና	-5952
▁አበራ	-5953
▁አበጃ	-5954
▁አባም	-5955
▁አብሥ	-5956
▁አትማ	-5957
▁አትሞ	-5958
▁አትን	-5959
▁አትደ	-5960
▁አኩሪ	-5961
▁አወቀ	-5962
▁አዝኜ	-5963
▁አየር	-5964
▁አይሁ	-5965
▁አይቀ	-5966
▁አይኔ	-5967
▁አይዞ	-5968
▁አደረ	-5969
▁አድሦ	-5970
▁አጥን	-5971
▁አፅና	-5972
▁አፈረ	-5973
▁አፉን	-5974
▁አፋፍ	-5975
▁አፌን	-5976
▁አፍሮ	-5977
▁ኢዮብ	-5978
▁እሆና	-5979
▁እሆን	-5980
▁እመለ	-5981
▁እመጣ	-5982
▁እሡን	-5983
▁እሢቲ	-5984
▁እሥር	-5985
▁እረሣ	-5986
▁እራት	-5987
▁እርሦ	-5988
▁እርፍ	-5989
▁እቅፍ	-5990
▁እነሡ	-5991
▁እንቁ	-5992
▁እኚህ	-5993
▁እኛኑ	-5994
▁እኛው	-5995
▁እውራ	-5996
▁እውቅ	-5997
▁እየለ	-5998
▁እየነ	-5999
ካሞች	-6000
ጐልጐ	-6001
▁ኬት	-6002
ቻልኩት	-6003
ነጋገር	-6004
ነግሮት	-6005
ጐልጐታ	-6006
▁ሌሎች	-6007
▁መባሉ	-6008
▁መቻል	-6009
▁ቀጥፎ	-6010
▁ቁሥል	-6011
▁በቁና	-6012
▁ተረፈ	-6013
▁ተባለ	-6014
▁እሸሸ	-6015
▁እየና	-6016
▁እያሣ	-6017
▁እያጕ	-6018
▁እጅሽ	-6019
▁እጆቹ	-6020
▁እፍኝ	-6021
▁ኦርቶ	-6022
▁ከሀና	-6023
▁ከሁሉ	-6024
▁ከሆነ	-6025
▁ከልላ	-6026
▁ከልቤ	-6027
▁ከልጁ	-6028
▁ከመጣ	-6029
▁ከማን	-6030
▁ከምት	-6031
▁ከምን	-6032
▁ከሞቴ	-6033
▁ከሠው	-6034
▁ከሣሾ	-6035
▁ከራሤ	-6036
▁ከራሷ	-6037
▁ከርሡ	-6038
▁ከሯሷ	-6039
▁ከበደ	-6040
▁ከቤቱ	-6041
▁ከናት	-6042
▁ከኔው	-6043
▁ከአባ	-6044
▁ከአው	-6045
▁ከእኔ	-6046
▁ከእው	-6047
▁ከእጁ	-6048
▁ከወደ	-6049
▁ከወዳ	-6050
▁ከውሻ	-6051
▁ከይሢ	-6052
▁ከደም	-6053
▁ከፍት	-6054
▁ኩነኔ	-6055
▁ካለህ	-6056
▁ካሉት	-6057
▁ካልህ	-6058
▁ካባቱ	-6059
▁ክምር	-6060
▁ክቡር	-6061
▁ክብሬ	-6062
▁ክብሯ	-6063
▁ክፋቱ	-6064
▁ወሀና	-6065
▁ወለተ	-6066
▁ወለዱ	-6067
▁ወሥጋ	-6068
▁ወደሚ	-6069
▁ወደሡ	-6070
▁ወዳጄ	-6071
▁ወድቃ	-6072
▁ወድቆ	-6073
▁ወድዶ	-6074
▁ወጥቼ	-6075
▁ዋዜማ	-6076
▁ዋጋዋ	-6077
▁ውሀና	-6078
▁ውሀን	-6079
▁ውሠጥ	-6080
▁ውጪና	-6081
▁ዘመሩ	-6082
▁ዘርግ	-6083
▁ዘቅዝ	-6084
▁ዘነጋ	-6085
▁ዘንባ	-6086
▁ዘግና	-6087
▁ዘጠኝ	-6088
▁ዙርያ	-6089
▁ዙፋኔ	-6090
▁ዝክረ	-6091
▁ዝገን	-6092
▁የሆን	-6093
▁የለኝ	-6094
▁የሉም	-6095
▁የልቤ	-6096
▁የመሠ	-6097
▁የመጣ	-6098
▁የሙሤ	-6099
ላፋም	-6100
ሠላሉ	-6101
ታዩኝ	-6102
ደክም	-6103
ጦታህ	-6104
▁ፆም	-6105
ለነዋል	-6106
ረፊያህ	-6107
ሸንፋል	-6108
ቀላፋም	-6109
ቀፍሽው	-6110
ተዋልና	-6111
ታገላት	-6112
ንቀላፋ	-6113
ደዋቸው	-6114
ጭንቄን	-6115
▁ለራሤ	-6116
▁ሌሊቱ	-6117
▁መጫወ	-6118
▁ምርኩ	-6119
▁ሠዶም	-6120
▁ሥሜም	-6121
▁ሥጠጋ	-6122
▁ሥጦታ	-6123
▁ብሉይ	-6124
▁ተምሬ	-6125
▁ተብዬ	-6126
▁ነፋሡ	-6127
▁ዘልቆ	-6128
▁ዘማሪ	-6129
▁የሚበ	-6130
▁የሚነ	-6131
▁የሚከ	-6132
▁የማል	-6133
▁የማታ	-6134
▁የምድ	-6135
▁የሞላ	-6136
▁የሠላ	-6137
▁የሥነ	-6138
▁የሥጋ	-6139
▁የረገ	-6140
▁የራሥ	-6141
▁የርሀ	-6142
▁የሸጠ	-6143
▁የቀዳ	-6144
▁የቅዱ	-6145
▁የበቁ	-6146
▁የቤተ	-6147
▁የብቻ	-6148
▁የተኛ	-6149
▁የተው	-6150
▁የታል	-6151
▁የኖር	-6152
▁የአለ	-6153
▁የአብ	-6154
▁የአይ	-6155
▁የእመ	-6156
▁የእጁ	-6157
▁የከተ	-6158
▁የወለ	-6159
▁የወሬ	-6160
▁የዳነ	-6161
▁የጦር	-6162
▁ያለች	-6163
▁ያለፈ	-6164
▁ያላለ	-6165
▁ያልቻ	-6166
▁ያልደ	-6167
▁ያረጀ	-6168
▁ያሬድ	-6169
▁ያነሡ	-6170
▁ያእቆ	-6171
▁ያወጣ	-6172
▁ያዙት	-6173
▁ያጠለ	-6174
▁ያጠጣ	-6175
▁ያፈረ	-6176
▁ያፈራ	-6177
▁ይሄኔ	-6178
▁ይሄን	-6179
▁ይህም	-6180
▁ይህው	-6181
▁ይላሉ	-6182
▁ይላል	-6183
▁ይመሣ	-6184
▁ይነግ	-6185
▁ይኽው	-6186
▁ይዘህ	-6187
▁ይዘን	-6188
▁ይጠራ	-6189
▁ዮናሠ	-6190
▁ዮዲት	-6191
▁ደሙን	-6192
▁ደምሥ	-6193
▁ደረቀ	-6194
▁ደረቅ	-6195
▁ደርሣ	-6196
▁ደቂቃ	-6197
▁ደቂቅ	-6198
▁ደበቀ	-6199
ለኮቱ	-6200
ሥጢር	-6201
ማልዱም	-6202
ርጓሜን	-6203
▁ሆኗል	-6204
▁ልሣነ	-6205
▁መሸሻ	-6206
▁ሢወጡ	-6207
▁ረግጦ	-6208
▁ቅጠሉ	-6209
▁ቢበጣ	-6210
▁ብራና	-6211
▁አራቆ	-6212
▁እሾኽ	-6213
▁እዚሁ	-6214
▁ከሆዷ	-6215
▁ከክፉ	-6216
▁ዘምሪ	-6217
▁ያማረ	-6218
▁ያዳነ	-6219
▁ደባል	-6220
▁ደብረ	-6221
▁ደብቃ	-6222
▁ደግሜ	-6223
▁ዱባን	-6224
▁ድምፃ	-6225
▁ድነት	-6226
▁ድግሥ	-6227
▁ድፍቼ	-6228
▁ጀግና	-6229
▁ጆሮዬ	-6230
▁ገለጠ	-6231
▁ገባህ	-6232
▁ገብር	-6233
▁ገደብ	-6234
▁ጊዜሥ	-6235
▁ጊዜየ	-6236
▁ጋራጁ	-6237
▁ግማሽ	-6238
▁ግምጃ	-6239
▁ግራኝ	-6240
▁ግብጽ	-6241
▁ጎልቶ	-6242
▁ጎብኝ	-6243
▁ጎትቶ	-6244
▁ጠለል	-6245
▁ጠሉት	-6246
▁ጠላቴ	-6247
▁ጠርታ	-6248
▁ጠብቅ	-6249
▁ጠይቅ	-6250
▁ጡሩም	-6251
▁ጣልቃ	-6252
▁ጣሪያ	-6253
▁ጣርያ	-6254
▁ጣእሙ	-6255
▁ጣኦት	-6256
▁ጥለው	-6257
▁ጥላት	-6258
▁ጥርሥ	-6259
▁ጥቅም	-6260
▁ጥቅሥ	-6261
▁ጥበቡ	-6262
▁ጨምሮ	-6263
▁ጨክኖ	-6264
▁ጭንቅ	-6265
▁ጷጉሜ	-6266
▁ጸሀይ	-6267
▁ጸለየ	-6268
▁ጸልይ	-6269
▁ጸጋው	-6270
▁ጻድቅ	-6271
▁ጽርሀ	-6272
▁ጽድቄ	-6273
▁ፀሀፊ	-6274
▁ፀንቶ	-6275
▁ፅናት	-6276
▁ፈለቀ	-6277
▁ፈልጎ	-6278
▁ፈቃዱ	-6279
▁ፈንቅ	-6280
▁ፈጣኗ	-6281
▁ፊደል	-6282
▁ፍሬኑ	-6283
▁ፍቅሩ	-6284
▁ፍጥረ	-6285
ለመደከው	-6286
ለመጨረሻ	-6287
መሠጠረው	-6288
ሠማያዊው	-6289
ሥታውሠው	-6290
ረደዋለው	-6291
ሸከምከኝ	-6292
ቀመጥባት	-6293
በደለኞች	-6294
ቸርነትህ	-6295
ናወነላት	-6296
እግዚእን	-6297
ከበርከኝ	-6298
ከባሪዎች	-6299
ውቀውም	-6300
ግዱለት	-6301
ጥተዋት	-6302
▁ሀኪም	-6303
▁ህፃኑ	-6304
▁ማጣቴ	-6305
▁ቀለብ	-6306
▁ቀፍፌ	-6307
▁ቅብእ	-6308
▁ተካፈ	-6309
▁ተይዤ	-6310
▁ኑፋቄ	-6311
▁አሞቷ	-6312
▁ከፋው	-6313
▁ወቅት	-6314
▁ውጤት	-6315
▁ያጌጠ	-6316
▁ዶግማ	-6317
▁ጎልያ	-6318
▁ፈራሁ	-6319
▁ፍላጎ	-6320
ለቀሠችን	-6321
ክርሥትና	-6322
ወድሻለን	-6323
ዘጋጀልህ	-6324
የሩሣሌም	-6325
ዩርዳኖሥ	-6326
ያሥፈራው	-6327
ይመሥላቹ	-6328
ይወታችን	-6329
ደርጉትን	-6330
ጠመቀብሽ	-6331
ጠብቅልኝ	-6332
ጥሮአቸው	-6333
ጨፍራለን	-6334
ጭበርበር	-6335
ፀልዩትን	-6336
ፈጠርከው	-6337
▁ሀሠትን	-6338
▁ሀዘንተ	-6339
▁ሀገሩን	-6340
▁ሀጢያተ	-6341
▁ሀፍረት	-6342
▁ሄዋንን	-6343
▁ሆነለት	-6344
▁ሆነሽኝ	-6345
▁ሆነናል	-6346
▁ሆይልጄ	-6347
▁ለመሆኑ	-6348
▁ለሚያሥ	-6349
▁ለማረፍ	-6350
▁ለሠላሣ	-6351
▁ለሥጋዬ	-6352
▁ለቀቁት	-6353
▁ለነነዌ	-6354
▁ለነፍሤ	-6355
▁ለንሠሀ	-6356
▁ለንደን	-6357
▁ለእኛም	-6358
▁ለወንጌ	-6359
▁ለወገኑ	-6360
▁ለየሁት	-6361
▁ለየኸው	-6362
▁ለዮናሥ	-6363
▁ለጠላቴ	-6364
▁ለጽድቅ	-6365
▁ለፀሀይ	-6366
▁ለፍርድ	-6367
▁ሊሠጠው	-6368
▁ሊባኖሥ	-6369
▁ሊያሥቀ	-6370
▁ሊያድን	-6371
▁ላቅርብ	-6372
▁ላታደር	-6373
▁ሌላውን	-6374
▁ልምራህ	-6375
▁ልቀቀው	-6376
▁ልቀበር	-6377
▁ልበልሽ	-6378
▁ልጅህን	-6379
▁ልጅየው	-6380
▁ልጆቿን	-6381
▁ልጠይቅ	-6382
▁መሆንህ	-6383
▁መልሡን	-6384
▁መልሥም	-6385
▁መልሽኝ	-6386
▁መልአከ	-6387
▁መልኩን	-6388
▁መልካሙ	-6389
▁መመታት	-6390
▁መሠረቱ	-6391
▁መሠቀል	-6392
▁መሢሁን	-6393
▁መሢህም	-6394
▁መሥሎት	-6395
▁መሥሎኝ	-6396
▁መሥማት	-6397
▁መሥክሪ	-6398
▁መሥክር	-6399
ህሌት	-6400
ሇላዬ	-6401
መኪያ	-6402
ቫጆው	-6403
ጋገዙ	-6404
▁ኵሉ	-6405
▁ጲጵ	-6406
ሊሦችሥ	-6407
መጥኸን	-6408
ርሠውን	-6409
ቀይረኝ	-6410
በረከካ	-6411
ቶሥጥራ	-6412
ነሥውር	-6413
ንሠርት	-6414
ጨሥበት	-6415
ጸባርቅ	-6416
ፋኒዮሥ	-6417
▁ሚጢጢ	-6418
▁ቀፅሎ	-6419
▁ታጋሽ	-6420
▁ትጉህ	-6421
▁አሀዱ	-6422
▁እሮሮ	-6423
▁እከኩ	-6424
▁እኩይ	-6425
▁ክዶህ	-6426
▁ጦቅሮ	-6427
▁ጨከኑ	-6428
▁ጫንቃ	-6429
▁ፈክቼ	-6430
ሥተሇላዬ	-6431
ቅዶንዮሥ	-6432
▁ሀሜቱን	-6433
▁ሀጢኣት	-6434
▁ለአቅመ	-6435
▁ላቫጆው	-6436
▁መመኪያ	-6437
▁መረገጫ	-6438
▁መሪነት	-6439
▁መርከቡ	-6440
▁መርከብ	-6441
▁መሸከም	-6442
▁መቀነቷ	-6443
▁መቅደሡ	-6444
▁መብረቅ	-6445
▁መታችው	-6446
▁መትጋት	-6447
▁መነሣት	-6448
▁መናገሩ	-6449
▁መናገሬ	-6450
▁መንገዱ	-6451
▁መኖርን	-6452
▁መአቱን	-6453
▁መከራህ	-6454
▁መከራን	-6455
▁መኪናው	-6456
▁መካኒኩ	-6457
▁መክረህ	-6458
▁መወለዱ	-6459
▁መውጊያ	-6460
▁መዝገብ	-6461
▁መዳኑን	-6462
▁መድህኑ	-6463
▁መድህኔ	-6464
▁መድህን	-6465
▁መድረሻ	-6466
▁መጋጨት	-6467
▁መጠመቅ	-6468
▁መጠሪያ	-6469
▁መጠጣት	-6470
▁መጥተህ	-6471
▁መጥፋት	-6472
▁መጨነቅ	-6473
▁መጽሀፍ	-6474
▁መፃጉም	-6475
▁ሙሽራው	-6476
▁ሙታንን	-6477
▁ሚሽከረ	-6478
▁ሚኖረው	-6479
▁ሚያቀና	-6480
▁ሚያነድ	-6481
▁ማህጸን	-6482
▁ማለትን	-6483
▁ማማለድ	-6484
▁ማረፊያ	-6485
▁ማሪያም	-6486
▁ማነምን	-6487
▁ማክበሩ	-6488
▁ማደሪያ	-6489
▁ማደርያ	-6490
▁ምህረቱ	-6491
▁ምሥራቁ	-6492
▁ምሥራቅ	-6493
▁ምሥራች	-6494
▁ምሥክሩ	-6495
▁ምረጥና	-6496
▁ምእመን	-6497
▁ምድሪቱ	-6498
▁ምግባር	-6499
ደባልቃሉ	-6500
▁ላኩልኝ	-6501
▁መቀመጤ	-6502
▁መዋጀት	-6503
▁መፍትሄ	-6504
▁ሠላምም	-6505
▁ሠላምና	-6506
▁ሠላምን	-6507
▁ሠልጥኖ	-6508
▁ሠማርያ	-6509
▁ሠማእቱ	-6510
▁ሠማይና	-6511
▁ሠርቪሥ	-6512
▁ሠቅለው	-6513
▁ሠንበት	-6514
▁ሠይፉን	-6515
▁ሠጣቸው	-6516
▁ሠፈሩን	-6517
▁ሡራፌል	-6518
▁ሢላቸው	-6519
▁ሢሠቃይ	-6520
▁ሢሥቡት	-6521
▁ሢቀረው	-6522
▁ሢቃጣው	-6523
▁ሢበረታ	-6524
▁ሢታወቅ	-6525
▁ሢናገሩ	-6526
▁ሢኦልን	-6527
▁ሢወርዱ	-6528
▁ሢዘምሩ	-6529
▁ሢዘብቱ	-6530
▁ሢያወጣ	-6531
▁ሢያውቁ	-6532
▁ሢያደላ	-6533
▁ሢገለጥ	-6534
▁ሢጠመቁ	-6535
▁ሣላየው	-6536
▁ሣላፈራ	-6537
▁ሣዊሮሥ	-6538
▁ሣይመጣ	-6539
▁ሣይሣሣ	-6540
▁ሣይቆዩ	-6541
▁ሣይነካ	-6542
▁ሣይጣን	-6543
▁ሥህተት	-6544
▁ሥለሠው	-6545
▁ሥለቴን	-6546
▁ሥለዚች	-6547
▁ሥምህን	-6548
▁ሥምኦን	-6549
▁ሥሠቀል	-6550
▁ሥሠቃይ	-6551
▁ሥራህን	-6552
▁ሥራችን	-6553
▁ሥርአቱ	-6554
▁ሥርየት	-6555
▁ሥቀለው	-6556
▁ሥቅለቱ	-6557
▁ሥታዝን	-6558
▁ሥትኖር	-6559
▁ሥትዘል	-6560
▁ሥንሄድ	-6561
▁ሥንዴና	-6562
▁ሥዳክር	-6563
▁ሥፖኪዮ	-6564
▁ራሥነቱ	-6565
▁ርሀቡን	-6566
▁ርህራሄ	-6567
▁ሸክሜን	-6568
▁ሸፍነው	-6569
▁ሽንገላ	-6570
▁ቀረልን	-6571
▁ቀየረች	-6572
▁ቀጥሏል	-6573
▁ቃልኪዳ	-6574
▁ቅኔውን	-6575
▁ቅዱሣት	-6576
▁ቅድሥና	-6577
▁ቆዳቸው	-6578
▁በሀሜት	-6579
▁በሀብት	-6580
▁በሄዋን	-6581
▁በህያው	-6582
▁በሌሊት	-6583
▁በልኡክ	-6584
▁በመከራ	-6585
▁በምንም	-6586
▁በምድሩ	-6587
▁በሞገሥ	-6588
▁በሠራው	-6589
▁በሠባት	-6590
▁በሠይፍ	-6591
▁በሥእሏ	-6592
▁በሥጋሥ	-6593
▁በራእይ	-6594
▁በርኖሥ	-6595
▁በሸንጎ	-6596
▁በቀንና	-6597
▁በበፍታ	-6598
▁በተራው	-6599
▁በትንፋ	-6600
▁በኋላማ	-6601
▁በነፍሥ	-6602
▁በንፁህ	-6603
▁በአህያ	-6604
▁በአለት	-6605
▁በአበባ	-6606
▁በአቡነ	-6607
▁በአዛኚ	-6608
▁በአዲሥ	-6609
▁በእርሦ	-6610
▁በእርሷ	-6611
▁በእንቁ	-6612
▁በእንባ	-6613
▁በእጅህ	-6614
▁በእግረ	-6615
▁በኩነኔ	-6616
▁በክፋት	-6617
▁በኮከብ	-6618
▁በወልድ	-6619
▁በውኖች	-6620
▁በዘርና	-6621
▁በዙሪያ	-6622
▁በዚህን	-6623
▁በየዋህ	-6624
▁በይባቤ	-6625
▁በደማቅ	-6626
▁በደረቷ	-6627
▁በደብረ	-6628
▁በደንቡ	-6629
▁በደንብ	-6630
▁በደጅህ	-6631
▁በድካሜ	-6632
▁በገጠር	-6633
▁በግልጽ	-6634
▁በግንባ	-6635
▁በጠላት	-6636
▁በጣኦት	-6637
▁በጥበቡ	-6638
▁በጥናት	-6639
▁በፈተና	-6640
▁በፈወሠ	-6641
▁በፊትህ	-6642
▁በፍርድ	-6643
▁በፍቅሯ	-6644
▁በፍጡር	-6645
▁በፍጹም	-6646
▁ቢበረታ	-6647
▁ቢባሉም	-6648
▁ቢያክል	-6649
▁ቢጠናም	-6650
▁ቢጠይቅ	-6651
▁ባለበት	-6652
▁ባለቤቱ	-6653
▁ባለቤት	-6654
▁ባልኩሽ	-6655
▁ባረካት	-6656
▁ባረገኝ	-6657
▁ባርነት	-6658
▁ባያየው	-6659
▁ባይሞላ	-6660
▁ብላችሁ	-6661
▁ብቻዬን	-6662
▁ተለወጠ	-6663
▁ተመልሼ	-6664
▁ተመልክ	-6665
▁ተመርዞ	-6666
▁ተማከሩ	-6667
▁ተማፅኖ	-6668
▁ተሠምቶ	-6669
▁ተሠበሠ	-6670
▁ተሠናክ	-6671
▁ተሠፍሮ	-6672
▁ተሣለቁ	-6673
▁ተረሣና	-6674
▁ተራመዱ	-6675
▁ተራራው	-6676
▁ተርሤሥ	-6677
▁ተሸልሞ	-6678
▁ተሸከም	-6679
▁ተሻግሮ	-6680
▁ተቀምጣ	-6681
▁ተቀምጬ	-6682
▁ተቀበረ	-6683
▁ተቀበይ	-6684
▁ተቀብሎ	-6685
▁ተቀየረ	-6686
▁ተቀይራ	-6687
▁ተቃርኖ	-6688
▁ተብለው	-6689
▁ተነግሦ	-6690
▁ተናግሮ	-6691
▁ተንበር	-6692
▁ተከፋፍ	-6693
▁ተወለድ	-6694
▁ተዋረደ	-6695
▁ተዘምራ	-6696
▁ተዘርግ	-6697
▁ተዘግቶ	-6698
▁ተገልፆ	-6699
▁ተገርሞ	-6700
▁ተገዝቶ	-6701
▁ተጋመሠ	-6702
▁ተጋድሞ	-6703
▁ተግተው	-6704
▁ተጠምቶ	-6705
▁ተጠርቶ	-6706
▁ተጠብሦ	-6707
▁ተፈትቶ	-6708
▁ታላላቅ	-6709
▁ታላቁን	-6710
▁ታሠርክ	-6711
▁ታረቀን	-6712
▁ታረቃት	-6713
▁ታቦቷን	-6714
▁ታደገን	-6715
▁ታገሠኝ	-6716
▁ትላለች	-6717
▁ትላንቱ	-6718
▁ትረጉሙ	-6719
▁ትናንት	-6720
▁ትንሽም	-6721
▁ትንቢተ	-6722
▁ትንታግ	-6723
▁ትክክል	-6724
▁ትዋጠኝ	-6725
▁ችንካር	-6726
▁ኋለኞች	-6727
▁ነብሩም	-6728
▁ነነዌን	-6729
▁ነዳጅም	-6730
▁ነዳጅና	-6731
▁ነጋሪት	-6732
▁ነፃነት	-6733
▁ነፍሤም	-6734
▁ነፍርቃ	-6735
▁ኑሮውን	-6736
▁ንገረን	-6737
▁ንግሥት	-6738
▁አለሁኝ	-6739
▁አለብህ	-6740
▁አሉትና	-6741
▁አላማው	-6742
▁አልቅሦ	-6743
▁አልበቃ	-6744
▁አልባት	-6745
▁አመቤቴ	-6746
▁አመጡት	-6747
▁አማኝቷ	-6748
▁አምላከ	-6749
▁አምልጬ	-6750
▁አምነህ	-6751
▁አሠቃዩ	-6752
▁አሣሥቢ	-6753
▁አሥረክ	-6754
▁አሥቀመ	-6755
▁አሥቀም	-6756
▁አሥቀድ	-6757
▁አሥበው	-6758
▁አሥታር	-6759
▁አሥነሣ	-6760
▁አሥፈለ	-6761
▁አርቀን	-6762
▁አርነት	-6763
▁አርግዞ	-6764
▁አቀረበ	-6765
▁አቀናጁ	-6766
▁አበልህ	-6767
▁አባቱን	-6768
▁አባትም	-6769
▁አብርቶ	-6770
▁አብነት	-6771
▁አታልቅ	-6772
▁አታውራ	-6773
▁አትለይ	-6774
▁አትርፌ	-6775
▁አትርፎ	-6776
▁አትበል	-6777
▁አትወደ	-6778
▁አትግባ	-6779
▁አንበሣ	-6780
▁አንቺም	-6781
▁አንችን	-6782
▁አንድን	-6783
▁አእላፍ	-6784
▁አክብር	-6785
▁አወቀው	-6786
▁አወጣን	-6787
▁አውጣኝ	-6788
▁አውጥቶ	-6789
▁አዘዘው	-6790
▁አየኋት	-6791
▁አየነው	-6792
▁አያቸው	-6793
▁አያንሥ	-6794
▁አይልም	-6795
▁አይቀር	-6796
▁አይደር	-6797
▁አዳራሽ	-6798
▁አድብቶ	-6799
▁አድኖህ	-6800
▁አገኘሁ	-6801
▁አግዢኝ	-6802
▁አጥንቱ	-6803
▁አጽናኝ	-6804
▁አፅደቶ	-6805
▁አፈንግ	-6806
▁አፍሥሦ	-6807
▁አፍርሡ	-6808
▁ኢትዩጵ	-6809
▁እምነቴ	-6810
▁እሥከነ	-6811
▁እሥኬት	-6812
▁እረሥቶ	-6813
▁እርዳታ	-6814
▁እርግብ	-6815
▁እሹሩሩ	-6816
▁እቃዎች	-6817
▁እነርሡ	-6818
▁እኔነቴ	-6819
▁እንሁን	-6820
▁እንሠየ	-6821
▁እንሥሣ	-6822
▁እንቁም	-6823
▁እንደኔ	-6824
▁እንደዚ	-6825
▁እንደየ	-6826
▁እንዲል	-6827
▁እንግዲ	-6828
▁እውቀት	-6829
▁እውነቱ	-6830
▁እዚያው	-6831
▁እየሆን	-6832
▁እየለመ	-6833
▁እየመራ	-6834
▁እየሠበ	-6835
▁እየሠጠ	-6836
▁እየሠጡ	-6837
▁እየተዋ	-6838
▁እየተፈ	-6839
▁እየጣለ	-6840
▁እየጻፈ	-6841
▁እያለው	-6842
▁እያላት	-6843
▁እያልክ	-6844
▁እያሠብ	-6845
▁እያቀና	-6846
▁እያበራ	-6847
▁እድፉን	-6848
▁እጅሽን	-6849
▁እጆቹን	-6850
▁እጆችሽ	-6851
▁እግሬን	-6852
▁እግርህ	-6853
▁እግሮቹ	-6854
▁እግሮቼ	-6855
▁እግሮች	-6856
▁እጣቸው	-6857
▁ከሀዲሥ	-6858
▁ከለመደ	-6859
▁ከልጅሽ	-6860
▁ከመሬት	-6861
▁ከመጠን	-6862
▁ከሣሾች	-6863
▁ከርካሣ	-6864
▁ከቅዱሥ	-6865
▁ከባህር	-6866
▁ከብሉይ	-6867
▁ከተበሣ	-6868
▁ከአለማ	-6869
▁ከአለት	-6870
▁ከአበው	-6871
▁ከአንቺ	-6872
▁ከአንድ	-6873
▁ከአፈር	-6874
▁ከእህል	-6875
▁ከእሥር	-6876
▁ከእርሡ	-6877
▁ከእርሷ	-6878
▁ከእናቴ	-6879
▁ከእግሩ	-6880
▁ከካህኑ	-6881
▁ከክብሩ	-6882
▁ከወንዙ	-6883
▁ከወንድ	-6884
▁ከወደደ	-6885
▁ከደረቷ	-6886
▁ከደጅህ	-6887
▁ከገባህ	-6888
▁ከግሽን	-6889
▁ከጎንህ	-6890
▁ከጎደለ	-6891
▁ከጠላቱ	-6892
▁ከጨከነ	-6893
▁ከፈሉት	-6894
▁ከፊትሽ	-6895
▁ከፍተህ	-6896
▁ኪሩቤል	-6897
▁ኪዳንህ	-6898
▁ካለበት	-6899
▁ካላሣየ	-6900
▁ካላወክ	-6901
▁ካምላክ	-6902
▁ካነሠው	-6903
▁ክንዱን	-6904
▁ክደኑኝ	-6905
▁ወልድን	-6906
▁ወሠዱት	-6907
▁ወራትን	-6908
▁ወርቋን	-6909
▁ወርደህ	-6910
▁ወንዞች	-6911
▁ወንዱን	-6912
▁ወንድሜ	-6913
▁ወደዋላ	-6914
▁ወደፊት	-6915
▁ወድቀን	-6916
▁ወገኔን	-6917
▁ወገኖቹ	-6918
▁ወገኖቼ	-6919
▁ወጣቱም	-6920
▁ውለታህ	-6921
▁ውሻውን	-6922
▁ውዳሤሽ	-6923
▁ዘላለም	-6924
▁ዘመኔን	-6925
▁ዘመንም	-6926
▁ዘመንን	-6927
▁ዘመድነ	-6928
▁ዘቅዝቆ	-6929
▁ዘንግቼ	-6930
▁ዜማውን	-6931
▁ዞረበት	-6932
▁የሀሠት	-6933
▁የሄዱት	-6934
▁የህዝብ	-6935
▁የህፃን	-6936
▁የሆነን	-6937
▁የለበሠ	-6938
▁የልቡን	-6939
▁የልቤን	-6940
▁የልጅሽ	-6941
▁የልፋት	-6942
▁የመንጃ	-6943
▁የመኖሬ	-6944
▁የመግነ	-6945
▁የሚመራ	-6946
▁የሚሠራ	-6947
▁የሚያነ	-6948
▁የሚያወ	-6949
▁የሚገኝ	-6950
▁የማይል	-6951
▁የማይቆ	-6952
▁የማይደ	-6953
▁የምልጃ	-6954
▁የምረሣ	-6955
▁የምረቃ	-6956
▁የምታይ	-6957
▁የሥግው	-6958
▁የሸኘህ	-6959
▁የሸፈነ	-6960
▁የቀናት	-6961
▁የቆመች	-6962
▁የበለጠ	-6963
▁የበጎች	-6964
▁የብሩክ	-6965
▁የተለዩ	-6966
▁የተመላ	-6967
▁የተሠቀ	-6968
▁የተረጩ	-6969
▁የተኛው	-6970
▁የተገለ	-6971
▁የተጠራ	-6972
▁የተጻፈ	-6973
▁የተፃፈ	-6974
▁የታተመ	-6975
▁የነነዌ	-6976
▁የነገር	-6977
▁የኑሮዬ	-6978
▁የንሥሀ	-6979
▁የኖረች	-6980
▁የአለሙ	-6981
▁የአልጋ	-6982
▁የአማል	-6983
▁የአንቺ	-6984
▁የእርሡ	-6985
▁የእሾህ	-6986
▁የእኔን	-6987
▁የእንባ	-6988
▁የከበሩ	-6989
▁የወራት	-6990
▁የያሬድ	-6991
▁የያኔው	-6992
▁የይሁዳ	-6993
▁የገዘፈ	-6994
▁የጋኔን	-6995
▁የጌቶቹ	-6996
▁የጠበቁ	-6997
▁የጠፋው	-6998
▁የጥንት	-6999
▁የጥዋት	-7000
▁የጸሎት	-7001
▁የጺዮን	-7002
▁የፀሀይ	-7003
▁የፀለዩ	-7004
▁የፀናች	-7005
▁ያሉትን	-7006
▁ያልቃል	-7007
▁ያመነች	-7008
▁ያሠኛል	-7009
▁ያረሠው	-7010
▁ያረጀው	-7011
▁ያርሣል	-7012
▁ያቃተው	-7013
▁ያቆመኝ	-7014
▁ያበቃኝ	-7015
▁ያበዛል	-7016
▁ያናገረ	-7017
▁ያንቀሣ	-7018
▁ያንቺን	-7019
▁ያኖረው	-7020
▁ያኛውን	-7021
▁ያወረደ	-7022
▁ያጋደለ	-7023
▁ያፈጠጠ	-7024
▁ይሄዳል	-7025
▁ይልኩት	-7026
▁ይሠጣል	-7027
▁ይቀራል	-7028
▁ይበቃል	-7029
▁ይታያል	-7030
▁ይኖራል	-7031
▁ይድረሥ	-7032
▁ይገባል	-7033
▁ይግባኝ	-7034
▁ይጫነው	-7035
▁ይፀልዩ	-7036
▁ዮናሥም	-7037
▁ደምሥሦ	-7038
▁ደሥታዬ	-7039
▁ደርቋል	-7040
▁ደብዝዞ	-7041
▁ደክመው	-7042
▁ደክሞኝ	-7043
▁ደግሞሥ	-7044
▁ዳቢሎሥ	-7045
▁ዳግመኛ	-7046
▁ዳግሚት	-7047
▁ዳግማዊ	-7048
▁ድምጽህ	-7049
▁ድንቁር	-7050
▁ድንኳን	-7051
▁ድንጋዩ	-7052
▁ድካሟን	-7053
▁ድፍረቴ	-7054
▁ጀመረች	-7055
▁ገላዬን	-7056
▁ገባቸው	-7057
▁ገባውን	-7058
▁ገብተን	-7059
▁ገፍተው	-7060
▁ጉልበቴ	-7061
▁ጉሮሮዬ	-7062
▁ጉዞውን	-7063
▁ጉድጓድ	-7064
▁ጌታዋን	-7065
▁ጌታዬን	-7066
▁ግርግም	-7067
▁ግብርን	-7068
▁ግደለኝ	-7069
▁ግዴለም	-7070
▁ጐንበሥ	-7071
▁ጠልሽቶ	-7072
▁ጠምቶኝ	-7073
▁ጠርተህ	-7074
▁ጠብቀን	-7075
▁ጠብቀው	-7076
▁ጠየቀህ	-7077
▁ጠፍቶኝ	-7078
▁ጥምቀት	-7079
▁ጥበበኛ	-7080
▁ጥበብን	-7081
▁ጥገናና	-7082
▁ጨክነው	-7083
▁ጭፍሮች	-7084
▁ጻድቃን	-7085
▁ጽልመት	-7086
▁ጽድቅን	-7087
▁ጾምህን	-7088
▁ፀሎቶን	-7089
▁ፀንተህ	-7090
▁ፀጋችን	-7091
▁ፈለቀና	-7092
▁ፈላጊዋ	-7093
▁ፈጥነህ	-7094
▁ፈጥነው	-7095
▁ፊሊጶሥ	-7096
▁ፊተኞች	-7097
▁ፊደላት	-7098
▁ፍረዱኝ	-7099
▁ፍርድህ	-7100
▁ፍርድን	-7101
▁ፍቅርና	-7102
▁ፍንጣሪ	-7103
▁ፍጥረቱ	-7104
እሥክመለሥ	-7105
ከራተትኸው	-7106
ክርሥትያን	-7107
ዶክሣውያን	-7108
▁ሀዘንተኛ	-7109
▁ህሊናዬን	-7110
▁ለሀጥአን	-7111
▁ለመሥማት	-7112
▁ለመውሠድ	-7113
▁ለመዘመር	-7114
▁ለማባበል	-7115
▁ለማጥፋት	-7116
▁ለምሥጋና	-7117
▁ለምንድን	-7118
▁ለቅዱሣን	-7119
▁ለአምሥት	-7120
▁ለአዳምና	-7121
▁ለእረኞች	-7122
▁ለክብርሽ	-7123
▁ለወንድሙ	-7124
▁ለዘላለም	-7125
▁ለዚያውም	-7126
▁ለድህነተ	-7127
▁ለጌታችን	-7128
▁ለጥያቄህ	-7129
▁ለፍጥረት	-7130
▁ሊያሥረዳ	-7131
▁ሊያድነን	-7132
▁ሊጠቅመኝ	-7133
▁ላሠማችሁ	-7134
▁ላሣያችሁ	-7135
▁ላይሠምር	-7136
▁ልሥቀልህ	-7137
▁ልቦናህን	-7138
▁ልንደርሥ	-7139
▁ልጆችሽን	-7140
▁መለዋወጫ	-7141
▁መለያየት	-7142
▁መሥለናል	-7143
▁መሥሏቸው	-7144
▁መራራውን	-7145
▁መርምረህ	-7146
▁መርቁልኝ	-7147
▁መቅሠፍት	-7148
▁መናፍቃን	-7149
▁መንደሩን	-7150
▁መንገዷን	-7151
▁መንግሥቱ	-7152
▁መከልከያ	-7153
▁መክበሩን	-7154
▁መዛሙርቱ	-7155
▁መገሥገሥ	-7156
▁መጠቅለሉ	-7157
▁ሚንቀሣቀ	-7158
▁ሚዳቆዋን	-7159
▁ማህሌቱን	-7160
▁ማንነቴን	-7161
▁ማክበሩን	-7162
▁ምህረቱን	-7163
▁ምትቀበል	-7164
▁ምንሄደው	-7165
▁ምድሪቱን	-7166
▁ምድርንም	-7167
▁ሠማዩንም	-7168
▁ሠበቅታኒ	-7169
▁ሠውነቱን	-7170
▁ሢሆንበት	-7171
▁ሢቀዘቅዝ	-7172
▁ሢታይብሽ	-7173
▁ሢወርሠው	-7174
▁ሢያሣርፍ	-7175
▁ሢያሥተጋ	-7176
▁ሢያቅተው	-7177
▁ሢገሠግሥ	-7178
▁ሣትሠደድ	-7179
▁ሣያሥበው	-7180
▁ሣይመለሥ	-7181
▁ሥለጠገቡ	-7182
▁ሥትፈፅም	-7183
▁ሥንከብር	-7184
▁ሥጎበኘው	-7185
▁ሦሥትነት	-7186
▁ረሣችውና	-7187
▁ሸምግለው	-7188
▁ሽማግሌው	-7189
▁ቀየውንም	-7190
▁ቁልቁለት	-7191
▁ቄርሎሥን	-7192
▁ቅንአትም	-7193
▁በህብረት	-7194
▁በህይዎት	-7195
▁በለንደን	-7196
▁በላይኛው	-7197
▁በመርከብ	-7198
▁በመዉለድ	-7199
▁በመዉለዷ	-7200
▁በመዝሙሩ	-7201
▁በመጨረሻ	-7202
▁በመጽሀፍ	-7203
▁በሚያህል	-7204
▁በማግሥቱ	-7205
▁በምልጃሽ	-7206
▁በምሥራቅ	-7207
▁በምሥራች	-7208
▁በሥተቀር	-7209
▁በቅንነት	-7210
▁በብርሀን	-7211
▁በትውፊት	-7212
▁በችንካሩ	-7213
▁በችንካር	-7214
▁በነብያት	-7215
▁በአልጋዬ	-7216
▁በአንገቱ	-7217
▁በአእምሮ	-7218
▁በአጋጣሚ	-7219
▁በኢየሡሥ	-7220
▁በእልልታ	-7221
▁በእንተዝ	-7222
▁በእንጨት	-7223
▁በእጃችን	-7224
▁በከብቶቹ	-7225
▁በኪሩቤል	-7226
▁በኪዳንሽ	-7227
▁በወንጌሉ	-7228
▁በደላችን	-7229
▁በድፍረት	-7230
▁በጀርባው	-7231
▁በጥርጥር	-7232
▁በጲላጦሥ	-7233
▁ቢላላባት	-7234
▁ቢበጣጠሥ	-7235
▁ቢያቆየኝ	-7236
▁ቢገድሉት	-7237
▁ባህርያት	-7238
▁ባለውለታ	-7239
▁ባገኘኸው	-7240
▁ብሂላቸው	-7241
▁ብትመጣም	-7242
▁ብትሞክር	-7243
▁ተመርተው	-7244
▁ተማክረው	-7245
▁ተሠባብሮ	-7246
▁ተሥኗቸው	-7247
▁ተሸክመህ	-7248
▁ተቆራኝታ	-7249
▁ተቸነከሩ	-7250
▁ተናግረው	-7251
▁ተከተለኝ	-7252
▁ተወልዷል	-7253
▁ተወሥዷል	-7254
▁ተወራርዳ	-7255
▁ተዘጋጅቶ	-7256
▁ተጋድሎው	-7257
▁ተጠንቀቅ	-7258
▁ታሠጣለች	-7259
▁ታውቃለህ	-7260
▁ታዘብኩት	-7261
▁ታየዋለህ	-7262
▁ታየዋለክ	-7263
▁ትሆናለህ	-7264
▁ትምክህተ	-7265
▁ትምክህት	-7266
▁ትራፊኮች	-7267
▁ትርጓሜን	-7268
▁ትኖራለች	-7269
▁ትእግሥት	-7270
▁ትካዜውን	-7271
▁ትውልዱን	-7272
▁ቸንክረው	-7273
▁ኋላዎችም	-7274
▁ነጎድጓድ	-7275
▁ንሥጥሮሥ	-7276
▁አለቀሠች	-7277
▁አልሆነኝ	-7278
▁አልሞተም	-7279
▁አልሠማም	-7280
▁አልሻቸው	-7281
▁አልገለጽ	-7282
▁አልጋህን	-7283
▁አልጋዬን	-7284
▁አልፈራም	-7285
▁አመሥግኖ	-7286
▁አመፀኞች	-7287
▁አሣዳጆች	-7288
▁አሥረውት	-7289
▁አሥተማሩ	-7290
▁አሥተውል	-7291
▁አሥተውሎ	-7292
▁አሥፈሪዋ	-7293
▁አቀረበች	-7294
▁አቃጥሏት	-7295
▁አበዙበት	-7296
▁አባታችን	-7297
▁አብዝቷል	-7298
▁አትርሽኝ	-7299
▁አትበለኝ	-7300
▁አንሥተው	-7301
▁አንሥቶች	-7302
▁አንሻፋፊ	-7303
▁አንካሦች	-7304
▁አንደኛው	-7305
▁አንዳንዴ	-7306
▁አንድምታ	-7307
▁አንገቷን	-7308
▁አውቀናል	-7309
▁አውጥተው	-7310
▁አያልቅም	-7311
▁አያረካም	-7312
▁አያሻንም	-7313
▁አያቁምና	-7314
▁አያፍርም	-7315
▁አይሁዶች	-7316
▁አይርቅም	-7317
▁አይሻለሁ	-7318
▁አይኖቹን	-7319
▁አይደሉም	-7320
▁አይጠይቁ	-7321
▁አይጨነቅ	-7322
▁አደረገች	-7323
▁አድምጠኝ	-7324
▁አድራሻህ	-7325
▁አድርሠን	-7326
▁አገኘናት	-7327
▁አገኘኸው	-7328
▁አግኝተው	-7329
▁አጥብቀን	-7330
▁ኢትየጵያ	-7331
▁ኢየሡሥም	-7332
▁እልሀለው	-7333
▁እምቢልታ	-7334
▁እሠጣለው	-7335
▁እሡነቱን	-7336
▁እሥባለሁ	-7337
▁እሥከመቼ	-7338
▁እሥከዛው	-7339
▁እሥኪመጣ	-7340
▁እሥኪቀር	-7341
▁እሥካሁን	-7342
▁እሥካድሥ	-7343
▁እረሣሻት	-7344
▁እረኞችም	-7345
▁እርቃኑን	-7346
▁እርግማን	-7347
▁እባክህን	-7348
▁እናታለም	-7349
▁እናታቸው	-7350
▁እናድርግ	-7351
▁እኔነቴን	-7352
▁እንላለን	-7353
▁እንባባል	-7354
▁እንባዬን	-7355
▁እንዋደድ	-7356
▁እንደሆነ	-7357
▁እንደሞተ	-7358
▁እንደቆዩ	-7359
▁እንደበግ	-7360
▁እንደወጣ	-7361
▁እንዲህም	-7362
▁እንዲሆን	-7363
▁እንዲበላ	-7364
▁እንዲያሥ	-7365
▁እንዲያድ	-7366
▁እንዳታይ	-7367
▁እንዳንቀ	-7368
▁እንዳንተ	-7369
▁እንድሆን	-7370
▁እንድንገ	-7371
▁እንድገኝ	-7372
▁እወቁልኝ	-7373
▁እየተመኘ	-7374
▁እየኖርክ	-7375
▁እያቻኮሉ	-7376
▁እግራቸው	-7377
▁እግሮቹን	-7378
▁እግዜርም	-7379
▁እጾማለሁ	-7380
▁ከሀጢአት	-7381
▁ከህይዎት	-7382
▁ከመቃብር	-7383
▁ከመድረሷ	-7384
▁ከምሥጢር	-7385
▁ከሥጦታህ	-7386
▁ከርቤውን	-7387
▁ከቀደመው	-7388
▁ከባርነት	-7389
▁ከብዷቸው	-7390
▁ከተከሣሿ	-7391
▁ከተዋህዶ	-7392
▁ከተጣመመ	-7393
▁ከአርዮሥ	-7394
▁ከአንገቱ	-7395
▁ከአንገት	-7396
▁ከአይሁድ	-7397
▁ከኢየሡሥ	-7398
▁ከእነዚህ	-7399
▁ከከብቶቹ	-7400
▁ከክህደት	-7401
▁ከዋክብት	-7402
▁ከደግነት	-7403
▁ከጀርባው	-7404
▁ከጠበቀው	-7405
▁ከፈለግክ	-7406
▁ከፍጥረት	-7407
▁ኮንሠርት	-7408
▁ወታደሮች	-7409
▁ወንበዴው	-7410
▁ወንጌልን	-7411
▁ወግራችሁ	-7412
▁ዘረኝነት	-7413
▁ዘካርያሥ	-7414
▁ዘግተናል	-7415
▁የሀጢአት	-7416
▁የህፃናት	-7417
▁የለበትም	-7418
▁የለየበት	-7419
▁የልደትህ	-7420
▁የመቆሜን	-7421
▁የመከራው	-7422
▁የመኪናው	-7423
▁የመውደዱ	-7424
▁የመድሀኒ	-7425
▁የሚለምን	-7426
▁የሚበላው	-7427
▁የሚዘልቅ	-7428
▁የሚያነሣ	-7429
▁የሚያውቅ	-7430
▁የማይሆን	-7431
▁የማይሞላ	-7432
▁የማይጠፋ	-7433
▁የምሥራቅ	-7434
▁የምታዩኝ	-7435
▁የምወደው	-7436
▁የሞተውን	-7437
▁የሠማዩን	-7438
▁የሠራዊት	-7439
▁የሠይጣን	-7440
▁የሣምንት	-7441
▁የሥኬቴን	-7442
▁የሾላውን	-7443
▁የባህርን	-7444
▁የተሣነኝ	-7445
▁የተከፈለ	-7446
▁የተገኘሽ	-7447
▁የትሩፋት	-7448
▁የትናንቱ	-7449
▁የናፈቀው	-7450
▁የአቅጣጫ	-7451
▁የአንዲት	-7452
▁የአዶናይ	-7453
▁የአፎምያ	-7454
▁የእቲሣው	-7455
▁የእግዜር	-7456
▁የካድኩት	-7457
▁የክህደት	-7458
▁የክፋትን	-7459
▁የዝማሬው	-7460
▁የጠበሉን	-7461
▁የጣለበት	-7462
▁የጥምቀት	-7463
▁የጥበቡን	-7464
▁የጭንቄን	-7465
▁የጲላጦሥ	-7466
▁የፈለገው	-7467
▁የፍጥረት	-7468
▁ያለቅሣል	-7469
▁ያለበትን	-7470
▁ያላገኘው	-7471
▁ያልነበረ	-7472
▁ያሠረችው	-7473
▁ያሥቀየም	-7474
▁ያሸንፋል	-7475
▁ያትክልት	-7476
▁ያንቀላፋ	-7477
▁ያውቀኛል	-7478
▁ያዘነውን	-7479
▁ያደረጉት	-7480
▁ያደፈውን	-7481
▁ይሁንለት	-7482
▁ይሁንልኝ	-7483
▁ይለምናል	-7484
▁ይመሥገን	-7485
▁ይሠማቸው	-7486
▁ይሠውረን	-7487
▁ይሥሙኝማ	-7488
▁ይሥጣችሁ	-7489
▁ይንገሩኝ	-7490
▁ይከተላል	-7491
▁ይኽኛውን	-7492
▁ይዘናታል	-7493
▁ይገባኛል	-7494
▁ይጠብቀን	-7495
▁ይፈውሣል	-7496
▁ደምግባት	-7497
▁ደንግጠው	-7498
▁ደክሞኛል	-7499
▁ድንጋይን	-7500
▁ገሠገሠች	-7501
▁ገብቶለት	-7502
▁ገድፍሀል	-7503
▁ግንባሩን	-7504
▁ጡረተኛን	-7505
▁ጡሩምባው	-7506
▁ጣሪያውም	-7507
▁ጴጥሮሥን	-7508
▁ፈልጋለሁ	-7509
▁ፍቀድልኝ	-7510
▁ፍጥረታት	-7511
▁ፕሮጀክት	-7512
▁ፖሊሦችሥ	-7513
ክለሀይማኖት	-7514
▁ሀይማኖቱን	-7515
▁ሀጢአትህን	-7516
▁ህርያቆሥን	-7517
▁ለማደሪያው	-7518
▁ለተማፀናት	-7519
▁መላእክትን	-7520
▁መዝሙረኛው	-7521
▁ማሣረፊያህ	-7522
▁ማጭበርበር	-7523
▁ምሥጢራትን	-7524
▁ምክንያትህ	-7525
▁ሢያሥተምር	-7526
▁ሢያነድበት	-7527
▁ሢያጨሥበት	-7528
▁ሢደክማቸው	-7529
▁ሣይመሽብህ	-7530
▁ሣይገባቸው	-7531
▁ሥለማርያም	-7532
▁ሥታመነዝር	-7533
▁ሥትቀይረኝ	-7534
▁በመልእልተ	-7535
▁በመንግሥት	-7536
▁በማመንዘር	-7537
▁በሠባተኛው	-7538
▁በአንደበት	-7539
▁በእምነትህ	-7540
▁በእረኝነት	-7541
▁በዮርዳኖሥ	-7542
▁በግብራችን	-7543
▁ቤተመቅደሥ	-7544
▁ተመልከቱት	-7545
▁ተማፅነናል	-7546
▁ተሠብሥበው	-7547
▁ተሻገረችው	-7548
▁ተቃርበናል	-7549
▁ታለቅሣለች	-7550
▁ታገኛለህና	-7551
▁ትንቢታቸው	-7552
▁አላውቀውም	-7553
▁አልመለሠም	-7554
▁አልገባኝም	-7555
▁አመሥግኑት	-7556
▁አምላካቸው	-7557
▁አምላካችን	-7558
▁አምላክህን	-7559
▁አምላክነቱ	-7560
▁አምጥተዋት	-7561
▁አሣይመንት	-7562
▁አሥመልጠው	-7563
▁አሥተምረህ	-7564
▁አሥተውለህ	-7565
▁አብቅቶልህ	-7566
▁አታገኘንም	-7567
▁አትምጣብኝ	-7568
▁አትፈርሥም	-7569
▁አንደበትህ	-7570
▁አንገላቱት	-7571
▁አካልበዋት	-7572
▁አያማልዱም	-7573
▁አያሻግርም	-7574
▁አይመረመር	-7575
▁አይደንቅም	-7576
▁አደረሥከው	-7577
▁አድርጊልን	-7578
▁አገልጋይም	-7579
▁ኤጲፋኒዮሥ	-7580
▁ኤፍሬምንም	-7581
▁እመለሣለሁ	-7582
▁እመቤታችን	-7583
▁እምፀናበት	-7584
▁እሥካገኘው	-7585
▁እሥክመለሥ	-7586
▁እሥክትመጣ	-7587
▁እሥጢፋኖሥ	-7588
▁እርሥበርሥ	-7589
▁እሸሸግበት	-7590
▁እናምናለን	-7591
▁እንበዛለን	-7592
▁እንደሚጠራ	-7593
▁እንደነበር	-7594
▁እንደጥንቱ	-7595
▁እንዲሠምር	-7596
▁እንዲሠግድ	-7597
▁እንዲሠጠው	-7598
▁እንዲያፈራ	-7599
▁እንዲደርሥ	-7600
▁እንዳልከው	-7601
▁እንዳልኩኝ	-7602
▁እንዳትሆን	-7603
▁እንዳትተፋ	-7604
▁እንዳትገባ	-7605
▁እንዳትፈራ	-7606
▁እንዳንጠፋ	-7607
▁እንድታማል	-7608
▁እንድትኖር	-7609
▁እየሠማነው	-7610
▁እየተጋገዙ	-7611
▁እየታገላት	-7612
▁እየፈላባት	-7613
▁ከሀዋርያት	-7614
▁ከምነግሮት	-7615
▁ከሠባልዮሥ	-7616
▁ከቤተልሄም	-7617
▁ከእንቅልፉ	-7618
▁ከክርሥቶሥ	-7619
▁ካልጠበቀኝ	-7620
▁የለመንከኝ	-7621
▁የለበሥኽው	-7622
▁የመልአኩን	-7623
▁የሚያመሠግ	-7624
▁የሚያቃጥል	-7625
▁የሚያጠፋት	-7626
▁የማይሽረው	-7627
▁የማይፈርሥ	-7628
▁የማደርገው	-7629
▁የምታውቀው	-7630
▁የተናገረው	-7631
▁የተከልኸው	-7632
▁የተከናወነ	-7633
▁የነገሥታት	-7634
▁የአማኑኤል	-7635
▁የአምላኩን	-7636
▁የአምላክን	-7637
▁የአንድነት	-7638
▁የእምነትን	-7639
▁የእሥራኤል	-7640
▁ያልቻልኩት	-7641
▁ያሥተማረኝ	-7642
▁ያረፍህበት	-7643
▁ያከበርከኝ	-7644
▁ይመሣሠላሉ	-7645
▁ይመሥልሀል	-7646
▁ይደባልቃሉ	-7647
▁ይገለፅልህ	-7648
▁ዲያብሎሥን	-7649
▁ድሮምበሠው	-7650
▁ገብርኤልን	-7651
▁ገድለነዋል	-7652
▁ጊዮርጊሥን	-7653
▁ግርግዳውም	-7654
▁ግርግዳውን	-7655
▁ሠጥቼዋለሁኝ	-7656
▁ሢያንጸባርቅ	-7657
▁ሥለበደለኞች	-7658
▁በማቀነባበር	-7659
▁በአንዳቸውም	-7660
▁በአገልግሎት	-7661
▁ባሥቀመጥኸን	-7662
▁ተከናወነላት	-7663
▁ተወለደሻልና	-7664
▁ተፈጥሮአቸው	-7665
▁አምላካዊበፍ	-7666
▁አሥለቀሠችን	-7667
▁አሥከባሪዎች	-7668
▁አያንቀላፋም	-7669
▁እንክርዳዱን	-7670
▁እንወድሻለን	-7671
▁እንደማትመጣ	-7672
▁እንደማትቀጣ	-7673
▁እንዲያገኘው	-7674
▁እንዲደርሠኝ	-7675
▁እንዳንሠጥም	-7676
▁እንጨፍራለን	-7677
▁እያጕረመረመ	-7678
▁እፋረደዋለው	-7679
▁ከመቅዶንዮሥ	-7680
▁ከሚያሥፈራው	-7681
▁ከበሥተሇላዬ	-7682
▁ክርሥትናዬን	-7683
▁የሀይማኖትን	-7684
▁የሚሠግዱለት	-7685
▁የሚያፈራርቅ	-7686
▁የሚፀልዩትን	-7687
▁የማይመረመር	-7688
▁የምትመሠገን	-7689
▁የተዘጋጀልህ	-7690
▁የተጠመቀብሽ	-7691
▁ያንቀሣቅሣሉ	-7692
▁ያፈራርሠውን	-7693
▁ጥንካሬዎትን	-7694
ጥናለንለመጨረሻ	-7695
▁ለሚያሥፈልገው	-7696
▁ለእግዚአብሄር	-7697
▁ሚሽከረከሩበት	-7698
▁ሚንቀሣቀሡበት	-7699
▁በመንፈሥቅዱሥ	-7700
▁ተዘርግተዋልና	-7701
▁አንደበተእሣቱ	-7702
▁አንዳይመሥላቹ	-7703
▁እንደለመደከው	-7704
▁እንዲጠብቅልኝ	-7705
▁እንዳመሠጠረው	-7706
▁እንዳይመሥልህ	-7707
▁የሚያደርጉበት	-7708
▁ጥንካሬያቸውን	-7709
▁ፍቁረእግዚእን	-7710
▁ኦርቶዶክሣውያን	-7711
▁የተንከራተትኸው	-7712
▁ፍረዱኝእሥክመለሥ	-7713
▁እንሠየጥናለንለመጨረሻ	-7714
ሀሤ	-7715
ሁፍ	-7716
ህነ	-7717
ህዳ	-7718
ሆቫ	-7719
ሆኚ	-7720
ሆዬ	-7721
ለአ	-7722
ለከ	-7723
ሉሉ	-7724
ሉማ	-7725
ሊክ	-7726
ላለ	-7727
ላቴ	-7728
ላቻ	-7729
ላኢ	-7730
ላከ	-7731
ላኩ	-7732
ላክ	-7733
ላጣ	-7734
ሌም	-7735
ልሚ	-7736
ልሠ	-7737
ልቀ	-7738
ልቡ	-7739
ልባ	-7740
ልቤ	-7741
ልፈ	-7742
ሎሙ	-7743
መቤ	-7744
መኚ	-7745
መካ	-7746
መዘ	-7747
መዳ	-7748
መፀ	-7749
ሙቅ	-7750
ሚጣ	-7751
ማና	-7752
ማዊ	-7753
ሜዬ	-7754
ምህ	-7755
ምል	-7756
ምሙ	-7757
ምሯ	-7758
ምድ	-7759
ምጡ	-7760
ምፁ	-7761
ሞና	-7762
ሠሜ	-7763
ሠቱ	-7764
ሠክ	-7765
ሠይ	-7766
ሠፍ	-7767
ሡባ	-7768
ሣር	-7769
ረማ	-7770
ረቶ	-7771
ረጓ	-7772
ረጫ	-7773
ሩኋ	-7774
ሩፋ	-7775
ሪማ	-7776
ሪቶ	-7777
ሪኮ	-7778
ራሚ	-7779
ራረ	-7780
ራሮ	-7781
ራኪ	-7782
ራጎ	-7783
ሬሣ	-7784
ርኦ	-7785
ሮሞ	-7786
ሮጡ	-7787
ሯጽ	-7788
ሸጥ	-7789
ሹት	-7790
ሺህ	-7791
ሻተ	-7792
ሾለ	-7793
ቀሽ	-7794
ቀያ	-7795
ቀጡ	-7796
ቁሮ	-7797
ቃዱ	-7798
ቄም	-7799
ለና	-7800
ለጽ	-7801
ሌብ	-7802
ሩሽ	-7803
ራዝ	-7804
ርት	-7805
ርገ	-7806
ሽሽ	-7807
ቅል	-7808
ቅሙ	-7809
ቅሩ	-7810
ቅድ	-7811
ቆሜ	-7812
ቆረ	-7813
ቆሽ	-7814
ቆን	-7815
በመ	-7816
በና	-7817
በኔ	-7818
በእ	-7819
በከ	-7820
በክ	-7821
በጠ	-7822
ባላ	-7823
ባታ	-7824
ቤቅ	-7825
ቤዠ	-7826
ብዙ	-7827
ቧራ	-7828
ተለ	-7829
ተሩ	-7830
ተር	-7831
ተቆ	-7832
ተነ	-7833
ተኝ	-7834
ተገ	-7835
ተጓ	-7836
ታም	-7837
ታቱ	-7838
ታቴ	-7839
ታዊ	-7840
ትሞ	-7841
ትቼ	-7842
ቸኛ	-7843
ቸኝ	-7844
ቸኮ	-7845
ቼው	-7846
ችና	-7847
ችግ	-7848
ነጩ	-7849
ነፀ	-7850
ናቱ	-7851
ናኒ	-7852
ናገ	-7853
ናፅ	-7854
ኔጣ	-7855
ንሽ	-7856
ንቆ	-7857
ንቷ	-7858
ንዳ	-7859
ንዴ	-7860
ኙኝ	-7861
ኚታ	-7862
ኝጭ	-7863
አለ	-7864
አር	-7865
አው	-7866
አዛ	-7867
አድ	-7868
እኮ	-7869
እው	-7870
እያ	-7871
እድ	-7872
እጅ	-7873
ኦሎ	-7874
ከላ	-7875
ከሥ	-7876
ከሮ	-7877
ከቀ	-7878
ከቡ	-7879
ከቶ	-7880
ከአ	-7881
ከክ	-7882
ኩታ	-7883
ኪራ	-7884
ኪኑ	-7885
ካሌ	-7886
ካል	-7887
ካሸ	-7888
ካን	-7889
ካዱ	-7890
ክሎ	-7891
ክሜ	-7892
ክክ	-7893
ክዱ	-7894
ኮሡ	-7895
ኸይ	-7896
ኹሉ	-7897
ኹሽ	-7898
ኽም	-7899
ሊቁ	-7900
ልል	-7901
ልኮ	-7902
ማኛ	-7903
ምባ	-7904
ሩግ	-7905
ሪው	-7906
ቀሉ	-7907
ቅሉ	-7908
ቦን	-7909
ቴዎ	-7910
ንያ	-7911
ክሽ	-7912
ወኩ	-7913
ወዝ	-7914
ወይ	-7915
ወዳ	-7916
ዉጣ	-7917
ውል	-7918
ውድ	-7919
ዘረ	-7920
ዜሮ	-7921
ዝማ	-7922
ዝም	-7923
ዝተ	-7924
ዝቱ	-7925
ዝያ	-7926
የሆ	-7927
የመ	-7928
የሙ	-7929
የሚ	-7930
የማ	-7931
የሠ	-7932
የር	-7933
የቤ	-7934
የና	-7935
የእ	-7936
ያም	-7937
ያቴ	-7938
ያዬ	-7939
ይም	-7940
ይር	-7941
ይቴ	-7942
ይቶ	-7943
ይቼ	-7944
ይኑ	-7945
ይፉ	-7946
ዮሙ	-7947
ደራ	-7948
ደበ	-7949
ዱሽ	-7950
ዲና	-7951
ዲዮ	-7952
ዳለ	-7953
ዳቱ	-7954
ዳቼ	-7955
ዳያ	-7956
ዴቅ	-7957
ዴው	-7958
ድም	-7959
ድሪ	-7960
ድሮ	-7961
ድቶ	-7962
ድነ	-7963
ዶሽ	-7964
ዶቅ	-7965
ጀገ	-7966
ጂን	-7967
ጅው	-7968
ገሌ	-7969
ገሡ	-7970
ገሪ	-7971
ገቷ	-7972
ገዢ	-7973
ገዳ	-7974
ጉሞ	-7975
ጉሠ	-7976
ጉእ	-7977
ጊጦ	-7978
ጋም	-7979
ጋራ	-7980
ጋር	-7981
ጋኝ	-7982
ግሞ	-7983
ግን	-7984
ግያ	-7985
ጎታ	-7986
ጎነ	-7987
ጓም	-7988
ጠቡ	-7989
ጡም	-7990
ጥነ	-7991
ጥጎ	-7992
ጨው	-7993
ጩን	-7994
ጭቅ	-7995
ጭቱ	-7996
ጸኝ	-7997
ጸው	-7998
ጸጽ	-7999
ለቆ	-8000
ለቲ	-8001
ልሦ	-8002
ምዶ	-8003
ሸዋ	-8004
ብአ	-8005
ትሽ	-8006
ንጭ	-8007
ክኑ	-8008
ዊረ	-8009
ዯም	-8010
ዱና	-8011
ገበ	-8012
ጥላ	-8013
ጥፋ	-8014
ጨና	-8015
ጻል	-8016
ጻን	-8017
ጻፍ	-8018
ጽድ	-8019
ፀጋ	-8020
ፀፍ	-8021
ፃሽ	-8022
ፈሠ	-8023
ፈዳ	-8024
ፈፋ	-8025
ፉና	-8026
ፉከ	-8027
ፍሥ	-8028
ፍቱ	-8029
ፍጬ	-8030
ፏት	-8031
▁ቂ	-8032
▁ፂ	-8033
ሁሩህ	-8034
ሁትን	-8035
ሄድሁ	-8036
ህርተ	-8037
ሆናው	-8038
ሆኚም	-8039
ለሁሉ	-8040
ለልጅ	-8041
ለመድ	-8042
ለቆች	-8043
ለብሽ	-8044
ለችኝ	-8045
ለአን	-8046
ለየው	-8047
ላልሞ	-8048
ላቅን	-8049
ላችው	-8050
ላወሥ	-8051
ሌሄም	-8052
ሌንአ	-8053
ልቃጡ	-8054
ልተው	-8055
ልናዬ	-8056
ልኝሀ	-8057
ልኝማ	-8058
ልከው	-8059
ልኩኝ	-8060
ልክት	-8061
ልድም	-8062
ልጅው	-8063
መልሥ	-8064
መርጦ	-8065
መጡት	-8066
መጥጥ	-8067
ማህን	-8068
ማንን	-8069
ምላሜ	-8070
ምላሥ	-8071
ምሥጋ	-8072
ምርት	-8073
ሠለቼ	-8074
ሠማኝ	-8075
ሠናል	-8076
ሠጪኝ	-8077
ሣለው	-8078
ሥቀየ	-8079
ሥብም	-8080
ሥትን	-8081
ሥገድ	-8082
ሥጥር	-8083
ረመረ	-8084
ረሣል	-8085
ረሥር	-8086
ረክብ	-8087
ረዳቱ	-8088
ረድኤ	-8089
ረጥሀ	-8090
ረጫል	-8091
ሪዬን	-8092
ራቀው	-8093
ራቁት	-8094
ርሥም	-8095
ርአት	-8096
ሸጠው	-8097
ሽራው	-8098
ሽነቱ	-8099
ላወ	-8100
ሌዳ	-8101
ሜታ	-8102
በሌ	-8103
ብም	-8104
ንጎ	-8105
ኩሦ	-8106
ካሙ	-8107
ወጥ	-8108
ዋጋ	-8109
ዛኔ	-8110
ዝቡ	-8111
የሞ	-8112
ዩህ	-8113
ዮታ	-8114
ደሩ	-8115
ዳዬ	-8116
ጉኝ	-8117
ጎጆ	-8118
ጥሎ	-8119
ፋኦ	-8120
ፔው	-8121
▁ኪ	-8122
ለብሦ	-8123
ሉበት	-8124
ሞታት	-8125
ረሣም	-8126
ረበሽ	-8127
ሬትን	-8128
ሺቷን	-8129
ቀልም	-8130
ቀበሥ	-8131
ቀፈን	-8132
ቅሞት	-8133
ቆማት	-8134
በሌከ	-8135
በሎሥ	-8136
በሠለ	-8137
በሣው	-8138
በረህ	-8139
በረን	-8140
በራፍ	-8141
በቃን	-8142
በዛፎ	-8143
ባርክ	-8144
ባበቁ	-8145
ብህን	-8146
ብላይ	-8147
ብሣል	-8148
ብቆሽ	-8149
ተማል	-8150
ተማሩ	-8151
ተዳዬ	-8152
ተጻፈ	-8153
ቱልኝ	-8154
ቱበት	-8155
ታዬን	-8156
ቶችህ	-8157
ቻለህ	-8158
ችበት	-8159
ኋሎሽ	-8160
ነቱም	-8161
ኑትን	-8162
ናችሁ	-8163
ንገጥ	-8164
ንገጨ	-8165
ንገፈ	-8166
ንግቶ	-8167
ንግጡ	-8168
ንጠለ	-8169
ንጨት	-8170
ኛችሁ	-8171
ኝነት	-8172
ኤደን	-8173
እለት	-8174
እማር	-8175
ከትሽ	-8176
ኪልን	-8177
ኬቱን	-8178
ክማት	-8179
ክበር	-8180
ኮነተ	-8181
ወደቀ	-8182
ወደን	-8183
ወደኝ	-8184
ወድህ	-8185
ወድሥ	-8186
ወጣቱ	-8187
ዋልክ	-8188
ዋእው	-8189
ውልም	-8190
ዘብን	-8191
ዙንም	-8192
ዚያዊ	-8193
ዛብን	-8194
ዜማሽ	-8195
ዝለቁ	-8196
ዝናል	-8197
ዟችሁ	-8198
የማን	-8199
ሀብ	-8200
ልቱ	-8201
ማሩ	-8202
ሟጠ	-8203
ሥው	-8204
ቡቡ	-8205
ቤቷ	-8206
ብሀ	-8207
ብጣ	-8208
ኩራ	-8209
ዪቱ	-8210
ዬህ	-8211
ዶቤ	-8212
ጆቿ	-8213
ማቱን	-8214
ሠናብ	-8215
ራርቢ	-8216
ሽሟጠ	-8217
ቁለው	-8218
ቆርጥ	-8219
ተኩራ	-8220
ኑልኝ	-8221
ንዳች	-8222
ንግዶ	-8223
ኸኛል	-8224
ዊትን	-8225
ውንት	-8226
ዘንብ	-8227
የቀሽ	-8228
የችው	-8229
የአት	-8230
ዩንተ	-8231
ያርባ	-8232
ያታዊ	-8233
ይነግ	-8234
ይፅና	-8235
ደረሡ	-8236
ደሩን	-8237
ደቷን	-8238
ደውም	-8239
ዳንቺ	-8240
ዳያን	-8241
ድለኝ	-8242
ድሥሽ	-8243
ድሥቷ	-8244
ድቅህ	-8245
ድጓው	-8246
ገላል	-8247
ገልፁ	-8248
ገመው	-8249
ገሥታ	-8250
ገሥፅ	-8251
ገነጣ	-8252
ገናው	-8253
ገዛዙ	-8254
ገደኝ	-8255
ገድግ	-8256
ገፈፈ	-8257
ጉነው	-8258
ጋዋን	-8259
ጋጎች	-8260
ግልኝ	-8261
ግማው	-8262
ግባና	-8263
ጎርሥ	-8264
ጠላሉ	-8265
ጠርን	-8266
ጢኖሥ	-8267
ጥቅጥ	-8268
ጥፎም	-8269
ጧታል	-8270
ጨረሠ	-8271
ጭተው	-8272
ፅአት	-8273
ፈሩም	-8274
ፈራል	-8275
ፈገፈ	-8276
ፈጥን	-8277
ፉልን	-8278
ፉብሽ	-8279
ፊትህ	-8280
▁ሀላ	-8281
▁ሀሣ	-8282
▁ሂወ	-8283
▁ሄሮ	-8284
▁ሄኖ	-8285
▁ህን	-8286
▁ህጻ	-8287
▁ለሊ	-8288
▁ለዳ	-8289
▁ለጎ	-8290
▁ለጨ	-8291
▁ልኡ	-8292
▁ልጂ	-8293
▁ልፋ	-8294
▁መረ	-8295
▁መቋ	-8296
▁መኖ	-8297
▁መፀ	-8298
▁ሚሸ	-8299
ልዶ	-8300
ማኙ	-8301
ሠነ	-8302
ሠና	-8303
ረጀ	-8304
ቂዬ	-8305
ቃኔ	-8306
ቡያ	-8307
ባዬ	-8308
ነጨ	-8309
ናፀ	-8310
ኝተ	-8311
ከሀ	-8312
ካዊ	-8313
ክሩ	-8314
ዋሽ	-8315
ዋቹ	-8316
ውቼ	-8317
ዘገ	-8318
ዛዝ	-8319
ያይ	-8320
ደያ	-8321
ዳቤ	-8322
ዶቹ	-8323
ጂግ	-8324
ጣላ	-8325
ጣች	-8326
ጨክ	-8327
ጨፋ	-8328
▁ዴ	-8329
ሙቀኝ	-8330
ሠናከ	-8331
ሥቅሥ	-8332
ቀጣን	-8333
ተዛዝ	-8334
ታከተ	-8335
ቴውሎ	-8336
ዘገይ	-8337
ያቂዬ	-8338
ጀብህ	-8339
ጐናፀ	-8340
ፃሽን	-8341
ፅዮን	-8342
ፈጠው	-8343
ፍጨፋ	-8344
▁ልቦ	-8345
▁ማጋ	-8346
▁ሜን	-8347
▁ሞተ	-8348
▁ሠቆ	-8349
▁ሢዳ	-8350
▁ሢጥ	-8351
▁ሥሞ	-8352
▁ቀላ	-8353
▁ቀሩ	-8354
▁ቀራ	-8355
▁ቀባ	-8356
▁ቆማ	-8357
▁ቆሻ	-8358
▁ቊጣ	-8359
▁ቋሚ	-8360
▁በካ	-8361
▁በዋ	-8362
▁በጊ	-8363
▁በጌ	-8364
▁በጭ	-8365
▁በፃ	-8366
▁ባዳ	-8367
▁ብካ	-8368
▁ተለ	-8369
▁ተሽ	-8370
▁ትር	-8371
▁ትዘ	-8372
▁ትድ	-8373
▁ቸር	-8374
▁ችላ	-8375
▁ነቅ	-8376
▁ነጭ	-8377
▁ኑሪ	-8378
▁ናና	-8379
▁ናዱ	-8380
▁አጃ	-8381
▁አጎ	-8382
▁አጭ	-8383
▁ኢያ	-8384
▁እሣ	-8385
▁እሽ	-8386
▁እይ	-8387
▁እፀ	-8388
▁ከሊ	-8389
▁ከቆ	-8390
▁ከኣ	-8391
▁ከጌ	-8392
▁ከፊ	-8393
▁ኬፋ	-8394
▁ክሥ	-8395
▁ኮቴ	-8396
▁ወቶ	-8397
▁ወዷ	-8398
▁ዋሤ	-8399
ሀና	-8400
ለሚ	-8401
ለፀ	-8402
መሉ	-8403
ማፂ	-8404
ሡና	-8405
ሥወ	-8406
ሥፈ	-8407
ረቡ	-8408
ቅሼ	-8409
ቅዴ	-8410
ባበ	-8411
ካሁ	-8412
ዲሡ	-8413
ጉል	-8414
ጎር	-8415
ጠባ	-8416
ጥቤ	-8417
ጥና	-8418
ለሚቷ	-8419
ለፀው	-8420
ሥራቋ	-8421
ሥፈቺ	-8422
በልጥ	-8423
ታጥቤ	-8424
ንድቆ	-8425
ከብደ	-8426
ዘባር	-8427
ጎጣት	-8428
ጠባቡ	-8429
ፅያት	-8430
▁ማተ	-8431
▁ማው	-8432
▁ምቀ	-8433
▁ተጭ	-8434
▁አቡ	-8435
▁ዋዛ	-8436
▁ውጣ	-8437
▁ዘነ	-8438
▁ዘና	-8439
▁ዘጠ	-8440
▁ዝግ	-8441
▁ዞራ	-8442
▁ዞሬ	-8443
▁ዞሮ	-8444
▁የቤ	-8445
▁የኹ	-8446
▁የጻ	-8447
▁ያሬ	-8448
▁ያሻ	-8449
▁ያከ	-8450
▁ያዘ	-8451
▁ያጠ	-8452
▁ያፋ	-8453
▁ይሉ	-8454
▁ይኤ	-8455
▁ይኸ	-8456
▁ይዜ	-8457
▁ይጨ	-8458
▁ደለ	-8459
▁ደበ	-8460
▁ዲዮ	-8461
▁ዳብ	-8462
▁ዶሮ	-8463
▁ገዙ	-8464
▁ገደ	-8465
▁ገዶ	-8466
▁ጋሬ	-8467
▁ጌጥ	-8468
▁ጎመ	-8469
▁ጠቢ	-8470
▁ጠጥ	-8471
▁ጡቶ	-8472
▁ጢሥ	-8473
▁ጣቢ	-8474
▁ጥሮ	-8475
▁ጥጉ	-8476
▁ጨም	-8477
▁ጫፎ	-8478
▁ጸጋ	-8479
▁ጽህ	-8480
▁ጽሙ	-8481
▁ፅድ	-8482
▁ፈሉ	-8483
▁ፈሩ	-8484
▁ፈሪ	-8485
▁ፈው	-8486
▁ፈፀ	-8487
▁ፈፅ	-8488
ህንፃሽ	-8489
ለመልም	-8490
ሊናዬም	-8491
ላችሁት	-8492
ልክልኝ	-8493
መልአኩ	-8494
መንበር	-8495
ማልቀን	-8496
ማፀናት	-8497
ማፂያን	-8498
ምረናል	-8499
ሎቷ	-8500
መጠ	-8501
ሠሪ	-8502
ሢቃ	-8503
ሻሉ	-8504
ቃጣ	-8505
በሮ	-8506
ብቱ	-8507
ዚሁ	-8508
ዳቋ	-8509
ጀል	-8510
ግጥ	-8511
ጠሮ	-8512
ጨድ	-8513
▁ፏ	-8514
ህርህ	-8515
ላለፍ	-8516
መግብ	-8517
ሣድግ	-8518
ረኝም	-8519
ሽአን	-8520
ቃጣይ	-8521
በሮው	-8522
ብቶች	-8523
ታዘዙ	-8524
ቶቹን	-8525
ንቀቁ	-8526
ኩራራ	-8527
ኸዋል	-8528
ዲሥን	-8529
ገባች	-8530
▁ሤቷ	-8531
▁ሥገ	-8532
▁በኑ	-8533
▁ደና	-8534
▁ድጋ	-8535
▁ፏፏ	-8536
ህርህተ	-8537
ምንብህ	-8538
ሠጠችን	-8539
ሠጠናል	-8540
ሤረኞች	-8541
ሥረክብ	-8542
ሥቀረው	-8543
ሥተሠሪ	-8544
ረሥተሽ	-8545
ረሥንሽ	-8546
ረገበት	-8547
ረጥነው	-8548
ረጥኩኝ	-8549
ራምሥት	-8550
ራራልኝ	-8551
ራርጡት	-8552
ሸነፈኝ	-8553
ሻላችሁ	-8554
ቀጠልኩ	-8555
ቁልቢው	-8556
ቅሠኛል	-8557
ቅርታው	-8558
ቅያኖሥ	-8559
ቅዱሣኑ	-8560
ቆርጠው	-8561
ቆጣቸው	-8562
ቆጣጠሩ	-8563
ቈጣለህ	-8564
በላሁም	-8565
በረበት	-8566
በቁትን	-8567
በቁእን	-8568
በቱበት	-8569
በኸዋል	-8570
በዛለት	-8571
ቢተኛው	-8572
ባብላት	-8573
ባታቸዉ	-8574
ብርየሞ	-8575
ተማመን	-8576
ተናልና	-8577
ቶንኮል	-8578
ችለውም	-8579
ነግታል	-8580
ናገርም	-8581
ናፅፈው	-8582
ናፍቃት	-8583
ኔያቸው	-8584
ንግሊቱ	-8585
ኖርበት	-8586
አርያም	-8587
ከብቱም	-8588
ከፋፈል	-8589
ከፍለው	-8590
ኩሣንን	-8591
ኮራኩር	-8592
ወርወር	-8593
ወርድም	-8594
ወቅላት	-8595
ወድሡት	-8596
ወጣበት	-8597
ዊጭንቀ	-8598
ዋርካው	-8599
ሀቡ	-8600
ሀፉ	-8601
ሣወ	-8602
ሣዊ	-8603
ረች	-8604
ቁቃ	-8605
ቆሬ	-8606
ቆተ	-8607
ቲቷ	-8608
ኩነ	-8609
ዝች	-8610
ዴቴ	-8611
ድሩ	-8612
ጅዳ	-8613
ግሎ	-8614
ግረ	-8615
መመው	-8616
ረችር	-8617
ሻህር	-8618
ቀርህ	-8619
በሉት	-8620
ኩነኒ	-8621
ጣፈጠ	-8622
▁ሢቸ	-8623
▁በዚ	-8624
▁ባት	-8625
▁እለ	-8626
▁ካጣ	-8627
ምጣውን	-8628
ሥታረቀ	-8629
ባለውን	-8630
ውልድን	-8631
ዘይትም	-8632
ዝእትነ	-8633
የሚፈት	-8634
የምሥጋ	-8635
የታችን	-8636
ይፅናኑ	-8637
ደረገው	-8638
ደንገጥ	-8639
ደከመኝ	-8640
ደዋልና	-8641
ዲያቆን	-8642
ድሥልኝ	-8643
ድሪብን	-8644
ዶሮውን	-8645
ዶክሣዊ	-8646
ጃቸውን	-8647
ገረጣው	-8648
ገበገብ	-8649
ገኝላት	-8650
ጊያዬን	-8651
ግረንተ	-8652
ግራውን	-8653
ግናውን	-8654
ጎችህን	-8655
ጎንበሥ	-8656
ጠራቸው	-8657
ጠቁመው	-8658
ጥነቷን	-8659
ጨንቀዉ	-8660
ጨድንገ	-8661
ጭንቀቷ	-8662
ጸባርቆ	-8663
ፀባርቆ	-8664
ፅናንቶ	-8665
ፈለገኝ	-8666
ፈልቃል	-8667
ፈራብዙ	-8668
ፈራኝም	-8669
ፈነልኝ	-8670
ፉለታል	-8671
ፋጀውን	-8672
ፍቀርህ	-8673
ፍትንም	-8674
▁ሀናና	-8675
▁ሀጢያ	-8676
▁ህልፈ	-8677
▁ሆነህ	-8678
▁ለሀዘ	-8679
▁ለመፀ	-8680
▁ለማይ	-8681
▁ለምዶ	-8682
▁ለትጎ	-8683
▁ለንግ	-8684
▁ለአዛ	-8685
▁ለእም	-8686
▁ለኪን	-8687
▁ለውጦ	-8688
▁ለውጬ	-8689
▁ለጅዳ	-8690
▁ሊሞላ	-8691
▁ሊሞት	-8692
▁ሊበራ	-8693
▁ሊተው	-8694
▁ሊታር	-8695
▁ሊያዋ	-8696
▁ሊጠፋ	-8697
▁ላለም	-8698
▁ላሣየ	-8699
ሠሚ	-8700
ርጣ	-8701
ሽም	-8702
ቂው	-8703
በዋ	-8704
በጀ	-8705
ቢተ	-8706
ትሬ	-8707
ነዳ	-8708
ንታ	-8709
ካት	-8710
ክድ	-8711
ኮነ	-8712
ዎቼ	-8713
ደወ	-8714
ጅና	-8715
ጋሪ	-8716
ጎሥ	-8717
ፀላ	-8718
ፈቻ	-8719
ሠሚኝ	-8720
ሤትን	-8721
ረሡሽ	-8722
ራጎረ	-8723
ርምም	-8724
ሸከመ	-8725
ሽባት	-8726
ቅጣት	-8727
ንሥቶ	-8728
ንያን	-8729
ወንዝ	-8730
ጀቡህ	-8731
ገርህ	-8732
ጣቂው	-8733
ፈውሥ	-8734
ፋጠኑ	-8735
▁ህሊ	-8736
▁ሥሮ	-8737
▁ቀዶ	-8738
▁ተፋ	-8739
▁ትሉ	-8740
▁አጡ	-8741
▁ዋሻ	-8742
▁የኦ	-8743
ሆናልና	-8744
ሥታውሥ	-8745
ረደችው	-8746
ርጣለሁ	-8747
ቀላፋት	-8748
በሩሽም	-8749
በዋረገ	-8750
በጀንም	-8751
ተሉበት	-8752
አንሥቶ	-8753
ኦሎጎሥ	-8754
ከርምም	-8755
ከፋንም	-8756
ደወለት	-8757
ገብካት	-8758
ፈረሡሽ	-8759
▁ሊገባ	-8760
▁ላይቋ	-8761
▁ልመጣ	-8762
▁ልሥማ	-8763
▁ልትና	-8764
▁መለከ	-8765
▁መልሽ	-8766
▁መልእ	-8767
▁መሠሉ	-8768
▁መሥቀ	-8769
▁መሥክ	-8770
▁መሦቡ	-8771
▁መርገ	-8772
▁መቅጂ	-8773
▁መተክ	-8774
▁መታው	-8775
▁መንግ	-8776
▁መንጭ	-8777
▁መክሠ	-8778
▁መወለ	-8779
▁መወድ	-8780
▁መደን	-8781
▁መገረ	-8782
▁መጠቃ	-8783
▁መጣኽ	-8784
▁መጥቶ	-8785
▁መፍቻ	-8786
▁ሚሥቱ	-8787
▁ሚሥጢ	-8788
▁ሚገል	-8789
▁ሚገባ	-8790
▁ማርከ	-8791
▁ማብሠ	-8792
▁ማነቆ	-8793
▁ማኖር	-8794
▁ማዘን	-8795
▁ማዶም	-8796
▁ማጀቱ	-8797
▁ማግኛ	-8798
▁ምቀኛ	-8799
ሁኑ	-8800
ሞቹ	-8801
ሮፖ	-8802
ሻኝ	-8803
ቁሽ	-8804
ባም	-8805
ታለ	-8806
ታኝ	-8807
ኘን	-8808
ኩሡ	-8809
ውራ	-8810
ድፋ	-8811
ግጅ	-8812
ጓራ	-8813
ጣብ	-8814
▁ኰ	-8815
▁❿	-8816
ላምጄ	-8817
መሞቱ	-8818
መንክ	-8819
ማተሩ	-8820
ሬሞን	-8821
ርሦች	-8822
ሮፖው	-8823
ቅሥቆ	-8824
ድፋአ	-8825
ግዳሮ	-8826
ግጅጋ	-8827
ጠራም	-8828
ጥቶት	-8829
ጸልኝ	-8830
▁ሊፈ	-8831
▁መፈ	-8832
▁ሠቃ	-8833
▁ቀድ	-8834
▁ቢቸ	-8835
▁ብሦ	-8836
▁ኖረ	-8837
▁እታ	-8838
▁ውጋ	-8839
▁ይር	-8840
▁ጩኽ	-8841
ሠቅሥቆ	-8842
ታለብሥ	-8843
ከፋለን	-8844
የሙሤን	-8845
የናቁሽ	-8846
ጎበኘን	-8847
ጠብጣብ	-8848
ጥሩንም	-8849
ጥፍተን	-8850
▁ላውራ	-8851
▁መረጠ	-8852
▁ሞረድ	-8853
▁ሞቋል	-8854
▁ሞገዱ	-8855
▁ሠለኛ	-8856
▁ሠላል	-8857
▁ሠማት	-8858
▁ሠምታ	-8859
▁ሠሟን	-8860
▁ሠራሁ	-8861
▁ሠራኝ	-8862
▁ሠራኤ	-8863
▁ሠርግ	-8864
▁ሠበሠ	-8865
▁ሠብቆ	-8866
▁ሠአቱ	-8867
▁ሠክቶ	-8868
▁ሠደድ	-8869
▁ሢላት	-8870
▁ሢሞት	-8871
▁ሢረሡ	-8872
▁ሢረገ	-8873
▁ሢራብ	-8874
▁ሢበታ	-8875
▁ሢነፋ	-8876
▁ሢያወ	-8877
▁ሢደረ	-8878
▁ሢጠሩ	-8879
▁ሢጥሉ	-8880
▁ሢፈት	-8881
▁ሣመና	-8882
▁ሣምሽ	-8883
▁ሣያት	-8884
▁ሣይል	-8885
▁ሣደማ	-8886
▁ሣጠረ	-8887
▁ሥለህ	-8888
▁ሥለሌ	-8889
▁ሥለቸ	-8890
▁ሥለው	-8891
▁ሥሏል	-8892
▁ሥምጻ	-8893
▁ሥታይ	-8894
▁ሥታጣ	-8895
▁ሥትሠ	-8896
▁ሥትን	-8897
▁ሥነም	-8898
▁ሥንመ	-8899
ለላ	-8900
መቆ	-8901
ሟር	-8902
ሠመ	-8903
ሮቹ	-8904
ሸጠ	-8905
ቡጥ	-8906
ተተ	-8907
ከህ	-8908
ኩና	-8909
ወዟ	-8910
ዋሉ	-8911
ውደ	-8912
ዩኝ	-8913
ጃበ	-8914
ግዘ	-8915
ፋዳ	-8916
መናት	-8917
ሚለው	-8918
ማቼው	-8919
ሣሾቹ	-8920
ራራል	-8921
ቁትን	-8922
ባቱን	-8923
ታንአ	-8924
ታክት	-8925
ነበዩ	-8926
ወዟን	-8927
ዘንጉ	-8928
ደልን	-8929
ደርብ	-8930
ዱበት	-8931
ጄራና	-8932
ጅላል	-8933
ጎሠመ	-8934
▁ሁከ	-8935
▁ሞቴ	-8936
▁ሟር	-8937
▁ብከ	-8938
▁ብፍ	-8939
▁ታይ	-8940
▁ነጥ	-8941
▁ከፋ	-8942
▁ወጉ	-8943
▁ያት	-8944
መርጣት	-8945
ሠራራል	-8946
ሥብልን	-8947
ሬታንአ	-8948
ነጅላል	-8949
ንነበዩ	-8950
ዟወዟን	-8951
ጃበበው	-8952
ግዘኝም	-8953
▁ላምባ	-8954
▁ላነሣ	-8955
▁ልወዝ	-8956
▁ሢነጋ	-8957
▁ሥንቁ	-8958
▁ሥከሥ	-8959
▁ርህራ	-8960
▁ሮማን	-8961
▁ሽበቱ	-8962
▁ሽብር	-8963
▁ሽታው	-8964
▁ቀንና	-8965
▁ቀውሥ	-8966
▁ቀዳዳ	-8967
▁ቀድሡ	-8968
▁ቀጡት	-8969
▁ቀጥሮ	-8970
▁ቅርሣ	-8971
▁ቅባት	-8972
▁ቅዱሡ	-8973
▁ቆመን	-8974
▁ቆምን	-8975
▁በህል	-8976
▁በልጇ	-8977
▁በማማ	-8978
▁በምእ	-8979
▁በምጥ	-8980
▁በሠፌ	-8981
▁በራማ	-8982
▁በሮዳ	-8983
▁በሷም	-8984
▁በቀሥ	-8985
▁በትረ	-8986
▁በአብ	-8987
▁በአዴ	-8988
▁በእሷ	-8989
▁በክብ	-8990
▁በየነ	-8991
▁በደዌ	-8992
▁በደፋ	-8993
▁በድሎ	-8994
▁በገና	-8995
▁በጋው	-8996
▁በጎች	-8997
▁በጠላ	-8998
▁በጥሬ	-8999
ለፅ	-9000
ልነ	-9001
ልጎ	-9002
ቲቱ	-9003
ኛት	-9004
ዬው	-9005
ድግ	-9006
ጋዙ	-9007
ጋጋ	-9008
ጣጣ	-9009
ፂያ	-9010
ፈክ	-9011
▁c	-9012
ሊለነ	-9013
ልለት	-9014
ሥንዴ	-9015
ንተሽ	-9016
ኖባት	-9017
አድር	-9018
እንገ	-9019
ክድህ	-9020
ዳሤን	-9021
ዳደሩ	-9022
ጠቀው	-9023
ጢያቱ	-9024
ጣጣሽ	-9025
ጥቅጠ	-9026
ጭበት	-9027
ፎከረ	-9028
▁ራብ	-9029
▁ተሯ	-9030
መሥጠት	-9031
ረቃለሁ	-9032
ቀረውን	-9033
ቃያችን	-9034
ቅኖባት	-9035
ነቀነቁ	-9036
ነነዋል	-9037
ንተሀት	-9038
እንገሥ	-9039
ድሥቲቱ	-9040
ፀናለን	-9041
ፂያቱን	-9042
▁ሁኛት	-9043
▁ለመታ	-9044
▁ለእሡ	-9045
▁መሥከ	-9046
▁በሞቴ	-9047
▁በጧት	-9048
▁በጻፍ	-9049
▁በፅኑ	-9050
▁በፈጠ	-9051
▁ቢመታ	-9052
▁ቢሣን	-9053
▁ቢረክ	-9054
▁ቢቈጣ	-9055
▁ቢነሡ	-9056
▁ባለመ	-9057
▁ባለማ	-9058
▁ባለም	-9059
▁ባርም	-9060
▁ባቀና	-9061
▁ባእድ	-9062
▁ባያኙ	-9063
▁ባያው	-9064
▁ባዶው	-9065
▁ቤቱን	-9066
▁ቤትክ	-9067
▁ቤቶች	-9068
▁ቤዛዬ	-9069
▁ብሎም	-9070
▁ብሎት	-9071
▁ብሞት	-9072
▁ብርዱ	-9073
▁ብታዘ	-9074
▁ብነሣ	-9075
▁ተመቱ	-9076
▁ተሞላ	-9077
▁ተርታ	-9078
▁ተሸፍ	-9079
▁ተቃቅ	-9080
▁ተተካ	-9081
▁ተቻለ	-9082
▁ተነጭ	-9083
▁ተንሣ	-9084
▁ተከይ	-9085
▁ተወሮ	-9086
▁ተውና	-9087
▁ተደፎ	-9088
▁ተድላ	-9089
▁ተገዙ	-9090
▁ተገፎ	-9091
▁ተግቶ	-9092
▁ተጎድ	-9093
▁ተጠራ	-9094
▁ተፈቶ	-9095
▁ታህል	-9096
▁ታላቁ	-9097
▁ታመሠ	-9098
▁ታመን	-9099
ሠቡ	-9100
ረቺ	-9101
ራቤ	-9102
ቅላ	-9103
ቦቿ	-9104
ካሻ	-9105
ካደ	-9106
ውየ	-9107
ዝቦ	-9108
የቴ	-9109
ጃዬ	-9110
ጅን	-9111
ግት	-9112
ጭላ	-9113
ጭአ	-9114
ጮል	-9115
ጸኑ	-9116
ፃሞ	-9117
ላዲተ	-9118
ምላኬ	-9119
ሠለት	-9120
ሣናት	-9121
ሣውቅ	-9122
ባሆዬ	-9123
ግሮቼ	-9124
ግናው	-9125
ጠላን	-9126
ጮልቄ	-9127
▁ምጽ	-9128
▁ሠጋ	-9129
▁ሢፀ	-9130
▁ቀኙ	-9131
▁ባረ	-9132
▁ተጫ	-9133
▁ፕራ	-9134
ርንጭላ	-9135
ርገምን	-9136
ቀቀኗን	-9137
ቤተሠቡ	-9138
ነግራት	-9139
ንንትን	-9140
እየካደ	-9141
ወደደው	-9142
ጎርፋል	-9143
ጭአጐን	-9144
ፃሞችን	-9145
ፅግናው	-9146
▁ሀያሉ	-9147
▁ለግት	-9148
▁መቅጸ	-9149
▁መታደ	-9150
▁ማቅረ	-9151
▁ምንድ	-9152
▁ሠጋጁ	-9153
▁በጆቹ	-9154
▁ባዮች	-9155
▁ታሠሩ	-9156
▁ታርደ	-9157
▁ታብቅ	-9158
▁ታዝቦ	-9159
▁ትሩፋ	-9160
▁ትኩሥ	-9161
▁ትወና	-9162
▁ትውፊ	-9163
▁ትደር	-9164
▁ቸገረ	-9165
▁ነውለ	-9166
▁ነውሩ	-9167
▁ነውር	-9168
▁ነገሠ	-9169
▁ነጽታ	-9170
▁ኑሮዋ	-9171
▁ንጽሂ	-9172
▁አለቱ	-9173
▁አለት	-9174
▁አልል	-9175
▁አመና	-9176
▁አማራ	-9177
▁አማና	-9178
▁አምቡ	-9179
▁አሣበ	-9180
▁አሣት	-9181
▁አሥሮ	-9182
▁አሥጠ	-9183
▁አረፍ	-9184
▁አቅሙ	-9185
▁አቅፋ	-9186
▁አበር	-9187
▁አብሦ	-9188
▁አንጥ	-9189
▁አንፆ	-9190
▁አከፍ	-9191
▁አወከ	-9192
▁አወይ	-9193
▁አውቄ	-9194
▁አዝዬ	-9195
▁አይኾ	-9196
▁አደጋ	-9197
▁አዳሪ	-9198
▁አዳፋ	-9199
ህፍ	-9200
ሆር	-9201
ለጫ	-9202
ሤው	-9203
ረሤ	-9204
ራሩ	-9205
ሻሽ	-9206
ብሏ	-9207
ናደ	-9208
ንዛ	-9209
ከሙ	-9210
ከዙ	-9211
ኽን	-9212
ወሤ	-9213
ዋም	-9214
ዘሬ	-9215
የጽ	-9216
ደሬ	-9217
ደሯ	-9218
ድመ	-9219
ዶሻ	-9220
ጋቱ	-9221
ግዶ	-9222
ጓቱ	-9223
ጠሬ	-9224
ጠቃ	-9225
ጤሥ	-9226
ጫው	-9227
ጸና	-9228
ፀነ	-9229
ፃእ	-9230
ሌሆር	-9231
ረቀት	-9232
ራመሥ	-9233
ቂቱን	-9234
በሣል	-9235
ንዛቤ	-9236
ንጫው	-9237
ኩሤው	-9238
ዬዋሻ	-9239
ግዱት	-9240
ጓጓቱ	-9241
▁ጹም	-9242
ሄዋንን	-9243
ህፍትን	-9244
ልብሻል	-9245
መሠሠው	-9246
ሞላለት	-9247
ሞላቸው	-9248
ቀድሙም	-9249
በቃቸው	-9250
ተምረኝ	-9251
የጽድቃ	-9252
ደርደሬ	-9253
ጠቃቀም	-9254
▁መራሩ	-9255
▁መዶሻ	-9256
▁መጤሥ	-9257
▁ሙሤና	-9258
▁ሙፃእ	-9259
▁ሣያው	-9260
▁ተቀይ	-9261
▁ታለም	-9262
▁አመን	-9263
▁አካሏ	-9264
▁አድኖ	-9265
▁አጋዤ	-9266
▁አግዝ	-9267
▁አጠን	-9268
▁አጠው	-9269
▁አጣደ	-9270
▁ኤጲሥ	-9271
▁እምነ	-9272
▁እሥረ	-9273
▁እረኝ	-9274
▁እሩኽ	-9275
▁እሩጫ	-9276
▁እራሣ	-9277
▁እራቅ	-9278
▁እርም	-9279
▁እርጥ	-9280
▁እናዋ	-9281
▁እኔኑ	-9282
▁እንታ	-9283
▁እንኑ	-9284
▁እንዘ	-9285
▁እንይ	-9286
▁እንፋ	-9287
▁እየመ	-9288
▁እዮብ	-9289
▁እደሁ	-9290
▁እድሌ	-9291
▁ከህዝ	-9292
▁ከለል	-9293
▁ከለከ	-9294
▁ከሌባ	-9295
▁ከልቡ	-9296
▁ከልክ	-9297
▁ከማድ	-9298
▁ከሥሩ	-9299
ሀሊ	-9300
ምሠ	-9301
ሠጋ	-9302
ራቡ	-9303
ራክ	-9304
ርጫ	-9305
ሸሹ	-9306
ትማ	-9307
ችቶ	-9308
ኞቴ	-9309
ወዱ	-9310
ውተ	-9311
ዘራ	-9312
ይፎ	-9313
ዴዝ	-9314
ግቤ	-9315
ጣኑ	-9316
ጣፉ	-9317
ጥመ	-9318
ጨቱ	-9319
ፌዝ	-9320
ለውሥ	-9321
ላልክ	-9322
ሡባማ	-9323
ረምን	-9324
ኣምራ	-9325
እይት	-9326
ከንድ	-9327
ኸንን	-9328
ዋያት	-9329
ጊያው	-9330
▁ሢጳ	-9331
▁ታጎ	-9332
▁ይዣ	-9333
ለማመጥ	-9334
ምሠልህ	-9335
ችቶአል	-9336
ዳያሣዝ	-9337
ጥመቂያ	-9338
ጽእይት	-9339
▁ሚሽር	-9340
▁ምርጫ	-9341
▁ምኞቴ	-9342
▁ሢራክ	-9343
▁ሢሸሹ	-9344
▁ሢቀኙ	-9345
▁ሢጳራ	-9346
▁ሸሽጎ	-9347
▁በቅጡ	-9348
▁በነዛ	-9349
▁ቢሠጥ	-9350
▁ባለህ	-9351
▁ብሩክ	-9352
▁ታጎለ	-9353
▁ትግሬ	-9354
▁ነፍሡ	-9355
▁አከብ	-9356
▁ከራሦ	-9357
▁ከቀበ	-9358
▁ከቤቴ	-9359
▁ከብሄ	-9360
▁ከተደ	-9361
▁ከአድ	-9362
▁ከዛች	-9363
▁ከዜማ	-9364
▁ከደሀ	-9365
▁ከደጀ	-9366
▁ከዳና	-9367
▁ከድጓ	-9368
▁ከገፋ	-9369
▁ከግል	-9370
▁ከጠፋ	-9371
▁ከፍላ	-9372
▁ካሌብ	-9373
▁ካመነ	-9374
▁ካሠኛ	-9375
▁ክንዱ	-9376
▁ክደው	-9377
▁ኮከበ	-9378
▁ኮከቡ	-9379
▁ወንዙ	-9380
▁ወይኒ	-9381
▁ዘበአ	-9382
▁ዘንተ	-9383
▁ዘዴው	-9384
▁ዘጠና	-9385
▁ዛሬሥ	-9386
▁ዝሙቱ	-9387
▁ዞአር	-9388
▁የለመ	-9389
▁የሌት	-9390
▁የሎሥ	-9391
▁የመሣ	-9392
▁የመዠ	-9393
▁የሚሞ	-9394
▁የምቃ	-9395
▁የሠል	-9396
▁የሣም	-9397
▁የሥም	-9398
▁የራእ	-9399
ሙሥ	-9400
ሥሩ	-9401
ሥጭ	-9402
ራዳ	-9403
ሸመ	-9404
ሽጉ	-9405
ቁቶ	-9406
ቂቅ	-9407
ቃሏ	-9408
ቃቂ	-9409
ችኝ	-9410
ኑም	-9411
ወፅ	-9412
ዪኝ	-9413
ዳሚ	-9414
ገጡ	-9415
ጮህ	-9416
ልኝን	-9417
ሎቱል	-9418
ረሀል	-9419
ረቱም	-9420
ባበት	-9421
ክዳት	-9422
ይሎሙ	-9423
ድምተ	-9424
ድኑም	-9425
▁ለጻ	-9426
▁ልው	-9427
▁ቢር	-9428
▁ብወ	-9429
▁ገዝ	-9430
▁ፋላ	-9431
ለመልማ	-9432
ልጅነቴ	-9433
ሥጭቴን	-9434
በልብሥ	-9435
ከረላት	-9436
▁ልቧን	-9437
▁መድከ	-9438
▁ምህር	-9439
▁ሢምል	-9440
▁ሥንኙ	-9441
▁ረቂቅ	-9442
▁ሽሽጉ	-9443
▁በትላ	-9444
▁ተኝቼ	-9445
▁ተክዞ	-9446
▁ታልሞ	-9447
▁አትፍ	-9448
▁አክሡ	-9449
▁ኦሮሞ	-9450
▁ከአፈ	-9451
▁ከፍጡ	-9452
▁ውሀው	-9453
▁የቀየ	-9454
▁የቍጣ	-9455
▁የበል	-9456
▁የተሾ	-9457
▁የተጨ	-9458
▁የታቦ	-9459
▁የነሣ	-9460
▁የነቢ	-9461
▁የነጣ	-9462
▁የነጻ	-9463
▁የናት	-9464
▁የንሥ	-9465
▁የንጉ	-9466
▁የአጋ	-9467
▁የእሡ	-9468
▁የዛኔ	-9469
▁የያዛ	-9470
▁የድሆ	-9471
▁የገባ	-9472
▁የገድ	-9473
▁የግፍ	-9474
▁የጠራ	-9475
▁የጠና	-9476
▁የጠፍ	-9477
▁የጥሉ	-9478
▁የፍሬ	-9479
▁ያለል	-9480
▁ያለመ	-9481
▁ያለን	-9482
▁ያላራ	-9483
▁ያልብ	-9484
▁ያልፋ	-9485
▁ያማት	-9486
▁ያሣበ	-9487
▁ያረካ	-9488
▁ያቅተ	-9489
▁ያቆመ	-9490
▁ያበረ	-9491
▁ያበር	-9492
▁ያበቅ	-9493
▁ያኖረ	-9494
▁ያውም	-9495
▁ያገር	-9496
▁ያገኝ	-9497
▁ያጠፋ	-9498
▁ያፋጀ	-9499
ህሪ	-9500
ቀጂ	-9501
ቅጦ	-9502
ተቡ	-9503
ቷም	-9504
ዝሬ	-9505
ይጥ	-9506
ደጎ	-9507
ዲቷ	-9508
ጣተ	-9509
ጫና	-9510
ጶሡ	-9511
ፃሙ	-9512
ፅረ	-9513
ፍፎ	-9514
▁❾	-9515
ላቀል	-9516
ረደው	-9517
ራቅቅ	-9518
ቀበር	-9519
ታጠብ	-9520
ዎሥቆ	-9521
ደረጋ	-9522
ደቷም	-9523
ግደው	-9524
ጥልኝ	-9525
▁ሥሩ	-9526
▁ሽታ	-9527
▁ቀኔ	-9528
▁እኝ	-9529
ለጥኩኝ	-9530
መለሡም	-9531
ቀጂልኝ	-9532
ወሠደው	-9533
ዲዎሥቆ	-9534
ግናለች	-9535
▁ለኩሦ	-9536
▁መጠየ	-9537
▁ሠሎሞ	-9538
▁ቀፍፎ	-9539
▁ቁፅረ	-9540
▁ቅይጥ	-9541
▁ቆጶሡ	-9542
▁በከን	-9543
▁ብረሣ	-9544
▁ተለካ	-9545
▁ተጣብ	-9546
▁ነቀር	-9547
▁አውቃ	-9548
▁እኝጅ	-9549
▁ወላጅ	-9550
▁ዋንጫ	-9551
▁ዜማዬ	-9552
▁ዝግባ	-9553
▁የምር	-9554
▁ያለያ	-9555
▁ይህፍ	-9556
▁ይሉት	-9557
▁ይላቸ	-9558
▁ይሠጥ	-9559
▁ይሻር	-9560
▁ይበራ	-9561
▁ይባል	-9562
▁ይታደ	-9563
▁ይቺን	-9564
▁ይነጉ	-9565
▁ይንቀ	-9566
▁ይደረ	-9567
▁ይጡም	-9568
▁ይጥም	-9569
▁ይጫወ	-9570
▁ደምቆ	-9571
▁ደራሽ	-9572
▁ደሮን	-9573
▁ደቡቡ	-9574
▁ደገመ	-9575
▁ደግፋ	-9576
▁ደፋር	-9577
▁ዱለት	-9578
▁ዳብሦ	-9579
▁ዳጎና	-9580
▁ድባብ	-9581
▁ገላጭ	-9582
▁ገልጬ	-9583
▁ገልፆ	-9584
▁ገዝቶ	-9585
▁ጉዞና	-9586
▁ጉዳት	-9587
▁ጋሻም	-9588
▁ግማድ	-9589
▁ግምባ	-9590
▁ግብዣ	-9591
▁ግፉን	-9592
▁ጎብጦ	-9593
▁ጎጠኝ	-9594
▁ጠረን	-9595
▁ጠበል	-9596
▁ጠባብ	-9597
▁ጠብን	-9598
▁ጣለው	-9599
ረር	-9600
ሽካ	-9601
ቡብ	-9602
ቸገ	-9603
ናፏ	-9604
ንፎ	-9605
ኤሊ	-9606
ኾን	-9607
ውሟ	-9608
ዛባ	-9609
ዝነ	-9610
ግታ	-9611
ፀዷ	-9612
ፋሺ	-9613
ፋኑ	-9614
ፍሽ	-9615
▁ዼ	-9616
ለብን	-9617
ሠውር	-9618
ሠግና	-9619
ሽካካ	-9620
በቃም	-9621
ኛውም	-9622
ከሠው	-9623
ኰልን	-9624
ግማሽ	-9625
ጣልኝ	-9626
ፍጠር	-9627
▁ሆኑ	-9628
▁ለባ	-9629
▁በሸ	-9630
▁ከዳ	-9631
▁ዝሎ	-9632
▁የቂ	-9633
▁ይጮ	-9634
▁ዮም	-9635
ልማብኝ	-9636
መርበት	-9637
ርታሡን	-9638
ርዶበት	-9639
ውሟቸው	-9640
ጉሥነቱ	-9641
ፋሺሥታ	-9642
▁ለቀረ	-9643
▁ሚከፍ	-9644
▁ሠቁቃ	-9645
▁ሥንል	-9646
▁በኤሊ	-9647
▁በወጡ	-9648
▁ቢኾን	-9649
▁ተንኜ	-9650
▁አሣዝ	-9651
▁አረጀ	-9652
▁አንጀ	-9653
▁ከአፀ	-9654
▁የማረ	-9655
▁የቂር	-9656
▁ይጮሁ	-9657
▁ጋኔን	-9658
▁ጣሉት	-9659
▁ጣሉኝ	-9660
▁ጣቢታ	-9661
▁ጣፈጠ	-9662
▁ጥሉን	-9663
▁ጥሎት	-9664
▁ጥጦሥ	-9665
▁ጦረኛ	-9666
▁ጦቢያ	-9667
▁ጨመረ	-9668
▁ጽዋእ	-9669
▁ጽዮን	-9670
▁ፀምር	-9671
▁ፀንታ	-9672
▁ፀዊረ	-9673
▁ፀዳሉ	-9674
▁ፃድቁ	-9675
▁ፈትቶ	-9676
▁ፈንጠ	-9677
▁ፈዝዤ	-9678
▁ፈጣን	-9679
▁ፈጥኜ	-9680
▁ፊትም	-9681
▁ፍልሚ	-9682
▁ፍሠቱ	-9683
▁ፍሣሽ	-9684
▁ፍቅሬ	-9685
▁ፖለቲ	-9686
ሀአርያም	-9687
ሄድሁበት	-9688
ለባሪያህ	-9689
ለፋህበት	-9690
ላማንገጨ	-9691
ላዲተቃል	-9692
ሌንአድሥ	-9693
ልማዳቸው	-9694
ልድያችን	-9695
መልከተን	-9696
መቤታችን	-9697
ሠርንበት	-9698
ሠክራለሁ	-9699
ሀደ	-9700
ለሸ	-9701
ላሽ	-9702
ሌኔ	-9703
ሟል	-9704
ሥፎ	-9705
ረነ	-9706
ቃቴ	-9707
ብቄ	-9708
ብው	-9709
ተች	-9710
ናጦ	-9711
ካኪ	-9712
ክኜ	-9713
ዘሽ	-9714
ዪው	-9715
ይቱ	-9716
ዳተ	-9717
ጃል	-9718
ግጎ	-9719
ፈጭ	-9720
ፍሎ	-9721
ቀዳጅ	-9722
ናፍጭ	-9723
ንድዬ	-9724
ዋሀደ	-9725
▁ለገ	-9726
▁በሤ	-9727
▁አዬ	-9728
▁የዚ	-9729
መሥልም	-9730
ረሣምና	-9731
ረሥቷል	-9732
ረነዋይ	-9733
ረድኤት	-9734
ተውብው	-9735
ኩሽንም	-9736
ዳተሥፋ	-9737
ገፋለሁ	-9738
ጫወተች	-9739
▁ሢከዳ	-9740
▁ቅርብ	-9741
▁በልጅ	-9742
▁በእጇ	-9743
▁በጋን	-9744
▁ቢወር	-9745
▁ቢፈጭ	-9746
▁ባሥብ	-9747
▁ባክኜ	-9748
▁ብሌኔ	-9749
▁ብቃቴ	-9750
▁ተገኝ	-9751
▁ተጣሞ	-9752
▁አሣለ	-9753
▁አይሎ	-9754
▁ኢትዮ	-9755
▁እምባ	-9756
▁እየባ	-9757
▁ይሞት	-9758
▁ገላዋ	-9759
▁ጠፍቷ	-9760
▁ፈልጉ	-9761
ሠግናለሁ	-9762
ሥቀመጡት	-9763
ሥተምረን	-9764
ረምረምን	-9765
ረጥሀቸው	-9766
ሸከመውን	-9767
በቅድሥቷ	-9768
በዋረገፈ	-9769
ብሎሽአን	-9770
ተነግራት	-9771
ተጎበኘን	-9772
ታቸውለኛ	-9773
ታቸውንም	-9774
ችንለአን	-9775
ነበታችሁ	-9776
ናገርኩት	-9777
ኔውንጉሥ	-9778
ንክረሀል	-9779
ንገታችን	-9780
ኖርኩበት	-9781
እንዳለው	-9782
ከበርኩት	-9783
ከወንበዴ	-9784
ወለደለኝ	-9785
ወደድኳት	-9786
ዊጭንቀት	-9787
ዛሙርቱን	-9788
የማርያም	-9789
የአትክል	-9790
ደረሡትን	-9791
ደረገልኝ	-9792
ደረጉልን	-9793
ደርጉበት	-9794
ዳተሥፋን	-9795
ድርሣናት	-9796
ጀመሪያም	-9797
ገብርኤል	-9798
ገደልህም	-9799
ላዊ	-9800
ልጦ	-9801
ሪባ	-9802
ሪኝ	-9803
ሮቱ	-9804
ቢኝ	-9805
ቶር	-9806
ንጕ	-9807
ኜው	-9808
ክች	-9809
ኲሥ	-9810
ውቦ	-9811
ዞሪ	-9812
ዳኘ	-9813
ጽም	-9814
ፈኸ	-9815
ፍገ	-9816
▁ኛ	-9817
ሆነች	-9818
ላለው	-9819
ልደኝ	-9820
መሥገ	-9821
መትን	-9822
ምለጥ	-9823
ረዞች	-9824
ሬአት	-9825
ቤዠን	-9826
ኔቶር	-9827
አርያ	-9828
ጸሀዩ	-9829
▁ላማ	-9830
▁ወና	-9831
▁ጎደ	-9832
ምላክህ	-9833
ምንትም	-9834
ሣዝኜው	-9835
ሥለመድ	-9836
ሥራዋን	-9837
ሥቆሮቱ	-9838
ነፃብሽ	-9839
ወድቃል	-9840
ዞሪባት	-9841
ገድላል	-9842
ፍገትን	-9843
▁መጣፍ	-9844
▁ሠብአ	-9845
▁ራሥህ	-9846
▁በሞላ	-9847
▁ትኲሥ	-9848
▁ንክች	-9849
▁ኖላዊ	-9850
▁እወዳ	-9851
▁ከፅና	-9852
▁ካለች	-9853
▁ካምና	-9854
▁ዘባን	-9855
▁ዝንጕ	-9856
▁ይናገ	-9857
▁ይጹም	-9858
▁ገደለ	-9859
▁ጥምር	-9860
▁ጭነው	-9861
▁ጸጋና	-9862
መሥገኑን	-9863
ቤቴሌሄም	-9864
አሣዝኜው	-9865
የነፃብሽ	-9866
ጐናፀፊያ	-9867
ጠራጠርም	-9868
ጠቅመኝን	-9869
ጠብቃቸው	-9870
ጥያቴንም	-9871
ጸታቸውን	-9872
ፈርዱበት	-9873
▁ሁናችሁ	-9874
▁ሁከትና	-9875
▁ህልናዬ	-9876
▁ህዝቤን	-9877
▁ህፃናት	-9878
▁ሆኖልኝ	-9879
▁ሆኖብኝ	-9880
▁ለህሊና	-9881
▁ለመልአ	-9882
▁ለመሞት	-9883
▁ለመተካ	-9884
▁ለመነው	-9885
▁ለመያዝ	-9886
▁ለመዳን	-9887
▁ለማሤር	-9888
▁ለማረድ	-9889
▁ለምንሥ	-9890
▁ለምኗት	-9891
▁ለሠቀል	-9892
▁ለቀማኛ	-9893
▁ለተፈጠ	-9894
▁ለታመሙ	-9895
▁ለአላማ	-9896
▁ለአፍታ	-9897
▁ለእርሡ	-9898
▁ለእርዳ	-9899
ላዩ	-9900
ሮፓ	-9901
ሷት	-9902
ሽሺ	-9903
ቀዉ	-9904
ቂን	-9905
ብድ	-9906
ናፌ	-9907
ኢብ	-9908
ኤን	-9909
ኩሠ	-9910
ኪቆ	-9911
ዘጉ	-9912
ዥን	-9913
ዲሷ	-9914
ድባ	-9915
ጇጋ	-9916
ፌው	-9917
▁ኣ	-9918
▁ጤ	-9919
ሁሉን	-9920
ህሩን	-9921
መኝን	-9922
ምላጭ	-9923
ሥተኛ	-9924
ታደለ	-9925
ነብር	-9926
ክብኝ	-9927
የምን	-9928
ጥያቷ	-9929
ፈጠኝ	-9930
ፍናል	-9931
▁ለሦ	-9932
▁ሥሸ	-9933
▁በጓ	-9934
▁ከጉ	-9935
▁ጤና	-9936
ላቸውን	-9937
መፀኞች	-9938
ቅዶለት	-9939
በላበት	-9940
ኩሠኝም	-9941
ኪቆሥል	-9942
ድባራቱ	-9943
ፈርሷት	-9944
▁ለላይ	-9945
▁መጣሁ	-9946
▁ሢወራ	-9947
▁ሥርአ	-9948
▁ሥንቴ	-9949
▁አዲሷ	-9950
▁ኣለኝ	-9951
▁ከፍል	-9952
▁የሀያ	-9953
▁የኔሥ	-9954
▁ያልው	-9955
▁ያውዳ	-9956
▁ጀብድ	-9957
▁ገበዟ	-9958
ረድሀለው	-9959
ሸከመኝን	-9960
▁ለሀጣን	-9961
▁ለእኔና	-9962
▁ለእንግ	-9963
▁ለወገሩ	-9964
▁ለዋጠው	-9965
▁ለያዛት	-9966
▁ለጠየቀ	-9967
▁ለጥቅም	-9968
▁ለጥፋት	-9969
▁ሊችለው	-9970
▁ሊከበር	-9971
▁ሊያሣይ	-9972
▁ሊያረዳ	-9973
▁ሊያጠፋ	-9974
▁ሊደምሩ	-9975
▁ላምላክ	-9976
▁ላሠናብ	-9977
▁ላወጣው	-9978
▁ላይጠፋ	-9979
▁ልምላሜ	-9980
▁ልቀመጥ	-9981
▁ልብህን	-9982
▁ልቦናን	-9983
▁ልታዥው	-9984
▁ልትሥብ	-9985
▁ልትጎት	-9986
▁ልፋትህ	-9987
▁መሆንን	-9988
▁መለሠና	-9989
▁መለውና	-9990
▁መልበሥ	-9991
▁መሠሉና	-9992
▁መሠላት	-9993
▁መሠንቆ	-9994
▁መሠየም	-9995
▁መሥራቷ	-9996
▁መሥርቶ	-9997
▁መረጠው	-9998
▁መቅረቱ	-9999
ሁሽ	-10000
መኳ	-10001
ሠፋ	-10002
ሩቁ	-10003
ታቹ	-10004
ቼን	-10005
ከች	-10006
ካኙ	-10007
ካእ	-10008
ኹት	-10009
ዉት	-10010
ዋዙ	-10011
ዌው	-10012
ዚም	-10013
ዛፉ	-10014
ዝሽ	-10015
ጄቴ	-10016
ጢኝ	-10017
ጧፍ	-10018
ፎቱ	-10019
ለሁም	-10020
ላዶር	-10021
ራቱም	-10022
በቅሁ	-10023
ባረካ	-10024
ክታት	-10025
ድልን	-10026
▁ሊቁ	-10027
▁ምሠ	-10028
▁ተታ	-10029
▁ተፉ	-10030
▁ትከ	-10031
▁ያሠ	-10032
▁ያገ	-10033
▁ይኑ	-10034
መኳንን	-10035
ማምተው	-10036
ሠደብህ	-10037
ሠጠሁሽ	-10038
በቅሁህ	-10039
እንዲሁ	-10040
ከርካእ	-10041
የቤታቹ	-10042
▁ልኬት	-10043
▁ልደር	-10044
▁መሥተ	-10045
▁ሥሮቿ	-10046
▁ሥንር	-10047
▁ሥጡን	-10048
▁ተማማ	-10049
▁አምባ	-10050
▁አንሽ	-10051
▁እባብ	-10052
▁እዛፉ	-10053
▁ከሩቁ	-10054
▁ከእሡ	-10055
▁ከጅራ	-10056
▁ወዝሽ	-10057
▁ያፀና	-10058
▁ዳሯን	-10059
▁ጠግቤ	-10060
▁ጨካኙ	-10061
መኳንንቱ	-10062
ባረካችሁ	-10063
▁ህመሙን	-10064
▁ለሥላሤ	-10065
▁መቆሜን	-10066
▁መቋሚያ	-10067
▁መብራት	-10068
▁መታመን	-10069
▁መታሠር	-10070
▁መታወክ	-10071
▁መቼነው	-10072
▁መናፈቅ	-10073
▁መንገላ	-10074
▁መንገሩ	-10075
▁መንጠል	-10076
▁መኖርህ	-10077
▁መግደል	-10078
▁መግደያ	-10079
▁መጠለያ	-10080
▁መጠራት	-10081
▁መጣበት	-10082
▁መጣኽና	-10083
▁መጫወቷ	-10084
▁መጻጉእ	-10085
▁መጽነሥ	-10086
▁መፅሀፍ	-10087
▁መፈወሥ	-10088
▁ሚሥጥሩ	-10089
▁ሚያበራ	-10090
▁ሚፈጥን	-10091
▁ማህበረ	-10092
▁ማህበራ	-10093
▁ማሠሪያ	-10094
▁ማሣዘኑ	-10095
▁ማሥተዋ	-10096
▁ማናችን	-10097
▁ማፋጨት	-10098
▁ምልክት	-10099
ሏም	-10100
ሜው	-10101
ሬሥ	-10102
ሻሙ	-10103
ቅኩ	-10104
ቲት	-10105
ቸሮ	-10106
ዋጥ	-10107
ዘማ	-10108
ዲቅ	-10109
ጣሢ	-10110
ጥሥ	-10111
ለቱን	-10112
ለየን	-10113
ሊያሥ	-10114
ሠብሽ	-10115
ሻዎች	-10116
ቀድም	-10117
በቀሥ	-10118
ታደሉ	-10119
ወላዲ	-10120
ይወጥ	-10121
ጠፋት	-10122
ፋሬሥ	-10123
▁ልኮ	-10124
▁መማ	-10125
▁መቈ	-10126
▁ሠታ	-10127
▁ከሦ	-10128
▁ውሠ	-10129
▁ያጸ	-10130
ሥጨንቅ	-10131
ረቡበት	-10132
ርጓሜው	-10133
ንሥጣሢ	-10134
ወላዲቱ	-10135
ዘማመር	-10136
▁ሁለቱ	-10137
▁ሙሤሥ	-10138
▁ሥረሣ	-10139
▁ቆሞሡ	-10140
▁ቢጠፋ	-10141
▁ንፍር	-10142
▁እፁብ	-10143
▁ከቍጣ	-10144
▁ከተን	-10145
▁ኮቸሮ	-10146
▁ወዲቅ	-10147
▁ወዳቼ	-10148
▁ዘውድ	-10149
▁ገራፊ	-10150
▁ፈጥኖ	-10151
ሥጨንቅሽ	-10152
ቅኩበትን	-10153
ነቅድሥት	-10154
ኣምራቱን	-10155
▁ሆኖሢቃ	-10156
▁ለመፈለ	-10157
▁ሊያጠራ	-10158
▁መማታት	-10159
▁መቃብሩ	-10160
▁መቈጣት	-10161
▁ሚቀድም	-10162
▁ምሥራቀ	-10163
▁ምርኩዝ	-10164
▁ምንሽር	-10165
▁ምንገዱ	-10166
▁ምእራቡ	-10167
▁ምድረበ	-10168
▁ምግባረ	-10169
▁ምግብህ	-10170
▁ሞቼበት	-10171
▁ሟርትን	-10172
▁ሠሎሜም	-10173
▁ሠማዯም	-10174
▁ሠምቷል	-10175
▁ሠቀቀን	-10176
▁ሠንበሩ	-10177
▁ሠአቱን	-10178
▁ሠውተው	-10179
▁ሠይጠፋ	-10180
▁ሢመለሡ	-10181
▁ሢመግብ	-10182
▁ሢማፀን	-10183
▁ሢሠርቅ	-10184
▁ሢርቀኝ	-10185
▁ሢቀየሩ	-10186
▁ሢቆጣው	-10187
▁ሢታለል	-10188
▁ሢታበይ	-10189
▁ሢኦልም	-10190
▁ሢከፋኝ	-10191
▁ሢወርድ	-10192
▁ሢወድቁ	-10193
▁ሢዘክሩ	-10194
▁ሢያመጣ	-10195
▁ሢያርፍ	-10196
▁ሢያበዛ	-10197
▁ሢያነባ	-10198
▁ሢያወያ	-10199
ረቤ	-10200
ቦቹ	-10201
ቷት	-10202
ኔል	-10203
ዉዝ	-10204
ዎቹ	-10205
ዞት	-10206
ዞቹ	-10207
ጅት	-10208
ጋየ	-10209
ጦሽ	-10210
ሥቆረ	-10211
ርሷት	-10212
ቢያዬ	-10213
ንተር	-10214
ወጣም	-10215
ገዱት	-10216
▁ማቲ	-10217
▁ቀጂ	-10218
▁ይጥ	-10219
▁ጋሻ	-10220
▁ጥመ	-10221
ሆነውን	-10222
ላቅቀው	-10223
ረቤቶቹ	-10224
▁ሀይለ	-10225
▁ህዝቡ	-10226
▁ልጅእ	-10227
▁መርሀ	-10228
▁መአድ	-10229
▁ማቆም	-10230
▁ሠምና	-10231
▁ሠውሮ	-10232
▁ቢንቀ	-10233
▁ተደር	-10234
▁ታዛዥ	-10235
▁አላሥ	-10236
▁አድሬ	-10237
▁እልደ	-10238
▁ወቅቱ	-10239
▁ዘለፋ	-10240
▁ዘንዶ	-10241
▁ገናዬ	-10242
▁ገዉዝ	-10243
▁ጌጋየ	-10244
▁ግዞት	-10245
▁ግጦሽ	-10246
▁ጠራው	-10247
ሥቀየመን	-10248
ሥቆረጠኝ	-10249
ንተርሠህ	-10250
የሆነውን	-10251
▁ልሥማህ	-10252
▁መታነው	-10253
▁ማቲዎሥ	-10254
▁ሠማታት	-10255
▁ሢያድር	-10256
▁ሢጀመር	-10257
▁ሢገባው	-10258
▁ሢገድል	-10259
▁ሢጠይቅ	-10260
▁ሢፈልግ	-10261
▁ሢፈርድ	-10262
▁ሣምሽው	-10263
▁ሣበችው	-10264
▁ሣታበዙ	-10265
▁ሣትሠለ	-10266
▁ሣትሸር	-10267
▁ሣትነግ	-10268
▁ሣያንገ	-10269
▁ሣይጎዳ	-10270
▁ሣይፈራ	-10271
▁ሣጠፋት	-10272
▁ሥለእኛ	-10273
▁ሥለወጣ	-10274
▁ሥለያት	-10275
▁ሥላመኑ	-10276
▁ሥላገለ	-10277
▁ሥልጣኑ	-10278
▁ሥምሽን	-10279
▁ሥረአቱ	-10280
▁ሥራበት	-10281
▁ሥቀበል	-10282
▁ሥተሻሽ	-10283
▁ሥትሠጥ	-10284
▁ሥትባል	-10285
▁ሥትድር	-10286
▁ሥንቄን	-10287
▁ሥንቱሥ	-10288
▁ሥንቱን	-10289
▁ሥንቶቹ	-10290
▁ሥንወዛ	-10291
▁ሥእለት	-10292
▁ሥጋዋን	-10293
▁ራእይን	-10294
▁ሸመነች	-10295
▁ሸሽተው	-10296
▁ቀሥቱን	-10297
▁ቀረበና	-10298
▁ቀርቷል	-10299
ሀቴ	-10300
ቶቸ	-10301
ጉሯ	-10302
ጳሡ	-10303
ፋጭ	-10304
▁ጰ	-10305
▁ጼ	-10306
▁፬	-10307
▁❶	-10308
▁❽	-10309
ሁዳን	-10310
ምላኳ	-10311
ራደር	-10312
ቶቸች	-10313
ይዥው	-10314
ጠሉት	-10315
ፍነን	-10316
▁በሁ	-10317
▁በቂ	-10318
▁ቻይ	-10319
▁አሾ	-10320
▁አቻ	-10321
▁አነ	-10322
▁አኬ	-10323
▁እኖ	-10324
▁እጽ	-10325
▁ክኽ	-10326
▁የሆ	-10327
▁የጭ	-10328
ለውጠው	-10329
ሸረሸረ	-10330
ታደርሥ	-10331
ክርዳዱ	-10332
ዛዥነት	-10333
ዲዮንም	-10334
ዳቼውን	-10335
ጠናቀቀ	-10336
▁ላክብ	-10337
▁ላፍሥ	-10338
▁ምንኛ	-10339
▁ሠብእ	-10340
▁ሢገር	-10341
▁ራርቶ	-10342
▁ተርጉ	-10343
▁ተትቶ	-10344
▁ተገና	-10345
▁አገረ	-10346
▁እንክ	-10347
▁ከራማ	-10348
▁የሚማ	-10349
▁ይግዛ	-10350
▁ጣፋጭ	-10351
▁ጩሀቴ	-10352
▁ጰራቅ	-10353
▁ጳጳሡ	-10354
▁ጼዴቅ	-10355
▁ፀጉሯ	-10356
ንክርዳዱ	-10357
ዛዥነትም	-10358
▁ህጉንም	-10359
▁ለአይን	-10360
▁መሆንሽ	-10361
▁ሢገርፍ	-10362
▁ሥራውም	-10363
▁ሸፍነን	-10364
▁ቀበሩት	-10365
▁ቀንበር	-10366
▁ቁመዋል	-10367
▁ቅድሚያ	-10368
▁ቆመናል	-10369
▁በሀሣብ	-10370
▁በሀይል	-10371
▁በሁለት	-10372
▁በህመም	-10373
▁በለምጽ	-10374
▁በላበት	-10375
▁በልጆቹ	-10376
▁በመናፍ	-10377
▁በመካከ	-10378
▁በመኮት	-10379
▁በመገረ	-10380
▁በሚለው	-10381
▁በሚያሥ	-10382
▁በማጣቴ	-10383
▁በምላሥ	-10384
▁በምትሀ	-10385
▁በሠልፍ	-10386
▁በሠሜን	-10387
▁በሠጠኝ	-10388
▁በሢኦል	-10389
▁በረቱም	-10390
▁በርከክ	-10391
▁በቀድሞ	-10392
▁በቀጠሮ	-10393
▁በበቀል	-10394
▁በበደሌ	-10395
▁በብርታ	-10396
▁በተርታ	-10397
▁በታቦር	-10398
▁በትነው	-10399
ሀችን	-10400
መትሽ	-10401
ሠርግ	-10402
ሥተር	-10403
በቃዉ	-10404
ቦካው	-10405
ታርፍ	-10406
ትፈራ	-10407
ችውን	-10408
ይታዬ	-10409
▁ልኩ	-10410
▁መቁ	-10411
▁መዞ	-10412
▁ቀፎ	-10413
▁በቼ	-10414
▁ተሎ	-10415
▁ከላ	-10416
▁ከሸ	-10417
▁ከሻ	-10418
▁ከች	-10419
▁ከዘ	-10420
▁ከጠ	-10421
▁ካሥ	-10422
▁ዊት	-10423
▁የሡ	-10424
▁የር	-10425
▁የኖ	-10426
▁የኤ	-10427
▁የዮ	-10428
▁የዲ	-10429
▁ያዙ	-10430
▁ይክ	-10431
▁ድና	-10432
▁ፊቷ	-10433
ለወጥም	-10434
ማትያሥ	-10435
ፓሥተር	-10436
▁ለአሚ	-10437
▁ለጾም	-10438
▁መቃብ	-10439
▁ምሠሦ	-10440
▁ቀንቶ	-10441
▁ቁራሽ	-10442
▁በቃኝ	-10443
▁ታትሞ	-10444
▁አመጡ	-10445
▁አንሡ	-10446
▁ኩራት	-10447
▁ዋጋን	-10448
▁ዛሬማ	-10449
▁የሀና	-10450
▁ፈዋሼ	-10451
▁ፋሢካ	-10452
ራርቢልን	-10453
ርማትያሥ	-10454
ታርፍባት	-10455
▁ልብሤን	-10456
▁መቁጠር	-10457
▁መጻፉን	-10458
▁ሢፈጥር	-10459
▁ሥላለህ	-10460
▁ሥታየው	-10461
▁ሥውሩም	-10462
▁ቆይታዬ	-10463
▁በመጋት	-10464
▁በበገና	-10465
▁በቼልታ	-10466
▁በነቢይ	-10467
▁በነገሩ	-10468
▁በነፍህ	-10469
▁በነፍሡ	-10470
▁በናንተ	-10471
▁በንብረ	-10472
▁በንጉሡ	-10473
▁በንፋሥ	-10474
▁በአካለ	-10475
▁በአይኔ	-10476
▁በአግባ	-10477
▁በአጭር	-10478
▁በእለት	-10479
▁በእምነ	-10480
▁በእሽታ	-10481
▁በእሾህ	-10482
▁በእዝነ	-10483
▁በእጆቿ	-10484
▁በክፉም	-10485
▁በወሬም	-10486
▁በወርቅ	-10487
▁በውሠጤ	-10488
▁በውሥጡ	-10489
▁በዘመር	-10490
▁በዘመኔ	-10491
▁በዮናሥ	-10492
▁በደህና	-10493
▁በደለኛ	-10494
▁በደመና	-10495
▁በደጉም	-10496
▁በዳናት	-10497
▁በገበጣ	-10498
▁በገደል	-10499
ህሮች	-10500
ሠጥህ	-10501
ሣየን	-10502
ርኦተ	-10503
ንነሣ	-10504
እዝተ	-10505
ከራሽ	-10506
ገረሸ	-10507
ጥምና	-10508
▁ለሌ	-10509
▁ለቱ	-10510
▁ለቴ	-10511
▁ለና	-10512
▁ለኢ	-10513
▁ለዝ	-10514
▁ለጢ	-10515
▁ሥነ	-10516
▁ሥና	-10517
▁ሥዘ	-10518
▁ሥግ	-10519
▁ተቋ	-10520
▁ነጻ	-10521
▁ነፈ	-10522
▁ይሞ	-10523
▁ይዠ	-10524
▁ይጾ	-10525
▁ይፁ	-10526
መጣለን	-10527
ብሥቱን	-10528
ተሽኛል	-10529
ከፈለሽ	-10530
ደዱበት	-10531
ጌጥምና	-10532
ጥጎለጎ	-10533
▁ሥጠን	-10534
▁በጸጋ	-10535
▁ተሣል	-10536
▁ታምኜ	-10537
▁ትሻው	-10538
▁ነገን	-10539
▁እንያ	-10540
▁እንጣ	-10541
▁ወሠኑ	-10542
▁የማና	-10543
▁የገበ	-10544
▁ይለያ	-10545
▁ጊዜያ	-10546
ነጣጥለው	-10547
የመከራሽ	-10548
ገረሸበት	-10549
ጥተሽኛል	-10550
ጥጎለጎል	-10551
▁ለሌላው	-10552
▁ለናቀው	-10553
▁ለኢሉማ	-10554
▁ለዝናብ	-10555
▁ለጢባር	-10556
▁ለጥማድ	-10557
▁ሊያነሣ	-10558
▁ላልፈታ	-10559
▁ሚደግም	-10560
▁ሠማቸው	-10561
▁ሠደዳት	-10562
▁ሤይጣን	-10563
▁ሥዘፍን	-10564
▁ሥግደት	-10565
▁በእቅፍ	-10566
▁በገናው	-10567
▁በግሸን	-10568
▁በግብፁ	-10569
▁በግብፅ	-10570
▁በግዜው	-10571
▁በጠፋን	-10572
▁በጥልቅ	-10573
▁በጥቂቱ	-10574
▁በጥብጦ	-10575
▁በጥፉት	-10576
▁በጸሎቷ	-10577
▁በጸበሉ	-10578
▁በጻፍኩ	-10579
▁በፀሎቱ	-10580
▁በፀጋው	-10581
▁ቢለግሥ	-10582
▁ቢቃጠል	-10583
▁ቢባረር	-10584
▁ቢቸገር	-10585
▁ቢነፍሥ	-10586
▁ቢከብደ	-10587
▁ቢያልቅ	-10588
▁ቢገባኝ	-10589
▁ቢጠራት	-10590
▁ቢጨነቅ	-10591
▁ባለርሥ	-10592
▁ባላቅን	-10593
▁ባልሠማ	-10594
▁ባሣዝን	-10595
▁ባሥወጣ	-10596
▁ባርቋል	-10597
▁ባንበቃ	-10598
▁ባይታይ	-10599
ምቀው	-10600
ቅርቡ	-10601
ታችው	-10602
ዳማቱ	-10603
ገርሙ	-10604
ግዛት	-10605
ጎዳህ	-10606
▁ልቃ	-10607
▁ልእ	-10608
▁ልጥ	-10609
▁ማዶ	-10610
▁ማጉ	-10611
▁ምታ	-10612
▁ምቹ	-10613
▁ምኗ	-10614
▁ሠለ	-10615
▁ሠሚ	-10616
▁ሠሩ	-10617
▁ሢከ	-10618
▁ሢጎ	-10619
▁ሣጣ	-10620
▁ብክ	-10621
▁ታቅ	-10622
▁ወላ	-10623
▁ወቀ	-10624
▁ወባ	-10625
▁ወዙ	-10626
▁ወጥ	-10627
▁ያመ	-10628
▁ያነ	-10629
▁ያኑ	-10630
▁ያያ	-10631
▁ያጎ	-10632
▁ጠጡ	-10633
▁➊➊	-10634
ሞላታል	-10635
ንቀናል	-10636
ውሷልና	-10637
▁ሆኖን	-10638
▁ማወቁ	-10639
▁ሥጣራ	-10640
▁አመፅ	-10641
▁አንሣ	-10642
▁ከሢና	-10643
▁የቀደ	-10644
▁ፈገግ	-10645
▁ለማተብ	-10646
▁ለአመነ	-10647
▁ልቃኘው	-10648
▁ልእልና	-10649
▁ልዩነት	-10650
▁ልጥግብ	-10651
▁መጥራቱ	-10652
▁ሚነገር	-10653
▁ምታሥር	-10654
▁ሢከሠሥ	-10655
▁ሢጎተት	-10656
▁ሥጋውና	-10657
▁ባሥነሣ	-10658
▁ባይነካ	-10659
▁ቤተሣይ	-10660
▁ቤታቸው	-10661
▁ብለውም	-10662
▁ብሉይና	-10663
▁ብታመም	-10664
▁ብትነድ	-10665
▁ብቻነው	-10666
▁ብከድን	-10667
▁ብወዳት	-10668
▁ብዛቱን	-10669
▁ቦታዎች	-10670
▁ተላተም	-10671
▁ተልእኮ	-10672
▁ተሟጋች	-10673
▁ተሠቀል	-10674
▁ተረዳና	-10675
▁ተራቁቶ	-10676
▁ተርበን	-10677
▁ተቀድሦ	-10678
▁ተቆናጦ	-10679
▁ተቆጥቶ	-10680
▁ተበድሎ	-10681
▁ተነሡሙ	-10682
▁ተነገረ	-10683
▁ተናወጠ	-10684
▁ተናገሪ	-10685
▁ተናጋሪ	-10686
▁ተናግሬ	-10687
▁ተከብራ	-10688
▁ተከፍታ	-10689
▁ተካፈሉ	-10690
▁ተክቶን	-10691
▁ተወድሦ	-10692
▁ተዘከረ	-10693
▁ተደልድ	-10694
▁ተደምሥ	-10695
▁ተገረፍ	-10696
▁ተገኝቶ	-10697
▁ተገፋኦ	-10698
▁ተጎተተ	-10699
ላልኝ	-10700
ሣካም	-10701
ሪነት	-10702
ሯቸው	-10703
ሻርው	-10704
ቋቸው	-10705
ተርፍ	-10706
ታደሩ	-10707
ችችን	-10708
ነትን	-10709
ነትዋ	-10710
አብራ	-10711
ዳነት	-10712
ጠነቅ	-10713
ጻቸው	-10714
ፀፀተ	-10715
ፏቸው	-10716
▁ሚል	-10717
▁ባሠ	-10718
▁ባከ	-10719
▁ባዮ	-10720
▁ባጣ	-10721
▁ባፉ	-10722
▁ትል	-10723
▁ትራ	-10724
▁ትሮ	-10725
▁ትኩ	-10726
▁ደሜ	-10727
▁ደቀ	-10728
▁ደን	-10729
▁ደጀ	-10730
▁ደጁ	-10731
▁ደጉ	-10732
▁ጭቅ	-10733
መሠለው	-10734
ኛለሁና	-10735
ገድልም	-10736
ጠነቅቅ	-10737
ፀፀተች	-10738
▁ሠማች	-10739
▁ቀጥቶ	-10740
▁ተፅፋ	-10741
▁ነውሬ	-10742
▁አንቀ	-10743
▁አወቅ	-10744
▁ኮሮጆ	-10745
▁ወደደ	-10746
▁ያለኝ	-10747
▁ዳገት	-10748
ልቶሥጥራ	-10749
በመሠለው	-10750
አብራለት	-10751
▁መረገጥ	-10752
▁በማሤር	-10753
▁በሤቶች	-10754
▁በእርፈ	-10755
▁በውሥጥ	-10756
▁ባመሠጠ	-10757
▁ባሠበት	-10758
▁ባከበራ	-10759
▁ባዮወዛ	-10760
▁ተጎድቼ	-10761
▁ተፀፅታ	-10762
▁ተፅፋአ	-10763
▁ተፈጠረ	-10764
▁ተፈጥረ	-10765
▁ታምሩን	-10766
▁ታቅፋት	-10767
▁ታንሠን	-10768
▁ታደገው	-10769
▁ታዲያን	-10770
▁ትረሣኝ	-10771
▁ትረጋጋ	-10772
▁ትራሤን	-10773
▁ትንቢቱ	-10774
▁ትኩሣት	-10775
▁ትግሥቱ	-10776
▁ቸገረው	-10777
▁ነበረው	-10778
▁ነብያት	-10779
▁ነውናአ	-10780
▁ነውእጅ	-10781
▁ነጎደና	-10782
▁ናፍቆቱ	-10783
▁ንብረቱ	-10784
▁ንእማር	-10785
▁ንጽህት	-10786
▁ኖራለች	-10787
▁አሁንማ	-10788
▁አለብኝ	-10789
▁አላለም	-10790
▁አላቅም	-10791
▁አላችሁ	-10792
▁አላገኘ	-10793
▁አልሁን	-10794
▁አልሆነ	-10795
▁አልሥራ	-10796
▁አልተወ	-10797
▁አልያው	-10798
▁አልፎም	-10799
ልክሎ	-10800
መታው	-10801
ምላት	-10802
ሥኪን	-10803
ፀነው	-10804
▁ሁኜ	-10805
▁ላሜ	-10806
▁ላረ	-10807
▁ላብ	-10808
▁ላታ	-10809
▁ላያ	-10810
▁ላደ	-10811
▁ችር	-10812
▁ድኝ	-10813
▁ድድ	-10814
▁ድጦ	-10815
▁ግሥ	-10816
▁ግሩ	-10817
▁ግሮ	-10818
▁ግታ	-10819
▁ግእ	-10820
▁ፀር	-10821
▁ፍረ	-10822
▁ፍራ	-10823
ቀደሠው	-10824
ገድኩት	-10825
ጠላለው	-10826
▁ሀገረ	-10827
▁ሠሌዳ	-10828
▁ሠልፉ	-10829
▁አለህ	-10830
▁አለማ	-10831
▁አለቷ	-10832
▁አለፍ	-10833
▁አልሞ	-10834
▁አደር	-10835
▁ከትሞ	-10836
▁ካለም	-10837
▁የሊቀ	-10838
▁የሚሆ	-10839
▁የሚረ	-10840
▁የሚን	-10841
▁የሚይ	-10842
▁የሚደ	-10843
▁የሚጎ	-10844
▁የሚጠ	-10845
▁የጠፋ	-10846
▁ይድረ	-10847
▁ግርጌ	-10848
በረከካሉ	-10849
▁ላረኩት	-10850
▁ላያጠፉ	-10851
▁ላደረሥ	-10852
▁መርጠው	-10853
▁መጸለይ	-10854
▁ሠሎሞን	-10855
▁ሠኮንድ	-10856
▁ሥትሄድ	-10857
▁በጥሪቱ	-10858
▁ቢርበኝ	-10859
▁ቢጠራው	-10860
▁ባፋቸው	-10861
▁ብሉይን	-10862
▁አለቱን	-10863
▁አመልክ	-10864
▁አምሣለ	-10865
▁አሠጭን	-10866
▁አሣልፌ	-10867
▁አሣራፊ	-10868
▁አሣተው	-10869
▁አሣያት	-10870
▁አሣጡት	-10871
▁አሥማሪ	-10872
▁አሥምሪ	-10873
▁አሥገረ	-10874
▁አሥጨን	-10875
▁አረመመ	-10876
▁አረሣም	-10877
▁አራዊቱ	-10878
▁አርገሽ	-10879
▁አርጎት	-10880
▁አሸብር	-10881
▁አሽሟጠ	-10882
▁አቃጥሉ	-10883
▁አቅፈሽ	-10884
▁አበቃኝ	-10885
▁አበውን	-10886
▁አባትሽ	-10887
▁አብልጦ	-10888
▁አብቅሎ	-10889
▁አብያተ	-10890
▁አትመረ	-10891
▁አናብር	-10892
▁አንሻም	-10893
▁አንተው	-10894
▁አንቺው	-10895
▁አንወረ	-10896
▁አንድል	-10897
▁አንድያ	-10898
▁አንጀቱ	-10899
ሀትን	-10900
ሀደና	-10901
ለጋሹ	-10902
ላትም	-10903
ልበት	-10904
ምሥጢ	-10905
ምራት	-10906
ሣይኝ	-10907
ቁበት	-10908
በትሽ	-10909
ብሄር	-10910
ቴሥታ	-10911
ንጉሥ	-10912
አለው	-10913
ከብሪ	-10914
ዩበት	-10915
ገለው	-10916
ጋለው	-10917
ጋበት	-10918
ጠለው	-10919
ጽበት	-10920
ጽናና	-10921
▁ሀሁ	-10922
▁ሀፅ	-10923
▁ሆሤ	-10924
▁ሚሾ	-10925
▁ሞቆ	-10926
▁ሣሙ	-10927
▁ሣማ	-10928
▁ሣም	-10929
▁ቀማ	-10930
▁ቀጪ	-10931
▁ክቡ	-10932
▁ክዳ	-10933
ረሣችሁ	-10934
በሠባሉ	-10935
ተገበር	-10936
ቴንሽን	-10937
▁ለሞቴ	-10938
▁ሊፆሙ	-10939
▁ልለው	-10940
▁ልትወ	-10941
▁መሪዋ	-10942
▁ሙገሣ	-10943
▁ሢለው	-10944
▁በመክ	-10945
▁ባላወ	-10946
▁ታምሜ	-10947
▁አይሀ	-10948
▁አይል	-10949
▁አይሥ	-10950
▁አይኑ	-10951
▁አደማ	-10952
▁ያልታ	-10953
▁ይሠቃ	-10954
▁ጉዞህ	-10955
▁ጠሉን	-10956
▁ጥጋት	-10957
▁ጽድቁ	-10958
▁ፈረዱ	-10959
▁ፋናው	-10960
ለመጥፎም	-10961
ምሥጢርሽ	-10962
ቴሥታንት	-10963
ዚያብሄር	-10964
ጽናናኛል	-10965
ፈልጋለው	-10966
▁ሀፅያቴ	-10967
▁ሆሤእየ	-10968
▁ለለጋሹ	-10969
▁ሊቀበል	-10970
▁ቅጽበት	-10971
▁በምሣሌ	-10972
▁በዛፎች	-10973
▁ተናዘዝ	-10974
▁ነበረች	-10975
▁ናአለው	-10976
▁አሠምቼ	-10977
▁አሸንፎ	-10978
▁አካላቱ	-10979
▁አክሊሉ	-10980
▁አዘዘና	-10981
▁አየሁኝ	-10982
▁አያቅም	-10983
▁አይለየ	-10984
▁አይተነ	-10985
▁አይተን	-10986
▁አይተዋ	-10987
▁አይንህ	-10988
▁አይንሣ	-10989
▁አይገኝ	-10990
▁አደለሽ	-10991
▁አደራዋ	-10992
▁አዳምሥ	-10993
▁አዳነው	-10994
▁አድሠው	-10995
▁አድርሦ	-10996
▁አዶናይ	-10997
▁አገባው	-10998
▁አገኘን	-10999
ህሉም	-11000
ላውን	-11001
መነጭ	-11002
ርቶየ	-11003
ቃችን	-11004
ወሩን	-11005
ወደሡ	-11006
ውንቱ	-11007
ዳችን	-11008
ጋችን	-11009
ጦችን	-11010
ጫወት	-11011
ፀዋል	-11012
▁ቢል	-11013
▁ቢሸ	-11014
▁ቢተ	-11015
▁ቢዘ	-11016
▁ታሣ	-11017
▁ታዛ	-11018
▁ዘማ	-11019
▁ዘታ	-11020
▁ጠለ	-11021
▁ጠሞ	-11022
▁ጠሪ	-11023
▁ጠራ	-11024
▁ጠር	-11025
▁ጠጅ	-11026
▁ጠፈ	-11027
ልዳለች	-11028
መለሥክ	-11029
በደለን	-11030
ደርሥም	-11031
ጫወትም	-11032
▁መመር	-11033
▁ሚኖሩ	-11034
▁ሚከተ	-11035
▁ሸሹት	-11036
▁ቀብሩ	-11037
▁ቀጠለ	-11038
▁በጋለ	-11039
▁ብውል	-11040
▁ተነክ	-11041
▁ታቦር	-11042
▁አምኜ	-11043
▁አይቻ	-11044
▁አይነ	-11045
▁አይከ	-11046
▁አይጋ	-11047
▁አይጸ	-11048
▁አጥፊ	-11049
▁እቤት	-11050
▁ዜማን	-11051
▁የድህ	-11052
▁ያቀፍ	-11053
▁ይችን	-11054
ለበደለን	-11055
ርቶየሚያ	-11056
▁ለጻድቃ	-11057
▁መምቻው	-11058
▁ሠባኪው	-11059
▁ሥጋሽን	-11060
▁ቃልህን	-11061
▁ቅዱሣኑ	-11062
▁ቆላውን	-11063
▁በአጭሩ	-11064
▁ቢመነጭ	-11065
▁ቢሸልል	-11066
▁ቢዘረጋ	-11067
▁ብትቈጣ	-11068
▁አዝነህ	-11069
▁አይቀን	-11070
▁አጉልቶ	-11071
▁አጉራሼ	-11072
▁አግላይ	-11073
▁አጠለል	-11074
▁አጠራሯ	-11075
▁አጠጭኝ	-11076
▁አጥበቃ	-11077
▁አጥፌው	-11078
▁አጥፍታ	-11079
▁አፅራረ	-11080
▁አፅድቄ	-11081
▁ኢትዮጲ	-11082
▁እሆናው	-11083
▁እለታት	-11084
▁እመኗት	-11085
▁እሣቱን	-11086
▁እሥርሥ	-11087
▁እሥቂያ	-11088
▁እሥትን	-11089
▁እሥኪሣ	-11090
▁እሥኪቆ	-11091
▁እረሣው	-11092
▁እረኛዬ	-11093
▁እሩጠሽ	-11094
▁እራሥን	-11095
▁እራቁት	-11096
▁እራቃት	-11097
▁እርቀቱ	-11098
▁እርገቷ	-11099
ለምታ	-11100
ለምት	-11101
ለምጹ	-11102
ራዳው	-11103
ቃለች	-11104
ባልታ	-11105
ናዋን	-11106
አዳም	-11107
ጆችሽ	-11108
ፈለም	-11109
ፈሩት	-11110
▁ቢጣ	-11111
▁ገሦ	-11112
▁ገኖ	-11113
▁ገዜ	-11114
▁ገፎ	-11115
▁ጨር	-11116
▁ፈሦ	-11117
▁ፈት	-11118
ታደገኝ	-11119
ገጠማት	-11120
ጌታችን	-11121
▁ሆዴን	-11122
▁ሥንጮ	-11123
▁በርሥ	-11124
▁በአለ	-11125
▁በአም	-11126
▁በአሠ	-11127
▁በአፄ	-11128
▁በእኛ	-11129
▁ተኩላ	-11130
▁አካሌ	-11131
▁አገለ	-11132
▁እያታ	-11133
▁ከእመ	-11134
▁ዛፉም	-11135
▁የተቆ	-11136
▁የተበ	-11137
▁የተዘ	-11138
▁የተጣ	-11139
▁የናኙ	-11140
▁ያዳር	-11141
▁ደመቀ	-11142
▁ደርቦ	-11143
▁ደርድ	-11144
ሎቱልብን	-11145
ከፋፈለም	-11146
ውሥጥህን	-11147
▁ምንጣፍ	-11148
▁ሠቀለች	-11149
▁ሥለምት	-11150
▁በደረት	-11151
▁ቢያየው	-11152
▁ቢጣጣሉ	-11153
▁ባትመጣ	-11154
▁አላዘኑ	-11155
▁አምላኳ	-11156
▁አብሥሮ	-11157
▁አብቅዬ	-11158
▁አይሠሩ	-11159
▁እነሡን	-11160
▁እነኋት	-11161
▁እነዲያ	-11162
▁እኒህን	-11163
▁እናቱም	-11164
▁እናትም	-11165
▁እንቁእ	-11166
▁እንትና	-11167
▁እንደማ	-11168
▁እንደሠ	-11169
▁እንደሡ	-11170
▁እንደር	-11171
▁እንደቃ	-11172
▁እንደዉ	-11173
▁እንደዬ	-11174
▁እንደጠ	-11175
▁እንዲሉ	-11176
▁እንዲቀ	-11177
▁እንዲጠ	-11178
▁እንዳሻ	-11179
▁እንዳቆ	-11180
▁እንዳያ	-11181
▁እንድካ	-11182
▁እንግል	-11183
▁እውቀቱ	-11184
▁እዘባር	-11185
▁እየሄዱ	-11186
▁እየረሣ	-11187
▁እየተማ	-11188
▁እየተጨ	-11189
▁እየፈተ	-11190
▁እያመሠ	-11191
▁እያነጻ	-11192
▁እያንጎ	-11193
▁እያወሣ	-11194
▁እያዘኑ	-11195
▁እያደረ	-11196
▁እያጠበ	-11197
▁እያጠና	-11198
▁እድሜን	-11199
ሉትን	-11200
ልንም	-11201
ረገም	-11202
ቂባት	-11203
ኑንም	-11204
ናንያ	-11205
ኦትን	-11206
ኩትን	-11207
ዘንም	-11208
ያትን	-11209
ግሥታ	-11210
ጡትን	-11211
▁ሊነ	-11212
▁ሊጥ	-11213
▁ሚቀ	-11214
▁ቋጥ	-11215
▁ቸል	-11216
▁ውሉ	-11217
▁ውሣ	-11218
▁ውዷ	-11219
▁ውጦ	-11220
ልሠታን	-11221
በዛልኝ	-11222
ናውቀው	-11223
ደውአት	-11224
ገዳገድ	-11225
ግልኛል	-11226
ጥፍጠህ	-11227
▁ለገዛ	-11228
▁ሢልሥ	-11229
▁በልብ	-11230
▁ባይወ	-11231
▁ትጠብ	-11232
▁አልቤ	-11233
▁አልፌ	-11234
▁አሥቀ	-11235
▁አሥበ	-11236
▁አሥከ	-11237
▁አቆሙ	-11238
▁እናማ	-11239
▁እናቷ	-11240
▁እናን	-11241
▁እያት	-11242
▁እያወ	-11243
▁እያጎ	-11244
▁እድል	-11245
▁ከሠዶ	-11246
▁ከኔጋ	-11247
▁ወዳፍ	-11248
▁የትን	-11249
▁ድምጸ	-11250
▁ፍረድ	-11251
ቀበላቸው	-11252
በእውነት	-11253
ኖርኩትን	-11254
▁ሀናንያ	-11255
▁ሆነበት	-11256
▁ሊነኩት	-11257
▁ሊጥሉት	-11258
▁መጠበቅ	-11259
▁ሚቀረድ	-11260
▁ማሣደዱ	-11261
▁ምሁራኑ	-11262
▁ሠውግራ	-11263
▁ሢፈጸም	-11264
▁ሮማንና	-11265
▁ሸክማች	-11266
▁ቋጥኙን	-11267
▁በእጅጉ	-11268
▁በደረሥ	-11269
▁በደብር	-11270
▁ንዋያት	-11271
▁አረጋው	-11272
▁አተኩራ	-11273
▁አነቃኝ	-11274
▁አውቀው	-11275
▁አያለሁ	-11276
▁አይመሽ	-11277
▁አደግድ	-11278
▁እያልን	-11279
▁እጃችን	-11280
▁እግርሽ	-11281
▁እግርና	-11282
▁እግዚእ	-11283
▁እግዚኦ	-11284
▁እጸሥር	-11285
▁እጽዋት	-11286
▁ከሀዲሡ	-11287
▁ከህዝቡ	-11288
▁ከመምር	-11289
▁ከመከራ	-11290
▁ከመጣህ	-11291
▁ከሚያው	-11292
▁ከሚዳቋ	-11293
▁ከማለት	-11294
▁ከሥርሽ	-11295
▁ከራሦት	-11296
▁ከሬሞን	-11297
▁ከቀፈፋ	-11298
▁ከበረዶ	-11299
ህምን	-11300
ላዶች	-11301
ምንና	-11302
ምንጭ	-11303
ሩመል	-11304
ሬምን	-11305
ችውም	-11306
ንግጥ	-11307
ኩልህ	-11308
ግምን	-11309
▁ህገ	-11310
▁ካህ	-11311
▁ካቶ	-11312
▁ካቻ	-11313
▁ካዋ	-11314
▁ጥጥ	-11315
ማመንየ	-11316
ሩመልሡ	-11317
ኩላቸው	-11318
ፃናቱን	-11319
▁ሊሆን	-11320
▁ሞኞች	-11321
▁ሥሙሥ	-11322
▁ሥሠድ	-11323
▁ሸፍን	-11324
▁በሞተ	-11325
▁በራድ	-11326
▁በታላ	-11327
▁ቢቆጥ	-11328
▁ተናግ	-11329
▁እየሣ	-11330
▁እየራ	-11331
▁እየቆ	-11332
▁እየው	-11333
▁እየጠ	-11334
▁እየፎ	-11335
▁ደምን	-11336
▁ጌታሽ	-11337
▁ግረህ	-11338
▁ጣባይ	-11339
▁ጥንተ	-11340
▁ጩሀት	-11341
▁ፈረሀ	-11342
ሥታርቀን	-11343
ገልህምን	-11344
▁ልትሄድ	-11345
▁መዝሙሩ	-11346
▁ሥሠድብ	-11347
▁ሥቀጥፍ	-11348
▁ሥንግጥ	-11349
▁በመሥቀ	-11350
▁በቃቸው	-11351
▁በውሥጤ	-11352
▁ብርክክ	-11353
▁ተለጉሞ	-11354
▁ተነግሮ	-11355
▁አሥገዛ	-11356
▁አንጠል	-11357
▁አይለካ	-11358
▁አድርጉ	-11359
▁እናምን	-11360
▁እንዲሥ	-11361
▁እንዲነ	-11362
▁እያመሣ	-11363
▁ከቤትህ	-11364
▁ከተሠራ	-11365
▁ከችግር	-11366
▁ከነሠራ	-11367
▁ከነበር	-11368
▁ከነብር	-11369
▁ከንጉሡ	-11370
▁ከአምድ	-11371
▁ከአበሣ	-11372
▁ከአንተ	-11373
▁ከአካሌ	-11374
▁ከአፎቱ	-11375
▁ከወተት	-11376
▁ከወይን	-11377
▁ከውሥጥ	-11378
▁ከዚያማ	-11379
▁ከደዌው	-11380
▁ከዳመና	-11381
▁ከድቶኝ	-11382
▁ከጠሊቁ	-11383
▁ከጣለው	-11384
▁ከጥልቁ	-11385
▁ከጥኋት	-11386
▁ከጥንተ	-11387
▁ከጥዋት	-11388
▁ከጫጩት	-11389
▁ከጸሀዩ	-11390
▁ከፈተና	-11391
▁ከፈነው	-11392
▁ከፍለው	-11393
▁ከፍቅር	-11394
▁ከፍተው	-11395
▁ኪዳነም	-11396
▁ካህኑን	-11397
▁ካላበራ	-11398
▁ካቶሊክ	-11399
ሆንሽ	-11400
ሆንኩ	-11401
መረው	-11402
ምድር	-11403
ርፍም	-11404
ባዮን	-11405
ቦትሽ	-11406
ትነቱ	-11407
ንተው	-11408
ወረው	-11409
ድረው	-11410
ጸናል	-11411
ፍቶት	-11412
ቀረበው	-11413
ባዮንና	-11414
ደረገኝ	-11415
▁ህልም	-11416
▁ለደቀ	-11417
▁ምንህ	-11418
▁ሢሞላ	-11419
▁ሣድር	-11420
▁ሥሆን	-11421
▁ቀብር	-11422
▁አጠፋ	-11423
▁ከመቅ	-11424
▁ካደረ	-11425
▁ወደአ	-11426
▁ወደኩ	-11427
▁ወደፐ	-11428
▁የአመ	-11429
▁የአጵ	-11430
▁የውሀ	-11431
▁የገር	-11432
▁ግዴታ	-11433
▁ጥቅሙ	-11434
እንቅልፍ	-11435
▁ለንግሥ	-11436
▁ማሣለፍ	-11437
▁ሥለማይ	-11438
▁ሥረወፅ	-11439
▁ሥትወጣ	-11440
▁ቆጥረው	-11441
▁በሆንኩ	-11442
▁በሠላም	-11443
▁ቢመሥል	-11444
▁ባወድሥ	-11445
▁አልሆን	-11446
▁አቃጥሏ	-11447
▁አጠፋም	-11448
▁ከርሷም	-11449
▁ክብርሽ	-11450
▁ክብርን	-11451
▁ክብደት	-11452
▁ኮብላይ	-11453
▁ወለደች	-11454
▁ወሥዶት	-11455
▁ወረቀት	-11456
▁ወራትም	-11457
▁ወታደር	-11458
▁ወንበር	-11459
▁ወይኑን	-11460
▁ወይንም	-11461
▁ወደርሡ	-11462
▁ወደነሡ	-11463
▁ወዳጅህ	-11464
▁ወጋነው	-11465
▁ወጣብላ	-11466
▁ዋጋውን	-11467
▁ውሀዎች	-11468
▁ውሥጥዛ	-11469
▁ውበትና	-11470
▁ውጋጋን	-11471
▁ዘመንህ	-11472
▁ዘማዊት	-11473
▁ዘርዝሬ	-11474
▁ዘርግቼ	-11475
▁ዘንግቶ	-11476
▁ዙፋኑን	-11477
▁ዝሙተኛ	-11478
▁ዝምታው	-11479
▁የለመድ	-11480
▁የለብህ	-11481
▁የለየው	-11482
▁የላቸው	-11483
▁የሌላት	-11484
▁የልመና	-11485
▁የልጆች	-11486
▁የልጇን	-11487
▁የመሬቱ	-11488
▁የመቃብ	-11489
▁የመታው	-11490
▁የመናኒ	-11491
▁የመናዋ	-11492
▁የመጠነ	-11493
▁የሙሤየ	-11494
▁የሚለም	-11495
▁የሚላት	-11496
▁የሚራራ	-11497
▁የሚቀዳ	-11498
▁የሚበድ	-11499
ለትም	-11500
ላቱን	-11501
ሩህሩ	-11502
ቅናት	-11503
ናበር	-11504
ንቱን	-11505
ዋትት	-11506
ዘነው	-11507
ጥረኝ	-11508
ጻናት	-11509
▁ቆሎ	-11510
▁ንቃ	-11511
ላውጥም	-11512
ሩህሩሁ	-11513
ቅብኛል	-11514
ፍቅርሽ	-11515
▁መልሥ	-11516
▁ሢመጡ	-11517
▁ሢከር	-11518
▁ሥፋት	-11519
▁ቅናት	-11520
▁ቅጣቱ	-11521
▁በመለ	-11522
▁በመመ	-11523
▁በመሠ	-11524
▁በመታ	-11525
▁በሣት	-11526
▁ብሣት	-11527
▁ተጣል	-11528
▁ነበል	-11529
▁አምጪ	-11530
▁አባሽ	-11531
▁እሥሬ	-11532
▁ከቀኝ	-11533
▁የእረ	-11534
▁የእኔ	-11535
▁የእው	-11536
▁የእዳ	-11537
▁ግንብ	-11538
ውተገረፈ	-11539
▁ሀይሉን	-11540
▁ሚሸለት	-11541
▁ሢከርሙ	-11542
▁ሢያመራ	-11543
▁ሥራቸው	-11544
▁ሥትጠፉ	-11545
▁ሥዋትት	-11546
▁በቁጥር	-11547
▁በእርጥ	-11548
▁ቢለኩሡ	-11549
▁ተጨነቁ	-11550
▁አምሀው	-11551
▁አባትን	-11552
▁አግዥን	-11553
▁እናዚም	-11554
▁ከልቡና	-11555
▁ከአሥም	-11556
▁ክላልኝ	-11557
▁የለኝም	-11558
▁የሚመታ	-11559
▁የሚነቀ	-11560
▁የሚከዳ	-11561
▁የሚገሥ	-11562
▁የሚገባ	-11563
▁የሚግል	-11564
▁የሚጠብ	-11565
▁የማለደ	-11566
▁የማላጣ	-11567
▁የማማላ	-11568
▁የማይለ	-11569
▁የማይቀ	-11570
▁የምሥጢ	-11571
▁የምርጥ	-11572
▁የምትይ	-11573
▁የምገኝ	-11574
▁የምጓዝ	-11575
▁የሞትኩ	-11576
▁የሠበረ	-11577
▁የሠበከ	-11578
▁የሠብአ	-11579
▁የሠአት	-11580
▁የሠውን	-11581
▁የሥጋዌ	-11582
▁የራሤን	-11583
▁የቀመረ	-11584
▁የቃናው	-11585
▁የቅኔው	-11586
▁የቅዱሥ	-11587
▁የበአሉ	-11588
▁የተማር	-11589
▁የተሠና	-11590
▁የተሠዋ	-11591
▁የተራመ	-11592
▁የተሻሙ	-11593
▁የተባል	-11594
▁የተቸገ	-11595
▁የተነበ	-11596
▁የተነጩ	-11597
▁የተኛሁ	-11598
▁የተዘጋ	-11599
ማረክ	-11600
ሠቢያ	-11601
ሠውረ	-11602
ሠውና	-11603
ረትቶ	-11604
ሮብሽ	-11605
ጠጣት	-11606
ማምተን	-11607
ዳናችን	-11608
▁ለመል	-11609
▁ለመካ	-11610
▁ሠሞን	-11611
▁ሠውም	-11612
▁ሣይታ	-11613
▁ሥመን	-11614
▁ሥሠማ	-11615
▁ቅመሽ	-11616
▁ቋጥኝ	-11617
▁በሠማ	-11618
▁በየእ	-11619
▁ቡሩክ	-11620
▁ቢደረ	-11621
▁ባላት	-11622
▁ቤትን	-11623
▁ብላት	-11624
▁ብሎሽ	-11625
▁ትራሤ	-11626
▁ከሠሣ	-11627
▁የላት	-11628
▁የንገ	-11629
▁ድልም	-11630
▁ገዶኝ	-11631
▁ጠዋት	-11632
▁ጣሯን	-11633
▁ጥልቁ	-11634
ሠቀሠውና	-11635
ሠቢያነቱ	-11636
ሠውረኛል	-11637
ደርሡበት	-11638
▁ህይወቷ	-11639
▁ሌሎችን	-11640
▁ልሁንይ	-11641
▁ማይሠጥ	-11642
▁ቅመሽው	-11643
▁በሠርክ	-11644
▁በተካሁ	-11645
▁በአራት	-11646
▁በድብቅ	-11647
▁በጎችህ	-11648
▁ባይሠላ	-11649
▁ተረትቶ	-11650
▁ተንቢይ	-11651
▁አውሬው	-11652
▁አየብሽ	-11653
▁አይምጣ	-11654
▁አድርጌ	-11655
▁እየተነ	-11656
▁የሠማእ	-11657
▁የተሠማ	-11658
▁የተያዘ	-11659
▁የታረሠ	-11660
▁የታነቁ	-11661
▁የታወቀ	-11662
▁የታየው	-11663
▁የታደክ	-11664
▁የቴውሎ	-11665
▁የኋሎሽ	-11666
▁የነፍሤ	-11667
▁የነፍሥ	-11668
▁የንጉሥ	-11669
▁የኖህን	-11670
▁የአሥራ	-11671
▁የአባቴ	-11672
▁የአንተ	-11673
▁የእለት	-11674
▁የእሷን	-11675
▁የእቅዴ	-11676
▁የእናት	-11677
▁የከበደ	-11678
▁የከተበ	-11679
▁የከፈል	-11680
▁የወጣው	-11681
▁የውሥጤ	-11682
▁የዘመሩ	-11683
▁የዘመድ	-11684
▁የዘይቴ	-11685
▁የዘጋው	-11686
▁የደመና	-11687
▁የገበሩ	-11688
▁የገነነ	-11689
▁የጉባኤ	-11690
▁የጉዞዬ	-11691
▁የጠመሙ	-11692
▁የጠራው	-11693
▁የጭንቀ	-11694
▁የጽድቅ	-11695
▁የፊትህ	-11696
▁ያለመታ	-11697
▁ያለማመ	-11698
▁ያለርሡ	-11699
ለሁኝ	-11700
ሠበረ	-11701
ሠንሥ	-11702
ረድክ	-11703
ሩልን	-11704
ባችሁ	-11705
ተውል	-11706
ትተው	-11707
ኋችሁ	-11708
ንድሮ	-11709
ኘቷን	-11710
▁ሚታ	-11711
▁ሞላ	-11712
▁ሞቀ	-11713
▁ዋላ	-11714
▁ጋል	-11715
▁ጋጥ	-11716
ለሁበት	-11717
ሚያለሁ	-11718
ቀዋለች	-11719
ብለዋል	-11720
ኑኤልን	-11721
ወለደህ	-11722
ወጣባት	-11723
ጥንትና	-11724
▁ልኖር	-11725
▁ሎጥን	-11726
▁ሚሆን	-11727
▁ሚባል	-11728
▁ሚገር	-11729
▁ማረፍ	-11730
▁ሞቱን	-11731
▁ሠምራ	-11732
▁ሢለኝ	-11733
▁ሥትሸ	-11734
▁ሥትና	-11735
▁ረሣና	-11736
▁ሸክላ	-11737
▁በርራ	-11738
▁በዜሮ	-11739
▁ተመካ	-11740
▁አቅቶ	-11741
▁አበረ	-11742
▁አወጡ	-11743
▁አዝሎ	-11744
▁እርቄ	-11745
▁እርጅ	-11746
▁እግሯ	-11747
▁ውግያ	-11748
▁ያሣረ	-11749
▁ይሠራ	-11750
▁ፈተው	-11751
▁ልትድን	-11752
▁	-11753
ን	-11754
ት	-11755
አ	-11756
ሥ	-11757
በ	-11758
ም	-11759
እ	-11760
ው	-11761
ል	-11762
ለ	-11763
ር	-11764
የ	-11765
መ	-11766
ይ	-11767
ነ	-11768
ተ	-11769
ያ	-11770
ደ	-11771
ከ	-11772
ብ	-11773
ድ	-11774
ሠ	-11775
ማ	-11776
ላ	-11777
ህ	-11778
ና	-11779
ረ	-11780
ታ	-11781
ገ	-11782
ግ	-11783
ወ	-11784
ቀ	-11785
ቅ	-11786
ባ	-11787
ክ	-11788
ራ	-11789
ፍ	-11790
ጠ	-11791
ሣ	-11792
ች	-11793
ጥ	-11794
ዳ	-11795
ኝ	-11796
ሀ	-11797
ሁ	-11798
ቱ	-11799
ፈ	-11800
ጣ	-11801
ሉ	-11802
ሽ	-11803
ቶ	-11804
ዘ	-11805
ሢ	-11806
ሆ	-11807
ጋ	-11808
ቃ	-11809
ሚ	-11810
ዋ	-11811
ካ	-11812
ሡ	-11813
ኔ	-11814
ሩ	-11815
ፋ	-11816
ቸ	-11817
ሞ	-11818
ሎ	-11819
ቢ	-11820
ኛ	-11821
ሮ	-11822
ቆ	-11823
ዝ	-11824
ኖ	-11825
ዲ	-11826
ዛ	-11827
ሬ	-11828
ቤ	-11829
ሙ	-11830
ቴ	-11831
ዱ	-11832
ጅ	-11833
ጉ	-11834
ሊ	-11835
ሄ	-11836
ጌ	-11837
ሪ	-11838
ፀ	-11839
ኩ	-11840
ሤ	-11841
ዚ	-11842
ኑ	-11843
ቁ	-11844
ጎ	-11845
ዬ	-11846
ዮ	-11847
ሸ	-11848
ጨ	-11849
ሌ	-11850
ዶ	-11851
ቡ	-11852
ሦ	-11853
ጊ	-11854
ፅ	-11855
ሻ	-11856
ፊ	-11857
ዜ	-11858
ኢ	-11859
ቼ	-11860
ኮ	-11861
ዴ	-11862
ጽ	-11863
ኤ	-11864
ሜ	-11865
ኪ	-11866
ጢ	-11867
ዩ	-11868
ቦ	-11869
ጀ	-11870
ዙ	-11871
ቷ	-11872
ቻ	-11873
ጡ	-11874
ጭ	-11875
ቺ	-11876
ጸ	-11877
ዊ	-11878
ፃ	-11879
ጦ	-11880
ዉ	-11881
ፉ	-11882
ዎ	-11883
ኸ	-11884
ጆ	-11885
ፎ	-11886
ሷ	-11887
ዞ	-11888
ሯ	-11889
ኘ	-11890
ቂ	-11891
ቹ	-11892
ቋ	-11893
ኬ	-11894
ኒ	-11895
ኦ	-11896
ጫ	-11897
ጃ	-11898
ጄ	-11899
ቲ	-11900
ሏ	-11901
ኞ	-11902
ጁ	-11903
ጓ	-11904
ቄ	-11905
ኳ	-11906
ሾ	-11907
ኋ	-11908
ጵ	-11909
ፁ	-11910
ጂ	-11911
ጤ	-11912
ኙ	-11913
ጻ	-11914
ፌ	-11915
ሟ	-11916
ዷ	-11917
ጹ	-11918
ኜ	-11919
ጇ	-11920
ጪ	-11921
ኗ	-11922
ኚ	-11923
ጩ	-11924
ጮ	-11925
ዌ	-11926
ኽ	-11927
ጾ	-11928
ሹ	-11929
ሺ	-11930
ኡ	-11931
ጴ	-11932
ዤ	-11933
ቧ	-11934
ጬ	-11935
ጲ	-11936
ሼ	-11937
ፆ	-11938
ሂ	-11939
ቿ	-11940
ኹ	-11941
ጐ	-11942
ቈ	-11943
ጳ	-11944
ዟ	-11945
ዥ	-11946
ፏ	-11947
ፖ	-11948
ኣ	-11949
ዠ	-11950
➊	-11951
ʻ	-11952
ኧ	-11953
ጧ	-11954
ጿ	-11955
ፕ	-11956
ቫ	-11957
ኻ	-11958
ዢ	-11959
ዪ	-11960
ጕ	-11961
ጶ	-11962
ፂ	-11963
❷	-11964
❸	-11965
ሇ	-11966
ሿ	-11967
ቊ	-11968
ቍ	-11969
ቪ	-11970
ኰ	-11971
ኵ	-11972
ኾ	-11973
ዣ	-11974
ጷ	-11975
ጺ	-11976
ፓ	-11977
❹	-11978
❺	-11979
❻	-11980
❼	-11981
c	-11982
ኲ	-11983
ዯ	-11984
ዼ	-11985
ጰ	-11986
ጼ	-11987
ፄ	-11988
ፐ	-11989
ፔ	-11990
፬	-11991
❶	-11992
❽	-11993
❾	-11994
❿	-11995
